bfd23de8
beef8b32
3f55643b
3f6a73a9
3f13e44f
bfa90454
bdc8b126
3d96324e
be50f5e3
3f5a09fa
3ffa387d
bf17cd9b
bfa2a03a
beed3f40
bf6274a3
bfb2719c
3fa3dbb2
3eb6b1f1
3faf4880
3ec09314
3f7f6f0c
3c64dce3
bc17a521
3e9adad1
3c749736
3f88b684
3fc7c390
3cf90890
3f24710a
bee4c7bc
bfd79c2e
bfc23592
3ec36959
3f2f186a
bfafa7ee
bed7bec4
3f87f895
3f0ee65f
be8807fe
bf5daca0
3f4100cd
bfccf0c1
3e3e9b41
bf850ad1
bf1fe573
3f935f62
3f13a220
3e093b55
3fd4f9b8
3f372ff1
40163309
3d63b4d8
3fc9cf5a
3dd4b746
bf53a32c
bf09a17d
bf9dccf7
3f936fb3
bf25a5e6
3fc185c3
3f30a0bd
beed486b
be10aa7f
bf6f6d87
bf976198
bf183902
3e920c6e
3d86760a
be8437d9
bdacc306
3f14b42a
3ebf54eb
bc8f90fd
be8633db
beae5f35
3e410680
3e5e4271
3ec8070b
3ede8c73
bfd8929c
bff21cc6
becd87aa
3fbb2aed
3ffd5d3b
3e9352dd
be4473ab
c03114ba
bf461800
3f1af002
3e7c41b2
bf2c57d7
3deff6c4
be8feb2f
bf189bf3
bd416c6a
3fdf86b1
bf3a1a54
bf064f65
bfe6089b
3f10852a
bfb56f6a
bf855e07
3ec5c22b
3e70fd54
3f451c6a
3fb0d9d7
40167a5a
3f56ffee
3df783fa
bc76896b
3e11913d
3f99958f
bf18fcd9
bfd7cd0f
be445fa5
3ed75cfc
3f466887
3f38f8e1
3f8774be
bf709eca
3efd09e7
3fd33f34
bd054a0d
bf443957
bece9637
bf8ba17b
bf294dee
be421b67
3fa713d1
bf80ded5
3e66fb87
3d96abc3
bf44df2e
3ff760be
3f336f95
bfe39055
bf668b09
3e0873fc
bf7719f8
bfd33fbc
bfef56d6
3ecec1fc
bf204615
bffb62e8
bf6b3ff7
bff6e29a
400a14ad
befbc64f
3d63eab7
bfb563b9
3f9caf6e
3ff1f3bc
bf78531e
3f5f29f6
3f9bce0c
3f7e2a62
be875d11
c01cff2e
bdbfc61e
bd39940f
3ed5fbe6
3f7f41e2
befe3dbd
3f4e2dcc
3de6357c
4034f7e3
3dfbe854
befc654c
bf1d8218
bf90a630
bf2f2aad
bf4cf1d7
bf010a43
3f233cf8
3f72d488
3f20ff63
bfa07236
bed538d2
bea56f2e
3c629a4c
bfcc5803
bea7dc53
bf56e9a3
c017c162
3fb654a7
3bab07e4
3eb0a5b5
bf9edf2a
3fdc1417
3e2135e5
bf485900
3c88f297
3f33aa42
3f91ea55
bf78483a
3f6bca58
bf547df5
bf555c12
be86e4d2
be963218
bf20b9b1
bf47e468
becf8b7a
bf914157
bff605cf
bf28d5e4
3fa90e91
bf9309d2
bd23fdaa
bedc229f
bf13278a
beb2772b
3ee81941
3fc1e1bc
c02df3df
be625329
4002f848
be8c99aa
3ff3754d
3fa40f0d
3fada22a
bf7f3e02
be7072bb
3edb440a
3fb83a24
beac1ca1
bfa2407a
3f9fe09e
3f407788
3f0e53a6
bd94232b
3f49443c
3d522a47
bf805c8b
3f22220e
3fbb7310
bea07082
3fe6c787
3fbc82fd
4042e194
bf3c7898
bd6006ed
3ef31803
be541ff8
bf265bce
3f03fa01
3f32f5a9
3f193e92
3f5f728a
3f92fdcb
3ec80409
bf4d35c5
bf0c80fc
bf1a8907
3e337216
bf384149
bf173fe2
bf1f429e
bf7802bc
bf19ceb5
40069741
bf03afef
bf5bdd2a
bf31c603
be70b975
3e9f6a21
3c7fc9c2
beea5699
bfadeb55
bf5659c6
bef59f60
3f87b822
bf7a45e4
bfbcd2e6
3f35b83d
3dcc7607
3f890b61
be5aa895
bf28715a
3f862464
bf2313e2
bf0baf8d
c003e84e
3eff5b4b
beaa6321
bf557d16
3ef27963
bdec4175
3fa75a22
3f5e2e6a
3f9fa99e
3eecc1ee
bd0fbebb
be6e9b2f
3f91e3bd
bdfd4c66
bf5629f5
beaaa056
3d93f956
be3415b7
3fddca64
bf83f770
be7dbb7e
3f275f99
bf8f0253
bec1bdcd
3d9356a7
3ef39348
3fa4c53e
3e8b64f7
3e8ee1f7
3f7269df
bf9fc903
bd65f88d
c0054e2f
bec5cb44
be92e408
3fc5c9a2
bef86632
bf0b0aef
bf13270c
beb134c1
bf545ec6
3f8f94e2
3f807c46
beac690a
bf3879de
bef1f974
3d31c000
bf1f2c1a
3ecc96a3
bf1ee2b9
3f57fcf8
3e8a791a
bf0def55
3e294c38
3f15e737
bf07020b
c02ae5ac
bf8cda5f
bfa47638
bf0ac562
3e1f5073
3f56106f
3fa84b17
bf389ee1
3f9b2cba
3f8e6fd1
be4d05db
3f6a5881
bfe4c7d3
bf822826
3f5786dd
bf98cec1
400db0cb
bf8c972d
40307a2f
3e40db69
be77c4bc
3f497508
3f3f2164
3eb2ffd4
3f1db906
bf1cdf1a
3f5f13d4
bf34cf1e
3f34c76c
bfba2311
3f087d01
3fc98718
bfafafc9
bf53090c
bf22bdce
3ec18c36
bd6278e1
3f8d783f
bf07112e
bfb5cac3
be1e3518
be38c9ab
3f479780
3fe840aa
be10571c
3f7e946f
3fe8a289
3db4f157
be4f3a96
bf9fde7f
3e916a3b
bead186e
3e86f380
3edf10f5
3e82d2d0
bf4f9b58
3f542cd7
bf62734a
3d8be0c6
be6a7010
3f7a52d4
3da1ceae
3f8a272d
4015599e
be35a32e
bf15d967
bf9e10df
bf05e036
3eaa4ba5
3eb6e98f
bf5fa307
3f07a914
3fb301b7
3ebbb8f1
beb7f613
bf9494b9
3eb7246a
3f7209a9
bf21d8a1
3f054489
3ece3f93
bf9002c9
bf004178
3e6896fe
bfa0186d
3f5e2c90
bf830896
3ea65286
3f3b6548
3fed32e7
3e21db64
bef606e1
3fc589a5
3e7a52ec
bd55e8e4
bf57d8ca
be64d2b6
3f649508
3f0e7db4
3d334362
bb674065
bf2d7ee8
be6fc6b1
3fd53f1e
3f27a919
3fbd0b16
bc18b6ef
3e42af9a
bf69ecf8
bfc1071f
3f7c7ef9
bf81f3fe
bf8d7fef
bf1946b8
3d90f85a
bfa26a0f
3ebe8bd7
bdfdee2c
3f8e6285
be61fd30
3eb82c53
3d9a961a
3fdad74c
beaa084c
c0109564
bfaed981
3e7813f6
beb0409b
3f93da5b
bf504971
bf763369
be154be2
3ef6f0b6
3ecdbe84
bccf5285
bfa208c4
3fc1d9de
bfaaf8b9
beeb9c45
3f2e5586
bef7601b
bfd41cbb
bf7a187e
bcbbc3e9
bfae6a0d
bd4bfae0
be94479c
be1d3934
bf659f0a
3c5f2173
bf4ff21b
becc929f
be50cb6e
3f6770c5
3e9adf41
3dd7626a
3fa453b8
3f45d115
bdda4cca
beea3936
bf0c4cb2
befcefdd
bf25d101
3e809820
3fee8274
3febfa44
4011f680
c00d93e2
bcf9ab97
3ff9574d
3fddfdb8
3f19c24c
3f0a65f4
3ebc75d4
3e8a6964
3e3bd9fe
3fca104f
bee7b8e0
c0519018
bf958cfd
be8f4e7e
3e1fc672
3e939611
3fe11774
bf949b65
bf7e043f
bf311075
3f142444
3fe121a8
bf6b7ef1
bec1a88d
be5b09f1
3f89e56e
bf6eb01f
bf3fcd8b
bf5895f0
3fecf7b2
bf7f3811
3f51cd2a
bef0b1c8
3fb751b2
bfb49afd
bf0668de
3f56763b
3ee9f0fd
bfbccb5e
3f229076
bf36ee30
bea83dd3
bfdcf95f
3ff4329e
bd2415ec
bf0d9ec5
beaca15a
3efa3970
3e9f8052
4028a922
3e8abc7c
bcb9debe
be84052f
c001a667
3f85ffb0
3f782abd
bf65d0d1
bfc6df58
bfd3e2c4
bfe8096a
bf9c0547
3f7202c4
3f7ef377
c00e66b6
3fcb1c0d
3f9d4274
3f377431
3f2b1c86
3fd21d47
bdcb4844
3ebded3b
be2fc8c6
bddad937
bf6a001d
3f25abaf
3ebb5f29
400b055b
3f86908c
3d75f499
bf68e570
3f681863
bf54a32b
bf41088e
3cb16d16
be0abb6c
3f8a1ffb
bfb44150
bfa74aae
3e88b9cd
3e801d36
be9a6b07
bf0c6953
3e39d978
beaaf656
bf1995ce
3f360953
3f3971c1
3f5f3b4f
3ebe9f9c
bf8fdf49
bdb47b4f
3f9ee19d
3f4a1401
c001f3d7
3f777214
3f2514c7
3faec869
bf827c9c
3ed30bb3
beb4e342
3f1b6021
bf21cfca
3ee8a277
3e5ecd90
bd171835
3d4e1b2a
3fa442c1
3fe0d2ef
3f146c87
3edd07ea
bf895b52
3f71bf0b
3f3e5879
be50662f
3ed5a2eb
bf1af8d3
400f068d
bf728bdb
4045fc30
3e539364
3f796be2
3f5def97
c000d98f
bf8257dd
bdaf4474
3fa8a7ce
400c9538
bf2158ca
3f239ba0
bf00115d
3efaa3d5
befbeef7
becbb914
beb4142f
3f8a967c
3f673960
4005f2d5
bfd8f8d0
402ae079
3f502746
3ef57a0d
3f19b61d
bf1d10f9
bf306b68
3f11f5cb
bf23e572
beadd8e9
3e95c565
bea40640
bff5868a
c0023ed6
3ee8c942
bf3cd6eb
bf88ad48
3f64e971
bdfefd67
3f1b3947
3ee708b0
3fa171ca
bf62a933
bfafebe1
bfe65e39
bf97d025
3e455051
bf153ee7
3fd1dacd
bf98d540
3f3016a5
bfef5a33
3f085f02
bcbd0593
bee895b4
3e4abae5
bf8de7f4
bf548c43
3f5bdbeb
3f87be64
be65e2f5
bf67ef7f
3f7b6ad1
bf6030b0
bf86d57a
bffa995b
3f0b03ac
3ed52131
3fc4b37e
bf58edbd
3fa0a949
3b99e01e
bdd52a81
c00085ce
bedf0f50
be9484de
be8c1403
3d490af7
3f694578
c0055de2
bf4b194b
3f824b91
3e88143a
bedfbf4a
bf8427f9
bf3c111e
3f115510
3fdaaef0
3f6bdc20
3f6e46f7
c03d2eb4
c01ad7c3
3f4d6463
be14b9c2
3f6dd47b
3d8a4bda
3f13968d
3fa7b97b
3f99566f
3f1ea3f9
bf0a3e10
bfd331fb
bd868ef1
3f030e0a
c01acd43
3f2e83f5
bf153daf
bde4f150
bed47b96
3fc615c5
bff637e6
3fd8e4bb
bfb92ca3
3e901e02
be93a7bb
be359bf4
bef37f1c
3e78cdca
bec23e69
bf867a87
3ee6fff0
3da0f7c6
3d89754b
3eefbc89
bfab2d71
bfa7d3a3
bec5013e
3e85e136
be6d0f28
3f8c9d94
3e8674cc
bf5ceed7
bf51371a
be97eda4
3f587160
3facfc52
3ee50a9c
bfa23385
3bb65b18
3f0739e7
bee407aa
3f52c2b2
bfad0e91
bfb1a877
3ef602eb
404a6792
be88e502
3f2e9d08
3cb16bfc
3e6483ad
bfa7df97
bdb01f5e
3eba5fe7
bec31abf
3f8c9604
be7f1492
3ecb6982
bf29efed
3ed04a73
bfb040ce
bf784198
3eb29224
3fa9246a
bf18855c
bf3ca336
3f62e1b2
3ed8a6a1
befebc57
be04c14c
3e78b2cc
bf99a06f
400bfa87
be012c3e
bcf25473
bd92fb60
bee82523
bfca2b04
be29e44f
bf007045
bf3444a9
bff2644b
3ee61185
bf2d3d33
bf89daa8
bfc57a84
3f37b643
3f3514db
c031df77
bf1aed56
bf838ef3
3d387fe7
bf9f45cb
3f338045
3f02306a
3be6b72b
bffde58f
3f6f6931
3d8221d9
bfd54ce8
3db2076b
be18b401
bff489c2
be9c0d40
bf2d4d45
be04afd0
bf3e2a72
bf08bc14
bf29047c
bfb8f6b0
3f0b2f98
3f097478
bffba73d
bf63af20
bfaf7af3
3e0f4995
3f6f10c3
3f7af49f
3cdc3287
3e1eca17
3d580855
bf9eaf11
c02faa00
bfd2d064
c0038c88
bd7a7d39
bda21629
bf395766
3ee8f2ab
3ecf9fe1
beaac656
3fbf6c7f
bec4cc77
be6e4128
3e8b8be8
bf0a6876
3fbadf42
bee11348
bfe54440
3da2d409
3e45e991
bf3cfa4d
3f8ce9f3
3f51e0e6
3f303050
bf9efe08
bfaf4835
3f8ae554
bf566958
3fc9a291
3f262d0c
bf95078a
bf859528
3f47697f
3ec8edc7
be3acbe7
3b8b3e80
3aff424f
3fc6c764
3e9eb779
3f85e38e
bfa5bb1b
bfd1ab6c
bfa24c41
bf28b048
bf7dacc3
bdf9b7e7
bfc8e144
bfd8eb1a
bf9a545f
3f82b319
be826893
bfa3c8af
bf4ae655
3ecad660
3fc2290d
3f24f45c
bde86d1e
bdb8f320
be5a62dd
3eb5c9a2
bf88bc6b
3f00f3c9
bfa048a9
3f05d665
bf8f81ab
3f10df3d
bf105cc0
3d86c0a3
3f46efe7
3f0f1be4
bfbd167c
3f054b32
bf520017
bfefb909
3f62f1a1
bfb40de0
3fa5b046
3db67bf0
bfe8cbed
3f775005
bee9ed43
bfc682cc
3f7e2f5c
bea9ad71
beaa58cf
bf6f23f5
be382128
bfdf4d56
3d62f5e9
bfac5788
400d5fce
3fab892d
3fcae2c1
3e46bfcf
3f05465c
3f3f1699
3fe71bb1
bf65e0c5
3fc40eb1
3eb1e836
3d7d14b7
bf658158
be4f8bdf
3f481138
bed0cae4
3eb3f53e
bf8628d2
bf733899
3f0f409e
3e3e4128
3fa69248
3ea1d4b0
beac0ac8
bf383544
3f569c36
be665538
3f580982
3f3714d8
3fc973b5
bfa7bc8e
bfb8abc5
3dbcd589
c0075cbf
3f82b2f8
bf25c384
3f162ca4
3f2479d7
3fc051d8
be27c97d
bfaae22f
bec988ff
be57229b
3e985dce
bf2719cf
bf1c5f1b
bfd57ee2
3fb273ce
bf48470b
beab14f8
bf17cc6d
3eed8f20
3f7e8691
3db3138d
3fcb015c
40025b04
3f81f756
bf96f4d9
3f098638