3f8adba5
be5eeda0
40107569
be12279f
bf738729
bfbf148b
c028bb81
bf37586a
bfa2fc66
be5c9b3d
bf76a63a
3fbfcd01
beda624a
bf84c1c8
bfb4165f
3fc9fe7d
3feb52aa
3fc9fcad
400ac97c
be47cb74
bf610ff8
3f040c47
bece8e92
4010a80a
3f0e85c9
3f026443
3e4ae709
3fa1a9b5
3fbe90da
3eade6ae
3f25d0ee
4006810a
3fb40954
3fdfe231
3e39b1ff
3f1b5bac
3f3cfad7
bf537b64
be179806
3d7d0ee7
3f66ff05
bf4d0411
3e488a43
3e8dd079
3e857571
401ac78e
3c033441
bf2402f0
3e380bb3
bf8aa83b
bef036e8
bef7a977
be3e244d
be33e366
be8e01f9
bf300684
bfb4de3c
40007c5d
bf313d6f
bf79fc30
bf817e11
be003854
3f06095e
3e1acbf8
bf237804
3f94e471
3fc880e8
3ffcf69c
3f46a573
bf9d784d
bf3be989
bf936644
bfb9dd79
bec3eee8
be9bbf9b
3f1629b2
bf82a11f
be706700
bda1f9fb
3f9553cc
be9e8acd
3ecfb776
bf88ceba
3f92f694
3e9174e0
3c36511a
be34ffc6
bf25d85c
3f0fdcef
bfc57ac8
3fa737d6
bfdeb05d
bef196dc
be92d24c
bf6157a9
3f062aa0
bf4c6109
3d79f12a
be1988d0
3d5f14e6
bf1798ae
3ea5121b
3f777649
3e6c73cc
3d5e90ed
3fa11b8c
bfbde148
3f0ea565
bfb693fe
bf152546
bd786974
bf6988e7
3c92460f
bf33ed17
3e75ed51
3f0e5378
3fb6a09a
bf23b95e
3ff29377
c00b3d88
3bb6c73e
be4f053f
bf8db030
bf7419a0
3f4d0601
bfadeb26
bf61d82c
bdc93bc7
3e5005ae
bf85ea65
bf1fb623
3e653589
3fc89814
3fc7af0e
3ef53015
3f3fbf2a
3f85bd26
3e1a9c15
3fb83d7f
3eebb026
3eade71b
bf36e8e9
3f296fe8
bf970dcc
3feb00bf
c000aee5
3e0a9f11
3fae96e8
3fb04e9b
bfe19b1f
be17b632
3f09d58f
bd8ab6d2
c0257292
401d970d
bf97a8ad
bd4ce61c
bf9d6387
3d71f03c
bfae9409
3f5c72c9
be1d1914
3f751250
40188b3b
3eec8a37
3fa17e85
3fd39f8f
3fc9cef5
bf98e974
bf737a88
be99cb9c
bf96c325
c02cb3ee
bf265dd6
bf1b0330
3f3edb40
bf9f8538
bf74456f
be297b66
beb4914e
3fe14423
3d9fb180
3f2565f1
3f0f5be9
3eeafc2c
400d2a98
bf987642
3e59da43
bd414c2f
c0098e73
3fa0c1de
bfa5b6ec
bdcb23ae
3ed45a08
bf906d86
3ef51da7
bf1ac804
3fcdecc9
3f63fab3
bf21efc1
bf63fbc5
bed2415d
3f3bbbee
bf97c14b
3f4e2f10
3ea19b13
bf83d53c
3f93ccc2
3f3e3231
3ecd2dae
3f533e71
bdfac553
bf8c752e
3faf7824
3faf0b5a
3d36e367
3fb2a0da
bf594cfd
c001808d
3e856a2c
bf7351ad
bf322c7a
bfa6bf55
bf1b7d69
bfa48e9d
3f7d5a97
bf1a81d0
bf057cba
3b1882b6
bfd0b682
bea92217
3e878c54
3e8b12ad
3f3efbde
3ead4500
3f947be3
3fa4dc05
bf43f460
c04a7ab5
bf138d68
3fd561ad
bfa6f1c2
3fc4f9ac
bed7c1e0
bebc8814
bfe64ef9
bf1fbec5
3d4975ca
3f94895b
4000ab99
401c6e02
bf7f96b9
3f9d1dbb
3f1f0943
becc726f
3f6cc188
3f84e395
beb8fc5f
bfb5da0a
be0f4ea1
3fe062d8
bf587758
c0310314
3f743fb2
bf3bbda1
404d68cc
bfda9689
bfe15e4d
3f2350ea
be4df434
3ed8d89e
3eaa766a
3c84da03
bf316d8e
3fcb5930
bfe4abe7
bf86e56f
be568251
bef3b433
bf4d56ed
bfb32ea4
bf745bdc
3fd0298c
bf4b5b44
bfb2b860
bfcda7e1
bb73c71a
3e41dddd
3ed512de
c0044638
c01a9eb9
3d92ad1f
be84223c
3f9b3c68
be69ae2a
bf4105c7
bf0dfd84
bf924270
bf1a6f9a
400752f2
3fad962f
4014baa0
3e25aea1
beb2382b
bf0de752
bfde6a5f
bd5bed27
3fae3f83
3e82e037
3f9faeea
be9fab9d
3e811a03
beef3c52
be6465dd
bf3e6ef2
bfe36b5b
bf00b4aa
3f540d59
bf5e609a
bfa152f0
bff20e2a
3e6688ad
3ffae08c
3f8b5d19
3f9daa86
c007d9e4
bf04d9c1
be0527b2
3ef19f00
bf8378f9
bffe8ac7
3f98d098
bf1c2a8e
bfad8f5f
40166244
3ff51df7
3f346d7d
3f232ccb
bfd55a45
bf89fb10
3f9cdc07
3f392301
3fae5f6c
bf4f1adf
c000aaa2
3ebc5e09
3f9ed2bd
3f2ff3a6
beb9049b
bf889157
bf05fb9d
bed57e07
bf94aef4
3d9c0b39
3fc5aebc
bdd1d8b8
bf9955af
bf8c0768
3d1338b9
becfe015
3ebd6285
3f9443eb
3f356727
3e306193
bf49369c
bfbd2165
3f0f74a0
bc26c586
3f878f75
be94fd79
bf48e144
3dbabd5f
3f8fdaee
3f2890eb
3e34dfb1
bf9d9ee3
bf8ce4a7
be7f7ad5
3edfb2de
3deecbc4
3ffe3207
beeacf79
befdbdcb
3e5e1bfd
3f4d7fef
3f017774
bf05b4cc
3f7d8dd9
3f8dfb00
bbff8d63
3ff1047a
bf1888db
bf92da59
3f192ddc
bf87063d
3fd7614b
bf6e3b2b
3d110cca
3f22f6fd
be99cd41
400ca78f
bf11d26f
be2882d6
3eba2eb7
3f18d70a
bfecdb81
be59d0b0
bf44becf
3f471818
bff5012e
bf797635
bec808e1
bf3e1244
3f19d63f
3fa889a4
c001d478
3ff7b754
be481123
bf6925d8
bf59af49
3f61d6f4
3f8caf41
be49f654
3d128e08
bdc46d12
3d798462
3eab4633
be579f96
3e4d7219
3fe9f528
3fc2c565
be277ab1
3d651cea
bf073f93
3fc138c8
3f4453c1
3fc45df9
3f71bbf7
3c30b5d9
bf272a25
3e1889da
bfb85363
3f1904ea
bf1c0984
3d5add7e
3f132b0c
3f3311cc
3f821413
bf51752c
3f927182
3f8d4a54
3c8630da
be3881d5
3eef7891
3e8eeb79
be995995
3f2e635f
3f9891f6
c0036a90
3fe09516
3f32950a
bfbdbfd7
3ed12927
bf4b6426
3ea024be
bf8f556b
bf575420
3f0517bc
3e9533aa
bfdcd10f
bee40aa1
c0095d6b
3f7fd2b4
3f354c3b
3f82d290
3f414317
bee80c02
3f6693c8
3f30cc7e
3f44c61c
beb43b77
bfc151df
bf29655f
c00950bf
bf9914cc
3f15feac
3f3514d8
bf6b31f5
bef60253
3e628a69
bfc50130
3fbf583e
bfd47918
3e5d4532
bfc8bc61
3f62b958
3f13c870
bf841906
bf8490fa
bfeececd
3f82d062
bf0af380
befe197d
bde13707
bf59581f
3e8a985e
3f81571f
be86689b
3ed89553
3f883d7c
3f9e8c0e
bf3ce3d3
3f2bdcee
3ec0cd94
bf7e6aa6
be0da79b
bfd77a7d
3e28d24e
bf17505c
bcbf3cac
bfbc4652
3f2c3c39
3f25f43a
3d9a8301
3fb6a636
3b666ee4
bf566501
bf1fda97
bc9b51f0
bee32819
3f083b07
beb3bc35
be8ef2b0
beef816b
3e41203f
3ea2c809
3eeccc6b
bf5f8594
3f88f59a
3de957b7
bfc6e036
3f9c763f
3e2327aa
be8feddc
bf333af7
3f41a5bb
bfdd5f12
3f8f5444
3f53f243
befc3d35
be93dc19
bf8a6b7e
3e22fd40
bea78cb9
3e8cab15
bea98db1
be10f6ba
3fe801c5
3e0afef8
3f88647c
beccb0ad
bff40443
bed2ad69
bf459cb7
bf59b9a1
3fd537b4
bef565eb
3fac437c
3f628f1d
3f99ee97
bf27a4bb
be38ea90
be10b622
bf4633a5
c0136981
beee531d
3ef2c527
bf3e4613
bf6f974c
3f3d2f73
3ebef433
3ede1c0d
bf20a3ec
3ec853cf
bf0788ef
3e7c72d0
3fd7787d
bef91f8b
bf160bcc
3f9956dc
bf30d653
3e4390e7
3ff89a0e
be5b3f8a
3ed2890f
bfb904c8
bf040d37
bf201f17
3cbb06c0
bf934af0
bf602b59
3faa53f4
be71c9f6
beb1d799
3fab32d7
be310bc7
3ebb322d
bf134eee
3ed0454d
bf780fb4
400b7981
bd9e9344
bf63f3a2
3e5a1d3c
3e3cfc14
bea1b6c7
3fa2fd80
3ed4947f
3e93a406
3f7de176
bef3c8c6
3f453bbd
c0211b1f
bfaadae1
bf42e249
3f2475b3
bf7701bc
3f45caa7
3f7cc964
bebc6481
bfd5526f
3fa0430b
3f9bfde1
bf93a2d5
3ef6ac43
c00731ad
bf641129
3ee646bc
3f00b2d1
3fc48606
be9c6eb2
bf65d6aa
bfdb5eea
3f908109
c01a18f7
bfae1483
bf599b9a
3f3b4144
3de29766
be9d5ce1
3f0c86c0
3c112ff6
3f37723e
bfdd9a91
3f592a9b
3fe5ed7a
3f3ac681
3fdfc2fd
3f5587ae
bf5fd6a5
3f5edd13
bf752ea3
bea8b35e
3f621deb
3f147fe2
becb4851
bf310ee8
3f9e1136
3f28717c
bfa9d9f0
bf9fedf8
3ea45f09
3eca5f26
3efb264b
be84da05
bf4c724f
be8994f8
3dbb89d6
3f9e6360
3f906098
beca2f5a
beaf469e
3fe83054
bf9411f7
3fc46e6a
3efc5d30
3e9847ee
3ec0c251
bf85cdc9
3e071e1f
bf99d032
3e31fb6e
3e8ff524
3dbd6645
bec983c3
be63f980
be6aa155
bd7fb7ae
3e8c1fdd
be0411a6
3f9144ef
bf973be7
3c2cefd4
bef0d937
3f85342f
3fdd71d7
bea741fd
be06dc1d
bf242043
be8ce29a
bff7f77c
be553cc2
bff39370
be6ac064
bf8a8296
bf5f8c3d
bef55bc0
bd688aa5
bece059d
bfb484c8
be1e5938
bf6b7d0d
bf126b0c
3eb5e800
bf7a2750
3e20e726
bf8392f1
bf293884
3f895f36
bfc2fd2f
bfeadaf1
bea346b5
3f94bce0
bdc74fa0
3e8ab238
bf366b16
3fb2d1e9
3f634e52
3f268e6f
3eabf508
3fb4431d
beff6cf1
bfaf75f3
3ce37e10
beb4b306
bf9aca3b
bf053a6a
bd7db68b
3f1ecb01
3f926ad6
be599b7a
be6f28d1
bf93a582
bf402bd6
bda97488
bf5ae331
bfdeb051
be699076
3f402af8
3ea9fd54
3e9177f7
3ee30669
3d60247a
bf4b9916
3e76fdec
bf19e735
3fa48011
3f99bab1
3e92e37c
3e26182a
402c8ebf
40614c3d
3cf93604
3f8f76d8
bf1e0f60
b9ec3139
3f354c3c
bfa51c36
3eb409cd
bf99e667
401ae9bb
bfcfdacd
be25045d
bf53a4d1
3e31c200
3fdf5d53
bf964e56
3f94b21c
3ed14d4f
bf4e101a
3f671123
3f761ab4
bf62eef3
bf3e3346
bf85ecfc
3f0f901a
3f49d27e
bfbe29d0
c01470dd
3ff6e9cb
be317343
3f9e19da
3ef707a4
3f7cf35b
bf82ec8c
3f6a7c70
bf7e558e
3f98d61b
3f60141a
3fdfce83
bda850a8
bedbfce1
3f9888d7
bfa7c0d9
be6a2057
3eeb5ae8
bfda8ca6
3ed16553
bfcd7d71
be0313b7
3fa5ad79
3cf48231
bf0332d4
3f491d64
3f84e293
400df31e
3f499710
bf2f5573
3e70232a
3ee428da
3e227cbc
3ecb7da6
3eb5ebfe
bf175467
3f525982
3ece3a25
3e9fd8a8
3f0dfcac
bf471783
3ea0b596
bf94b83e
bef2689b
bf05b2ee
be0557ad
3f2cc870
3dd859d3
3f2eb18b
bf472292
bf5282ae
c006b6e4
bf7282ab
bea12299
3f9fca49
3f15934b
bf976547
3fb3f2f4
bf1c14d6
3f1361da
beff7a63
bfde97b4
bebabaef
be88f9d1
3f7de432
bfe45600
3fa0aa57
3f0e72da
3f86c95c
3ff11d81
bd863b63
beaec450
be69bd87
bfe723fa
bebd4157
bf044030
3d782d6c
3eb80e8d
bec2dfd9
bfba38c0
3e38a55c
bc35cda8
bcf2fa45
3fbcc359
3f8aa950
3f851a96
bf87fe0f
bfb00e1f
3fad7b36
3d02b7b2
bf8a35bb
3e8a0287
bf1da78c
be6bc737
bf01101f
3f0d4529
3fd9725c
3e4bc672
3f939a6c
3d1a5759
bee8aa1a
be48cffc
3fe1938b
3da46427
bfba7d79
bf753613
bf916e87
3f942615
3f695361
bf1991fd
3face968
3f1eab3a
bec21461
becdec8f
bfc9615f
bfabc6f5
bf26f4ab
bd138bb3
bfa84c9c
3fa8170f
3f355b12
3f76bf86
3e99fe6d
3f81d4f2
bf83b3d7
bede574f
bd320eea
3f526a38
3faf9b82
bee67b4c
bf4b9df5
bfda00ed
bea248e6
3fa9c890
3ec8729b
3f2a42d2
bfb9a9a2
bf98b73c
3fab1471
bf625956
40320508
3f7c1dad
401f85d7
3f7a4a9c
bf6a8e4b
bf19ea77
3f46fec4
bf250b9f
be5b07ce
bf0e7634
be8fe186
4035cab0
3f2158ba
3d8acdab
c0147bd2
3ff56f4e
bf988686
3f244c4b
bf9804cb
3f819d1f
be821394
bf7a00ff
bf01b214
3db57875
bf2602c4
bfa96d89
befe99e9
3f6906bd
3fa94b9e
bf2374c2
3f30b1d3
3fc1b953
bfd0c8bf
3e8c2acc
beb0f6e4
bdbafd9c
3e47ae3e
3f301597
bea45040
beda52b1
bfc7c416
4010af7e
3e4d25e1
bc62ca4d
40060fac
bf332300
3f0d1be0
3b7f6abd
3eab864c
3f9b3395
3e078976
3ff8b7a1
3d107787
3d8bd296
bfc3f20b
bf566fa4
bf3126df
bfc68442
3f3c830c
3ef1a40e
be7a192f
c01014de
3ead92b3
bf461ab1
3ecac228
3ec8d841
bfbbea04
bf7f92dc
3eaedc29
bf2941d2
3f5be2a7
bfc025f5
3f577842
3f8b9c54
bd19d26a
3e9e060e
bf3ee5ea
befa688d
be90b320
bf37626a
bfc7b7a7
401fed64
3f0b9f0a
3fa360ea
bf0293df
3fca0587
3fcb509a
bf92bca9
be99856d
3e990092
bf390447
bfc5bd91
3f0454df
3f898366
3eba620b
3f15ed85
bf6e34b0
3e68def8
3f41de5c
bf18d776
3f97eb11
bf358b96
3f7d6868
bf77d75e
c011cbea
3f3d4123
3f95fb5f
3e7f6add
3fc63e63
bfa9bb0f
bf8b9fee
3e1ba040
bf96c6ab
bf64fbe1
3f232002
bf79febe
bfc6c617
be80f203
bf4b54af
bf3f22f4
be80afad
3faa64a2
bf5495c7
3e5c11bc
be9cf16c
3efad6c3
be757bc6
bebe656c
be505c9f
bf4d08ae
3e6b012f
bf971be5
bfbc6f88
3f75f747
3faf89a3
3f498030
beeeeec5
3f15d30f
bebaddd8
3ec7c3af
bf642118
3e919dea
3f1f5e6a
bf79219c
bf1e6bdd
be14c7f0
c002fbe7
3f055202
bf9f7344
3ea42062
3f62067c
3f5b6652
bf1fbf73
3f7beb38
bde8c193
3edf3cda
3ec42787
be7fe843
be1b0360
401d6458
3f3563d4
3fa78d2f
3ea71ad8
bf47b4c7
bfe3814c
3fccb8f4
bd6608fc
3f928157
3e6624bf
3e273aec
3fed624b
402c8068
bfdf3594
3ec0c762
bf9cedce
3f19d796
4023598a
3e94d715
bf9fa882
3f41fb97
becd5f46
bf3d6389
3f55c8a6
bc680690
3d855201
bf3cb103
bfc82055
3f66e7cb
bff7f11a
3efa4f57
3e5303d4
bebbfc79
bf577dc9
be9e2b71
bebd7c87
3f68397b
bfcf4b9a
bd937469
3f3187bd
bf92366e
bf2e49fc
3f797170
3ee26585
bfdd80a0
3ed4a9f0
bf97ed8a
bed38726
40336096
bf08e659
3fb11153
bf497fef
be6adea2
bf27725f
be04dbeb
bfb35077
be2e6e28
be2c36db
3fa3569e
3f98c801
3f21f279
3f44187d
3f512eb0
3f5e1d25
3f9505b9
bfa98e3a
bfcdf2c8
bf2ce184
bee87dd5
bd9222ca
c00e9437
c0636f50
3e22a586
3fa3b530
bdaeb7e3
beb0794f
bfd46dc2
bf92a48d
400ca8cc
bf57aaa3
3e0aa37e
3f5107e8
3f9a13a1
3c547e16
3ed976c2
3edf5466
3f97b467
bd9b3e43
bd70d571
3e7fe29e
bf1949b6
bf56680e
4017175c
c0155ec1
bfb75068
bf8477bf
3e8846bc
beccd231
bec49b84
3fbb7944
bef841a4
bf2d6156
3d0fe9dd
3f2a465b
bdc6874a
bfa674ba
beedf250
3d6197cd
3f3e557a
be9c2f77
bfc70906
be16e051
bfd23938
bf3cba63
bfa45f28
bf1a1f53
3f75dd91
befd2cb5
bf711a3b
bd7c3183
3ec65708
bf0b876e
bfa27bef
3edc0ed8
3e69ba90
be259a53
c029fa4d
3f937ac5
bdb9e956
bf2c3b47
3f01c4de
3f9560af
be534331
3e7f8881
3ee35cfb
3fe6a5a2
3f111863
bfa1c3b2
3d2c6f23
3c0b0d8c
3f522ecd
c00270d5
bffa5e97
3fbb0bac
bf8a0946
bf182d27
3eddb82c
be86498c
3f6519c3
3f85e616
bec50c0a
4003ede1
bf33539f
bf868477
be9a3807
3cd22d4e
3f15b1fe
3e905bb0
bfc0c444
3f235eb4
bf6dd264
40006716
be7243dc
befdd0da
400dffaf
3f959ab7
3f258ad3
3f693f39
bf17d762
bef4d0cd
bd28a44e
3d8a9830
bf1c2563
bf6366b1
bf915af3
bfab15ef
beceebf6
3fd506c8
3e1cd3e2
3e1ba8f0
beccb236
bd43397e
bfc67797
3f27036d
bf1bcd03
bee3f48e
bf40b824
bf478862
3f1f27a6
3e84b966
bf28996c
bf15ad06
3fa1d221
bd01c279
bf23d644
3ccbe83a
bf608b26
befe35fd
3e59d45d
bfc6d47a
bf5002af
3f287f54
bc252e73
bf9d32b5
bee4630f
bdb39399
bff7e2cd
3fd65b63
3de3fdbe
be170c50
bf27c536
3dab1f74
bf405973
3f660fcc
c00fd3a2
3f92178c
bf98d8ad
bf187931
bf0e9d26
be7de537
bf7282f2
3f909f94
bf9e310c
bc80a79b
3c3b62c2
be7fb103
3f137075
bfa2456c
3faa7303
3e83201f
bd86d4bb
3e89d0d4
bf605c54
3fe3335f
3ffaaa96
3f7146bd
bf14cf30
bdcf917a
bf8d4d06
be907697
3fb209b6
3f12b2d4
3fb82a89
3fcf2580
3fca0f15
bf8973f9
3ecc1fda
be5d981c
c0399857
3f67b0ed
3c49d629
3f8ba7ac
3dbbf761
bf8a7e79
3e65a131
3ce61214
3ea48e70
3ee31779
bfd6025d
bf00e777
3f00fdb5
bf40f2aa
bf2325ef
c00d3194
3ec1e9c2
40192c74
be10d9af
bf6370fc
3e35ac04
3f1a5a85
400ac9fe
be89389c
bf187a86
3d711252
3f914fbc
4017645b
bfc4ea9e
bff10ad2
bf521d2b
3f20d974
bf0f17ef
bf1727a6
bff52626
beb45d96
3fe145bd
3ecfabcc
bfffe20d
3f8b2f86
3e87af64
bf2688e2
bd4d4951
bf141217
bf8253c6
3f944a6f
3f860234
3f125f6c
3f3eda2a
bf21a59d
bec38ff3
bf88d9ea
be75abc3
bfa75612
bf30e5b9
bf80d0f4
3f4d9664
bf603cd5
3ddb5572
bf4d41ae
3fae5803
bf1dfa60
bfa8e26f
bf4442d1
3eca6718
be925712
bf0715c4
3df8ca95
40221e48
bf007e47
3ed64960
bf08f12d
bfa0695b
be0300dc
3fac04aa
bf70245d
bfc27bf1
bf52ee99
be945c45
3f7ce3b8
be8afd13
bf75672f
bfad3e75
bf4a3384
bf6b340c
3e9bcc61
bfd3680e
3f834f4c
3f15eead
3d87b7ab
bfc50ed6
3fa8a347
bf0b2694
be043a9f
bf50e89a
be8268a2
bed53e0c
bd7ae823
bf97e2b0
bf830451
3f4d954e
bd93fefa
3f876561
beebcb58
bf583847
bf61e962
3df4f5cb
be2b2f5c
3d0650fb
3f7c7bc5
bfa94262
bf07ebd2
3fe50ea3
bf2f602f
3ecfc814
bda790f5
bec554a6
b8464479
bc8f005d
bfe704f3
c001b972
3f89e1c5
3f947705
c008d3b7
3ec181b9
bf5c56ac
bfe32e8e
bf91ec25
3f9db0c9
bd1c42b6
bfb17562
3fa5b718
bd414a78
3fa8e0bf
3e95e348
3fadec86
3e88bd28
3f74abef
bfb9b2a2
bec1aab3
bf35c8aa
3f03c5e4
bee6f316
bf4f8cc6
3f3e0aa4
be8e882f
beedbae0
bf7d778d
401697cc
3fa3a8d1
3f6ebfc8
3f1df622
3fbee172
c000317e
beda86ff
bf776f45
3f8d12ac
3fa97d14
c029efea
bfac6b23
3f299191
be8cbafb
bea8be84
3ff2cc24
be0d7bb7
bf272184
bfcbc3ee
bff64731
bf91c3be
bfc27c1f
bdc1718d
bd9f3bbf
bfd35f33
bfa0a311
bf529fe3
3e8dcd09
3fca0c32
bfd93fdf
be36fa34
3fe4ea36
3f9bf90e
3f1218fc
be9d2e20
bf303e2f
3fed2c3b
3ada0aea
3f41c192
3f079927
bfa78092
bf954e17
3f488fd6
3f3e4665
3fae9191
3f77251b
bf6a1f90
3eb0837a
bfcd8159
bddefc87
bf89b50c
be427b68
3f14fcba
3f2af498
3f8ad0cb
3f17cd56
bd9a86f9
bf90a6b6
be55d6ec
3fd721ab
3ea0da2c
3f6d089a
3f5e2fac
3fd57be2
3eedc011
40055512
3ebff40a
be543845
bdb91afe
bf8f5413
3fbd0fe3
bf2775da
c0059b7e
3faaf511
3ec145bc
bf4854f7
bfb92ad4
3e8a9cdc
3f2d3988
bf66f359
be43aa1f
be2c6eed
3f0c29ec
3f8f0a35
bf85a2c4
bf84d4af
3eb4626e
bf7aff7e
bf0a6313
3c8bdd07
bf811ec1
3f96cd99
be1622b2
3f52ae9d
3fec94e7
bd783a4c
bfe2c968
bf5ef2ea
bf71683a
3fdd7d5c
3fac30ae
3ecd8b74
bf659b5e
be3a6cba
3fdff566
bde7be90
3e587bbf
bf86a9fb
bead367b
bee7c26a
3f7293b9
bf27dc9b
bf552b22
be7b2027
bd4972a6
3f615b09
3de35e4d
bf2a03b0
3f576c8f
3fb0b388
bfec4acf
bf3397f4
be422202
3f052b76
bf517224
3def371e
be999ec6
3e69c658
bca93a89
3fd748b0
bf82eb09
3f557589
3de371d3
3f657b57
bd322530
bedb8f31
3f03c14d
3f5467f2
3f812f66
3f5d38ab
bfef5866
c020cc25
bf93a7b3
c015161e
beee9f52
3fcbe55b
c01c7d6d
bf5f7b64
bfaa01d8
3e5b4618
3f38e986
be84744f
bf9da01f
3f913ee7
bfb74d97
3eaf495f
3efd6964
3f8724bb
3dbf69e7
bff64c5a
bf968c0e
bfa1fd78
3efa3b8a
3f0974fb
3f3e5240
bfb3e984
3f0e4712
3d168ed1
bec1e2aa
bf8a564d
3fb4e70b
be1c3a28
bd696dbb
3fb1ad95
becbb800
3e8fb7ba
bf82c48a
bf10155f
bef3054b
3f73fc3a
3fa7eb59
3f93ea66
bf985ed3
3fc26b14
3cd8f229
bd8a9e20
bd08d495
3fecd40c
3f7f9110
bf345fc1
bf9ab70c
bf89ba96
bf1cf7cc
3f516ee4
bf001f81
bcede7f8
be11ec60
3f2e0d24
beb9b126
bf45a42a
bfa16fc2
3f35d90e
3d23859c
bfb81233
3f583053
bf944ddf
be4f3b0d
beeeec83
3f3abedc
be0d5d98
bfb6c526
bf1e10cf
3f87926b
bec79744
3e88b6f8
beece0c6
bf928fe4
bf8a7e76
3e17823d
bf9cd6d2
bf761054
bfa8a83c
bf6a3cdf
3ec51d0f
bdd16baa
be2cdfa5
bf388fbf
3f51fc18
3fec396b
400aa2eb
3e28ba54
3fc9402b
3f2fd9ef
3e542fd6
3e335ba0
3f21ae1e
bf308182
bf11f01f
3c2c70c6
bf6288fd
3ef841e3
bf4a82bf
be154608
bfbd9956
3d83b75a
c00eaea0
bf8d1131
3f1f8f67
bfd7a714
bfdb31f3
bf263901
3f4d7446
bdcb10b7
bf0dfd59
be251093
3f827e4a
be7019ac
3f4c26f4
3ef934ff
3e967ebe
be65950e
4004821d
3fb88b06
3f224756
be0070e2
bf033cfa
be877ac3
3e9fe77a
bff22078
bf7202e4
3e802961
3fd9a2ac
bf4fc90f
bfbec72d
bf22a455
bf1f0af5
3f9037d0
3f6cf8c7
c010ad34
bed25890
bff63e5a
bf9a6414
3f8de335
3f31c2d5
be6c9c4c
be88c329
3f4ac162
be88570f
bf2ea4c3
bf24153c
3f19cf30
bfe1101d
3e4e1490
3f899592
3eaf7714
3f82a077
be298173
3f6fc0a6
bf1abcde
3fbcd980
bf67cbd2
be8957aa
3f01789d
40282af4
bf617cc7
be93606b
bf0d4c95
3f50ee99
bf332c2a
3f7e86b2
bef2aa76
3eb2151c
3e973c54
bf8ab186
3f6d2beb
bf042ba5
3fe913fc
bd435da1
bfdbb457
bfb3586e
bf41d168
bfce7e91
bf25d10d
bf4eabc4
3f1d3e63
bf879a77
3fbde678
bf9eb681
bf385ec8
3f372f13
bf2ab725
bf5ee6c0
bf108b13
3f807a8b
bec758d6
3f15ccdf
3f925554
3ee8e71d
3fa14f33
3f19deb5
3f589f01
be48b71d
3ede46c1
3d915271
c0038487
befd4ce1
400facea
bf38810a
beaaece3
bfc2e97e
3df7e728
3f91ff85
bdf9568b
bf52d00f
3ffba0ca
3f1cc41e
3f4ad565
3ebeed0f
bf9d4b5c
bfe044f4
bf0ac5d1
3f9af04d
3f9924ac
bfbfa7b9
3ff62a5b
3e68feda
3f1da404
bfdfefc9
bf228089
bee6b547
3f22db0d
3dfd7cfd
3f66f2e6
3ff6f0eb
bc962a3b
3f0fdad3
3dc975fd
3f6d4216
3e959aaf
bed1d2ae
bfcd8f98
3f0ea4b8
be0a57b8
bf6d099b
bf1bda7d
3f270381
bff71ff1
3fa75c7c
3f44d1bf
3eb6c61e
3f4f704d
3c051e84
bf0e27a0
3f6b9f7d
bfa7e80f
c034dfe7
3df0e039
bf3b7f04
bf4797a3
3e257cc8
3e2c79e9
bf3dec80
3eec4845
3f2dafd1
bdb399db
3f58d124
3edb0d66
3df067cc
beeed65b
40331867
be106285
c04d51d7
3f37e370
bf1a94fd
bed13137
3f7555a1
bed6dfc2
3ed389c9
3d598b3c
3fd70a04
bfa10c11
3fac93b7
bf1f66c5
3f39f06a
3dbe2ef1
3f606f27
bd572566
3ef3275e
3ee0f29c
3fe3b9e3
bf30a604
3f2eb4e8
403b3685
3e61e0a5
bf0e35bb
3f39c369
be32adf0
bfa8df08
3fdb82e2
bf74d5c8
bf803227
bf63873c
3f3213c0
3d8b14d8
befc1bd3
3f3159db
3fa2481c
3db7dae6
3fce51a8
3f772023
3fef7d0a
400d7a00
3f236a65
be0e95d8
bfa59765
400bba1e
3f729ef3
be52ef45
3f16a498
bfb16b23
beb9dcd4
3fe36689
bfdc3c83
3eb55151
3e8e6d6a
c0386723
bfa5b792
3f6f74aa
bf164e83
3e08f0a5
3f7a4973
3f39885c
3d566753
be772924
bfc1a2a7
c008811c
bf6ea6c6
3d950408
bfa49a94
3e8e9364
3d993d9b
3fbecff4
bf8f661e
bfbbf1d9
be7ad52a
3fc9c58d
bb4820d6
bfa759e8
beb97eea
3f1bb5b3
3fbada3c
bfff2c62
bf3b9091
bf33f42b
3e8c27e4
bf14572d
3fd49e2f
3e356fcd
3eb224ae
3f5e89db
3f631457
bfad6085
3fd8f451
3e61db34
bf5b05e2
bf72ce5f
bec48f85
3ef98171
bdcb7dc0
3e801e08
3ea29b06
3fb6936d
be530f33
be80819b
bed80ec8
3fab6898
3f740ff3
3f88be4b
bfa429ac
3eb9b1e2
bf00c2a5
bfc33b39
bfd3115f
bf9e2ded
3f9c0a2e
bed31772
bf343af4
bec58ff7
bfd4921d
3e05e348
3ec3e76e
bf1a2cc2
bf3c8102
3eb51912
bfe3c2d5
c0042f5c
bf1978b6
bfb63569
bef1e63c
bf01843a
3e913a41
bf218ba6
befbbdfc
bfdd0ccc
3e8800a2
bed03683
3edd35bf
3f30e3d1
bed07291
3f3496af
3e9dbb9d
3f1ea1b1
3eaa9c40
bfceee8a
3fce29c6
c00563f8
3e2adb9b
bfd857fa
3ef26711
be90b38a
3dab515e
bfabace4
3f310c72
c00009be
bfb94e5e
bf494cc6
be0052a4
3e9af4d7
bf3ca5d1
3ffcfa7c
3ecfb8d3
bf3f5c69
bf1aed3d
bf673a81
3eb11b69
bef49cb8
3f23a6c2
3f03495c
3fce524a
3f0a0d64
3f9bfedb
3f890bf0
bf2bb6ca
bf93160d
3fc68459
3f348d14
3e46ba20
3d5cf32f
bf295183
3e616e8e
3eef2b0b
bfb4a66e
bfaabef5
3e8d4858
bc76c0d2
bea0d843
bf0b2bd6
3f97ca50
3d832b7e
3fe8038c
3ecd0c2b
3ebb77ae
bfa13264
bfbe1743
3f85f1a2
bf4fdc15
3f16d1b4
bf4fc671
3fb1ed0f
3f083a6b
bf7d43b8
3de07705
beb2fde9
3ee9f3b7
bf6a823e
3f2da085
bdb5b4e8
3ec1df85
3f3beb4e
3f509f63
3e8d7240
bf61b93f
be6de59f
bfe7fe19
3f9d249b
3ed4da4a
3f5777c1
bf5a8b20
bf932ff0
3e2d9f4d
3e811190
bee372dc
3e7cfd1b
bfc9cb41
bfb6bff3
3fa7c576
3f968242
3f719e4f
3e88c9aa
c004930d
3f13f394
beaef623
bf690a5d
3e80dbae
bdd71a39
bf05bafe
3d8aa0fd
bef81611
3fe8a011
bf1bf5ae
bf0ad101
bf8048e0
3e82e95f
beb9f0cc
3f7f5baa
3ea36582
bfc0421c
bfd0fe53
be8457fb
bfb4b290
3e044428
3f26fce8
3d35192d
3edafe38
3f7681d5
3fc20948
bd80d510
bf2bc45c
3f405c24
3fc9e147
3f1e6551
bf873e22
3fd43b22
3d9ec829
be197676
bf9a96a5
be7b7397
bd7ad17d
3e675fe7
bd19ace8
3eb50a40
3f770d0c
3fad7753
be955c76
bf3fc521
3f29dcba
bf2e8ba4
3f341eac
3f504e24
3fb5a6b6
3f7cb6aa
3fcada6d
bf92774e
bf6bedb5
bf9a3524
bf01c276
c01c00ac
3f072b30
bfa15e54
3f3f4d73
bfa58b66
4013e77f
be002ef9
3e8d89c4
bf12f6a5
bf2a40c2
bf17bbcb
3f67b225
3f6e43cb
bf18ada5
bf9d3fda
c00e0aea
bf0a8195
bf620f1f
c010a3e3
befb53ac
3ebc9948
bf00433f
bf4f4679
3e857546
be800143
3dd0cb5f
3ed767b6
3f3ac9bd
bf31510e
bfc1b6d9
bee7d4e2
bf1f22ac
3db415a6
bf2f0469
3f69e9f7
be7216fb
3f069db3
3e4cf47b
bff6edcf
be147313
3fe314a3
400163ac
3f2c0786
3dfde1b1
3f9fccf7
bff91c0a
bda6cd4c
3e7eb22e
3ef61538
bf14c2de
3f9c68ac
3ed0d38c
be9a194b
3ee43155
bf487008
bebb52c7
bf931a07
be7b6c8b
3fda86de
bf8313bb
3eab319d
bfecb19d
3f1df5be
3fb44f8e
3f8e5b2f
bf95e71d
3ff3d20f
bc73b4e9
bf3856d2
3f82022b
bf987a90
bf9fdbf9
bf98ac38
3f6ea44f
be876c87
bf7b16e7
3f8ceb22
3da0cef5
bd8a8876
3f71dc5e
bf2d5c2c
3fd78898
3f31ea0d
3f900d6f
3eba1bd5
3f1dd463
3fa8070e
becf3b0b
3f08b7d0
be11a066
be8a3d8c
bfa4992d
3f7a4256
3ee02d5f
3f284633
3f3d95ab
bf4eb8d9
3edf4de7
3f8fc3e5
400f4658
3d9a1872
3f8f0181
bf91eaea
3ea800e0
bf03cd10
bf222df9
bd8093d0
3f2abfa5
3f9c8309
bf4ea3dc
3f1c0438
3ebdd6a4
3ffc669e
3fa54ad5
3fde6e0d
bf996e1d
3fd4c3e6
3d89165f
bf912576
bd0f3ac2
be2ff9ef
bf25d7c2
bfe39e22
bf482b38
bf40e654
3e93ed08
3f139084
3ebdbfdf
bf101250
3f3a1f78
4017f0a8
3e40b89c
bed1c2cb
3f19d167
3fca83de
3dcd8e3d
bf7fdc98
c000f2cd
bf691904
3ede7b05
3f4cc775
3f206cf3
3f1901ff
bf6e7e05
4016dc58
3f992112
bf1690f7
bf888cbd
bf135d45
3f955780
3fbadc92
3e5cf691
bd4098ec
3f2f6f23
3facbf26
bf336e3c
3edb8b18
3e9ad240
bed701a8
3eb597fe
3f03a300
3f04e014
3fcc61d9
3fc3b2f3
3ea3c73e
3dcde7f2
3f1f1033
3d5dc3d8
be8f57e6
3f075b73
beb2e2f4
be4a9dda
3f443062
bf488f84
3f43c16f
bf688a20
bf99bfd2
3e71506b
3de4f097
3f651b34
3f158cec
3f31e87c
bfded6e7
bd3945be
3de490aa
be3b3d69
3f96ddd6
bfc94e85
bf66ce21
3eefe8af
bd8bc1cf
3f1c4771
c001ce12
bfe4f814
bfb2adb3
3f083da0
3fa3e3f9
3feeabbe
3e61b0dc
3e1728a0
be0e715e
be270dc0
bfa4b07d
3f292a75
3fa1957d
3f1e8aea
bc6a954f
3ec5a2ce
3e13edc3
3db97f0b
3e80882e
3f6fef57
bfb2102f
3e55929f
bf51b41c
bf9959cf
becea14b
3fb44a3c
3e345db3
3f27bd2c
3f45370f
3faf9e98
be973a5a
3e6a777f
4016949e
3ea877ab
be502b2c
beaf10d9
3f883786
3fb6e3fd
bd9cbd81
bec8b61e
3f68eb12
becd09b3
c0510af1
bfaff7ec
bfd5f118
bf60258c
3e89a762
bee259ac
3f2b8de4
be8e5bbe
bf94e956
bf446d4b
3f1d027d
3f27f9ed
3f0f13e4
3f93a67e
3fddd1d2
3f275bd5
3f03f210
bdabf77a
3cf32822
bf3cdbac
40295d63
3fb4761b
bf833348
bf2db75b
3f485817
bfa29a9a
3f0d74e2
3ed3d370
bf80855b
be2b0667
3fc903b5
bfa1a01c
3fdc1ba6
4009f97e
3f7efa13
bf94d8a8
3f081ac4
bfabac28
3e43890d
bf21be8b
be426a6b
bef878a5
bf057337
3fe6fc0f
3f8a9b64
bf85f51e
bf7f0184
3f44b5a1
bf33bd2f
3ebcec67
3f1afcb8
be7ddebf
3e3d5b83
bdc36666
3fba2994
3eda19c0
3f06d7e7
3fbb026e
3f3836b0
3dc92b52
bd94b7a2
3dc1a4e6
3f1be9a7
bef9db9b
beb11b87
bf1b73eb
3d0dde5b
bfacb8e9
3dce383c
3f1d101a
3e585b28
be36e767
3f267ce4
3e97a289
bed579dc
3e53e686
3f48eae8
3eea8179
c038f131
be24bac5
be5c5868
3f69da42
3f5351cc
3e6221b8
3f20e616
bedb0553
3f911fd7
3fb2d89c
c03ba1dc
3e07fcae
bf903d05
bf9234d5
bf39b77c
bf3d9ae0
3fac81dd
3f83711b
bed2300b
3fb2404f
3e901a0c
3f4006c6
be26cccb
3f7a8bbb
bee1e8dd
3f74845a
be3b1a6f
c00403a8
bed5df6e
3f3fe12f
3eba08e3
3fb0c1d7
bf4eec56
bed589f4
bfa67232
bf6059fb
3f4f0ffd
be94202b
3f79280a
3f28eb42
3fea1428
3ef64d0b
3f3b748c
bf9eb7f1
3e32153e
3fbb330c
3f9d583d
3ea59206
3f604119
bf626eda
3e207e52
bfc0e3aa
3e674976
bfac397c
bf8ab4de
c04e0728
4007593e
3e1fc491
3fcfc31f
be94423f
3f1d1f6f
bf471101
bfe6360d
3ec98605
3e62955d
bf8694f9
bce952cb
be78e592
3f61c4dd
befe0311
bf65ff3e
bf83e181
bfa4351d
be113978
3f16a8fd
bfee2fab
3ed3a2e9
bf40dc67
4022254d
3f0236ba
bf0b89bc
bffb7078
bf604ce0
bfb8c66d
bf0a347a
3fd02518
be37c6c2
3e6987a1
bffdcc02
3e8cbd2c
3fa68d12
3fac426b
3fa0390a
bf2db243
401cbfec
3eb605ec
3fe1c623
3f48d8be
bf6a9947
3fcd78ed
3fde6372
3f93be0a
bef0b9dd
3e1feef6
bfb22a5d
3c46338d
3f62d83e
bef77b06
bf80f149
3fd43a2b
3f7a7248
3f9b1217
3e26a1c7
3ed692cc
3dc71c34
3fa0d338
3fc12231
bf58ea72
3f089c6a
bd166bdd
bf6fb78b
bf5be133
bfc94ea3
3f872449
bf4dc036
3fc7b1e7
3f153b70
3eeb1c12
bfd5a868
3d2ca1de
bfcd7f84
bfd8ba16
3f8c419c
3f8c62c2
bec003a0
c055e5a9
bf9966d5
bde3a4f9
bf69f730
3f0f0486
be5701ce
be674c73
bf98e535
bc8c46b6
bf182cc7
3e79f580
3de91bd6
bea3ffe9
3c5ab66b
3fcea557
bf885948
bf825770
3e69634f
3f3a0848
bf16339c
bfc82d81
3f25d056
be5de63f
3f204d75
3f161088
3e0334c3
bdd6d98d
c003ad94
be8eb513
be9d6d07
be9efa5f
3fa560c7
bf390072
bf4d3087
3f4124bb
bf12d928
bdc0a049
3fa16b54
3f116dbf
c000e251
beec19b3
bf11aaf4
3f9378ee
3f1eb8c7
400a0eb0
3f3420dc
3e52fc1e
3dfa17c2
3f25224d
3ee9ccd6
c005a3bd
3e578cca
3f62228d
bfa4727c
bf09041a
3fc38dd0
bf3e5361
3ec31c2c
3f3e45ba
3fad44f0
bdc391e9
3daeae52
bf55b29c
bec2ec6b
bf8bb381
bf1629ad
3e74ad9b
3e23c32d
3f919348
3f7145e6
3fd36c89
bf493d1a
3f63c6ce
be0234b6
3efdb770
3fe37ce4
3e61d41d
bfaeda50
be2d8dd0
3e3f7772
3fa81528
3f963e1e
3e8ff438
3f5b381f
3e122e79
3e3ac95e
bf6e0bb3
bf8740a1
3f647763
bfcdd192
3eb623b2
3f720702
3e4279b6
bf4ca9f2
3f9bc8ac
3f72812a
c02ac905
be8f4e0f
be6f7c8a
bfacaa03
bf07fc9e
3ddda00e
404ae499
3d98036e
bf3e9b83
3fded7a2
bef14578
3f1b230e
bdfc6c81
bf1d1146
bf1a82b4
bf75c616
c057de34
bf08fc0c
3ee37df7
3d1c93a3
3f6dc6a1
3f3a7267
3f34d461
3f28133b
3f012606
bf23e0c6
bd3e05ff
bf514507
3f08bbc0
404e23a1
3d845d62
3fbe8e2f
bf9bcdf1
bde82cd2
bd283dff
bf1d2400
be49cea7
3f9872b8
beba5776
bebc8711
3f9f2f22
bf689754
bfa8258f
ba79b47d
3ec46458
3fbd4fb5
be9f2ae9
3efa7aa9
3fcb410d
bfff0255
bfd4542e
3fa51c4a
3e2402db
3e094da0
bf3ed3e0
bfb16ad7
3fb6b73c
bf5252bf
3eab0dd1
3f88e93a
3fc2120f
bf916f9b
bf8f7dbd
bfec2f46
3f08495e
bc10aee4
bf70beca
3f621c74
3f1872b4
bf8d8a29
3f896321
3fbe06dd
bf8bec3d
3e5d2a68
bcb2eb7f
bf69af21
3f0f18c5
bec42466
3dad3f02
3c91f949
bf98b4f3
3fd32a6b
be6a817b
40274927
bf13f1d2
3f6ef560
3fe403eb
bf7d0213
c02811b0
bebf05ae
3f905c65
bf2733cf
bf747a0f
beedea58
3e952640
3fe54b1a
3fd178bd
3fc665d8
3f331606
bf6af5dd
bf10022e
bb736aab
bed1fe23
3e7bb168
3e896f2f
3f88f5b7
3fc87d2b
3f8bc02a
3f024b0e
3f0f0ae3
be0ba996
3e8596f7
3f250227
bebfd4b6
bf83630b
bf090ca9
bebf68c8
bf145e92
bd39ef54
bfae6269
3fb01bfe
bfe51a00
403ed87c
bf6672e6
bfb3692c
bfc7e9c6
bfc32feb
bf7641db
bfb09c1f
bf1dcf3c
bfa06c70
bf3d1931
3ea2870d
400c02c8
3f760fd2
3f25d225
be302e21
bf17674b
3ee8bb7f
bf4b73ed
c0092397
3e6fbefb
beb66a82
befa0b16
bfc0dde0
3eecaf86
3e99736e
bf59423f
be61ad92
bcdcad6e
3ebd9a0a
be6f3959
bf6f2233
3ffce36e
bf0785de
3ea97693
3fc511f1
3f93bcc9
be81410f
bef2f5ae
bea551ab
3eff9b06
3f9124b2
3eab2fab
3f64ec95
bf06e2ea
bf818db3
3d6ca2f4
bfd4d8b3
bf42dea4
3f014c44
3c715306
3f230415
3e9c0813
3f6ec5b3
3dab3975
3db2b735
3e3ecdef
3ed6d4ab
bf5509a5
3eab74e3
3eca556e
3fa8388e
bff5e78b
3f92d323
3fa7a1fe
be583712
3b85522a
3e10738f
3e708662
bf8cfc0d
3f6fcd62
3e989519
3f6aa1c1
bea5a1eb
3f643a5e
bede59eb
3f77f8f4
3f2bad4c
3db8208f
bfc45e10
3fe57120
3e58a603
bf92efc6
3fca01c1
c0015e00
be0aaefc
3cf8b48a
bf86a6a2
bd5d1699
3ed930e0
bf254650
3e1102a6
3f8190cc
3f01198f
3fe8014d
3fb573a8
bea08b65
400ceac7
3f59239b
bee4ca14
3ff0be2f
bf8cd5a3
bfbbfa8a
bdbf8045
bef82644
be985102
3ed62c37
bfbaa19a
bee4a209
bf8cb117
3ffce479
3fd527a3
3d876acd
3db88fec
3f4a1f4c
3eeb9171
bfd87b5c
3f10da89
3e830139
3f56d656
be3352f6
bf75e701
3fee6aff
3f7415a2
bf4b3a6f
be9cebdb
3e8f54ce
3ee47e65
3ef32ccc
bf50a121
bf872883
3e419135
3fd82aa2
3e71db04
c0025cc2
bcc8f1ed
bf099098
3c0088aa
3fcfaebc
bf350598
bc417168
3e03457e
bf18fbe9
bf0fe594
3e262300
3e61a01d
3e372581
bdbe9099
c00ff8af
bfb26d5d
bd005821
3f25dcc8
be874017
bf8dc117
3ea910a8
c000cf8c
bff47fd6
bf7e67a2
bd333def
bfe073ef
3f3d27a5
bf0e0f38
40117598
bfadfac5
3d5f59b7
bf62428b
bc93c14a
bfa99aff
3eead5fe
3ea65be5
3fa0d566
3e74e591
3f2b7e08
bfd5fff4
3de51ea3
bf72df7f
3d053b0b
bf11f6d1
bf476f89
3ee191fe
bf80adb7
bf3a5462
beef0e29
bfa9b8e2
3eecc40f
bf148889
3d82c12a
bfb9a28a
bf1f7ad3
3f1fd406
3f57628c
3f19377b
be4ca0ec
c0303d3a
bccbbdb3
be7538f1
3dcdcb83
3fa9b12f
3ec2c188
c00c9b61
beab8cfe
bf49d39d
3f9bf175
becb6a68
3f173bb2
bdac9108
bfaadc13
bf88d790
bfd30e20
3ef402f0
3d30a454
bd7f50e0
3eb20d58
3e52ce1a
bfb7b9ce
bd541f84
bee199b4
be36d1e6
bf8b2e9d
3e37727a
bfb3fb41
bf0230fc
bfdf7f9e
beb682d2
bf4d8600
3f61a42b
bff1628a
3f426820
bf57da09
bf64cd13
bf171e5b
3e4dbe72
3f8717dc
3dcd5ae3
bfa2cfe7
bd496c86
3fea2d3a
40368e1e
be4787bb
3dd16efe
bfbd63ab
3fffc2c2
bfb52ddb
bf8b205e
3fa469dd
3f0e3d7d
bfeae71a
bf213083
be4623e9
bc24778e
3f5e520f
3f9a1a5d
bf8d6025
3f8e427f
be2c7dd4
4005360a
3e874177
bd249953
3f68e64c
3f2c46bf
bc21d840
3e8a195a
bf8cf24a
40094476
3e08fb94
bf9b9a65
3e941b45
3fa70c88
bf6ed1ca
3f508a0e
bf83aeb1
beea7593
3e8d65f3
bf7d74f7
3f30d539
3f4c6743
3efb9445
bfb98a62
be41351f
3de12286
bf12ee19
bfcb1018
bf82a61f
bf50288e
3c0fb5e1
bf563344
3f9d3284
beda9beb
3ef1e6e3
3f4b11cc
3f9045b1
3e32dbc7
bf9f4ed7
bffcafda
3ea38df8
401d4bd1
3f7c9fac
bfad216e
3fb0a347
3ed7512e
3d1c3c86
bf1150d4
3eac4f7c
3e31a3cc
bb9d5825
3e822a21
3de05136
3dd6b695
bf8d2fca
bf864974
3ed0ea13
bf86b105
3dffb956
3f41dacf
bceeace6
3f167843
3f962a9e
3f317145
3ff0a72e
3ee82f81
bdea3d1c
be4dbef6
3fc84795
c01fed09
be43e2fe
3faed813
bf1750cc
3efb89f2
bfb0a28c
3fa8097b
bfd8058c
be4fb484
3db31f13
bdd7e382
3e71a289
3f37c4fa
3dd310a6
bf631d0a
3f8ab2a0
bedded28
bf33cd83
3e3692a6
be4cf339
bedb60b8
be909b33
3f379369
bfe4c818
3fdc26c2
c023c02d
bfa15f37
3f14d948
be974fce
bed4056b
3f6a7693
bebf7455
3f1576b6
3fad28ef
3f83a6c7
bf7946cf
3fa282fb
bfb6eb10
bec2a678
bca47c54
3f11cd68
3f635af6
3fe51184
bf0a11ed
3f9d59f6
40176eb2
bf2a3740
bf1c2a1a
3f88a0b9
3f3a490d
3e8aa125
3f765b8b
bfcea2fc
bf2e83c7
bf3ecfec
3e8d6880
3f3b0401
bea8aaa0
3f915c1f
3f144ab5
3ed4ad7e
bd4a8441
3f1861fc
bd86857b
be9b981d
c0218ab2
bf54fb47
3f0c28a1
3fdd776c
3f4411f2
bd59de38
be430f8e
3fe16dd7
bf159d07
3feceff2
beb31272
3fbab37b
3f01e5e3
bf73a0f2
beaa25aa
bf1ee4ae
beece70e
3f6db615
bfa3b18d
4029034e
bf08a9cf
bec7ae8b
bdc83615
3e1ce991
bf805803
bf0470fc
bf4393e6
bff06781
bf07d151
c00a83c3
bf65611e
3e21e439
bdc67659
3f57fc1f
3fba4ff1
bd8af49b
4055ed4a
bedfe3e3
be4c7c0f
bf37e409
beab109a
3f370f44
3f33b6a1
3fbd2bce
3faab555
3ec9e80c
bfc7e132
bfe2cb0c
3f368fc9
3e70dbb0
3f8419bc
3e7e3520
3dc75ead
bffda797
3f3153f1
3d948dd7
3ebf3423
bf2d1c23
beb78fd8
bf34d781
3dedf543
be9e4f2d
be3b8280
3ee76e62
3f43a001
bf20a54e
bf07cba5
3f06922e
3f164231
bf15619e
bea94d7d
3f9b6307
bf59a25a
3d8173db
3fae9343
bde3d0a3
3d55a68f
3ecafa04
3f9d6653
3ea7fbb4
3f45645e
bfaa96c4
bf8dcc57
be4af500
beb5ef8d
3caf3de7
bfa33d46
3e8d1fc7
bd8d4dc5
bf44ba60
becbdfa2
bfc8f7ce
beb05252
3ffc8086
3ffa395a
c01b2c43
bf981d8a
3f896406
3f8bbf8b
3fead8ce
3d9b3964
bf7c062f
3f88a636
bd89f0c5
bf412601
3e66aea2
bfb4cd21
3fb6a7f3
bfb77898
bf953d30
3f5e781e
3f9492d0
3e29e090
3e87e444
3ed6692a
3eed39f3
bf0c623c
400ab4e6
bfacdb38
bfaffeb5
3f0420d6
3fa0a7e3
bf77e1ef
3ee05faf
bcd09d21
3f00fe45
bf0a7c64
3f39a93c
3f791645
3cbaae79
c0072e51
bfc87f5b
3c876792
3f0da7dd
3ec221a1
bef94ab1
be24fdd8
bd8d5c2b
3fcbac1c
bdfb9998
3e9b8ba7
3f8849b1
bf5fb300
c01df789
3ead8d00
bf51fa13
3f3ab274
bf572927
bf843855
3f606aed
3d67095c
be2c46d0
bed44679
bede2dd6
3eec05f4
3de33c8f
3d663e04
bf83b9c4
bf87a909
3e167eec
bf05152e
be6883c7
3fc3a45b
3fd4a478
bf2a9fba
bf8238d0
bed4a61e
bd79d1db
3f72164a
4019a901
3eaf9209
3edcc3e2
bf8d2986
bfe23be4
bfa2c8d7
bfbacc2e
bfa03691
3e1108f3
3e536924
bf56ca6c
bdc3bb0a
bf895c5b
bf2823d8
3f90573e
bf05e9e4
bf2804c1
3ef97a13
c010f7da
3fef943e
3e87114f
bf836a1c
bfca7f51
3ee8da20
bf0082b1
bf640ea3
bf76f63c
bf0dfbe3
3f84cc33
bea33b9b
3f31610f
3fa2d6f4
3f956bb9
bf6d86c6
bfecfb21
3f2a4da9
c0226c33
3ede51fb
bfa506bb
3ebb7a96
c00434d7
3e4c1fbe
3fe18855
bf839a89
bf9ce290
bf204000
3baffcce
3f9b57ac
bf2017ec
bf957ae6
3e3dc74f
3f01a398
3f05f362
3fa5eac3
becb9f29
bf655545
3f24d9be
3ef211c3
3f85823c
3ea55494
bdab5863
bfce28d7
3f20a9bc
3fa8a38b
bec3509a
bf08de9c
3f2c5101
bedbc44b
3f9a8a73
bf0ea384
c01324d9
bea8f5ba
3df0d2df
beb40376
3e2eec7e
bf0b9000
3f539edf
be79c7d2
c01a0c97
be495a13
bf369f9b
bf771516
bfcb1d1b
3ecefa09
bf0b1b75
bf8d808d
bd037a0c
bfbca469
be0828cf
c022fc66
3fddbf41
3e6c3626
3ee8c7b8
3ebb1472
3f971a6f
3fb7ef7e
c00e5aa0
bf9bd39a
bfd091d4
befceb61
bf8f1bd4
3f62a969
bf983527
3fbee74d
3d4dad57
3f347406
3e6a9660
bdb2db18
c0055b09
bf09e66d
3e33805a
bffe84f0
3f4a1219
3ebcd451
3d8982af
bfa4a159
bf272f23
3e4bbfb7
bfe6629d
3fff8cf0
3f430bc8
bfb0fcec
bf51dfb9
bfcc501e
bc0b1987
bfdac173
bf9eec65
bf3a340b
3fad4e54
3f886321
3cf0dc14
3fe863a3
bf8d9cb2
3f832f30
3f0c7c98
3fa7ca37
bf4764ee
be87e2ce
3eba12f4
3f419b58
3ef3bbc1
3f25d9b4
bf8b91fe
3f9322ef
3d805e8c
3fa8902a
c007ac8b
3edef16f
bf13c51f
3dcfe972
3ed57e58
40012077
3fc1b101
bfcb6f17
be502dd5
3d3cfa54
3d49b24e
bf42be8a
bf6b331c
be820b56
be98cfe5
bd7f6fe4
3f2f722f
3fce688b
3ffb0538
3e8fbda2
3fd3c8a3
bf9132fe
bc994c83
3f822251
bf2a1104
beea8256
bfb933d3
3f6a63c4
bf97c87e
ba50e096
3e0f2281
404c1d02
beff2b5f
3de37219
bfa30311
bf3a31d3
401d4e46
bee172d0
400b82c3
3fee7f2a
be09e9ac
bf4e91ac
3f274c27
3e9b6dc7
3f55966a
4006c15d
c035abb7
3e522a1f
bfdb98ed
bfd1c919
3fac3a84
be1f4c39
bf647abd
bdc833ba
bf3351ce
3f60d3d0
3e3b6395
3d71a67c
3ec76ac8
3f6b169c
bec997d3
3e06d80a
3d9bd56d
3ebad2a5
bf9972dc
3f4b4a8b
3a7ed476
3f888529
bec67506
3d54058f
3f46185b
bfebfbbc
3d3d4c70
3fc68818
3f10376c
bf98d6e0
c023113d
bfc404f8
3f500787
3ee7d1c4
3ee05d85
3ec7d297
3e3a8659
bf9304ca
3f871d15
3f8d6580
bf3d1bc9
3f3626d8
3ee00e23
3fce3cb4
3eb60a2a
3f16462d
bf45059a
bdbb3183
bd8463be
3fcc0fa6
bfbf8e60
bf50c1ea
bf49388a
be5840c2
3e0424f8
bf95f3c5
bf9a86dd
3fe4028f
bf181b63
bee841b9
3f51e106
c0137b9c
3f035d4b
bec6e167
bf21a6be
3e8c1a6d
bfa3da52
3ec9048e
beafa6db
bf969bd7
bf2745c2
bfa08470
be38d843
bff06e4b
bf2d69ab
3f929621
bfc67714
3f1a2bc8
3f9ab4a4
3e85b18c
3d35c68d
bfbb50f4
3f253062
bfa3aaa5
bf3b693a
bd78331c
3fa53f3a
bf823b80
bf89ad1f
3f7f36c1
be74cc51
bf75b518
bf9157a5
bf31677e
3ee35868
bf870558
bedb9058
403036e2
beed7a99
be93a111
bc993cea
bf9c63ef
bfc5b765
3f28bef2
3f074963
3cd03363
3ec3f061
3f48de4b
bd99a5a1
3feceaa3
3f9e7cbf
3f91bcae
3f08a304
4011524a
bf8eeb8a
3e6d03cd
be1f4d08
bf74b560
3f0a27b8
3ecb6241
bf423879
bfaa3b72
bf808d20
3e429b0d
bf9ded77
3e0f1b30
3fa800bb
bf302f80
bf471449
3e7289c9
bf832c31
beed39c2
beea3f48
3f2e4ba7
bf1caa01
bda435c1
bd971b74
bf6fff99
3f273ee3
3f848ffa
3fc95831
3fab3f02
3fa9fcd3
4007cf90
bff28db2
beca9544
3f294e1c
bef90296
3fc18510
bfd4339d
3fb4cba4
be0447ca
3fadcd68
bdfc309d
bfa86a64
3f062007
3f943499
3f19e734
3f1f9703
3ed5f3eb
3f5aab38
3fe82ce5
3ea003e6
be8d3456
3d68363d
3f4f8e40
3bc463bb
be486b84
3dc991d1
bdd6f124
bead6456
beba16f8
3f45b8c5
bf551747
bfa3d45e
3f01ace2
3fa675e9
3f338a56
3eec1709
bf2ff019
bf9a3793
bf1b81b2
bd619611
400632e8
bd7840b0
be9d9ea1
be27b56d
3eacdbdf
bf1deb62
bf8777f0
bf19dc9e
3e5ca083
3f49039a
3f22ab72
bf8b2fc3
3f1c1990
be6266d1
bfbea540
3fab6c05
3e902c52
3eb3e650
3f4ce059
bfdf3eee
3f3e0c78
bf727085
bf0a9ccb
3f1eda9d
3e6138d7
3f2f8ef2
3fec10a5
3f15f74c
bd28756d
3ee1de94
3fd40386
3f80136b
bdb0ba0d
3ddb21ec
be581215
4008359c
3f971532
3f706d75
bfa2f763
bd4c1ab3
3fb41a5d
bfb3f503
bf074c1a
bea229b8
bfe4ea1d
bf4259b2
3efde105
3f5709ad
3c7611eb
bfa2bf30
bf239eb0
be87dc3d
3f71b438
bf5b6010
bd933248
3df6bd23
3f24a15d
c002ad9e
c020f79f
bfecb034
bfd90e85
bef73086
3fa73ec4
3fa0a8ac
3f37a9c6
bf122c2f
3ebb082e
bed1d7dc
3f920352
bf2a3daf
bf14b7c0
3ee72e8d
3efe93e9
bf7095ec
3f3f74fd
bf4bd0f9
bdb0e97a
bf9c5fed
bf267d58
3ff6bf2d
be14d025
bfa59a62
3f0ea1ad
bf57543b
bf90776a
3d6ea31a
3e9eec6a
bde0aee0
3fc19155
3f280c04
bf06b50b
bfd3a3c2
bf0b18e0
3f6b9d22
3e67df23
3e6fec1d
bf15c8ea
bfe191a7
c006fba6
bffc7737
3e853360
3c7e63b9
bf140b38
bea83a12
3f16f630
bee5a3d0
be01e957
bf24a18e
3db7c6e4
3fe06421
3d99a669
bda96cbc
3f189921
3fefe570
3e9b9c18
bfa8c1bc
3f4ad48a
3f0c1a2b
4036227d
3fb877eb
3f2c76b1
3f716b15
401f97d0
3f8e7e5b
4010f66c
be387263
bc86a612
3fb7e218
bfb17cc8
bfc860d5
bf77608e
bf30231c
bf2a6351
bd6c61d9
beea4e61
c0112e71
3fb763a1
bfc55e20
3fea5d19
bffae3cb
3f152f3b
bfc4bef8
bcd077e4
3b0e114f
3f947310
bee85539
3e28c43f
3f950967
bd9f5641
bfb1579d
3f4a2dd8
4047fae1
bf004ecb
3ff3eee8
bfd2268d
3ea59bb3
bfa07044
beb5c89d
bf581847
3e592e39
bfaa50b4
3f37937b
be460e1d
3ecd2318
3f1e9047
3dd15d70
3f9b3d7c
bed46dd6
bf1cbfcf
bf3150da
bf4acc62
bdae902b
3e161aa5
bf9ba1bf
bdda49af
3f5585b0
3fab5731
3f904a35
be757feb
3c6eaff8
3ec29eaf
3f1d3e93
3fbe431a
3fa6c61d
bf9887b3
3f1b4fce
bf855620
bee86bdd
be33e0f1
bfe703c9
3f0e03b2
3f72c8bf
bde3f57b
bf4e9da1
bfa80382
bc5b8a4c
401bd73a
3d013413
bebf0c5b
bfc473e2
3da4a73c
3e8a9932
3f30238e
be833f0b
3fe9c3a9
bf21bd0e
3f711da9
be7210be
3f164207
3ef54482
c0101c5d
bde06eb6
3f0df054
bf0b9aba
3f5d42b0
3f820c13
bef8f0f0
3d36174b
bf90fbe0
bf63bc60
be703871
3fef7d7b
c01515d5
3f1ff2b7
3f22ad15
bf8b04d8
3f1933ef
bdc82f4f
3edd45a4
3fb7f21c
3e8511c8
bfe50312
bd0d164c
bedae953
3e09e9d6
beb21b9b
3ec0aaab
3e1df875
bf9ae8d7
3f628f40
3f902534
3e086cca
3e6648a7
3ce9ca27
bfbda5cb
bf52d3f2
3ee99702
3f63188b
be79ef57
3de429fb
3eb3f7a2
3eead7ec
400f6662
be5739b5
3fb9159c
3e9fd29c
3eca69bc
3f9d63a3
3fbbd476
3df3d7a7
beb5b381
3db76406
bf8614cc
bf15cc52
bf795fef
bfcad0bf
3f3507ee
3dc26254
3ecd7c00
3ec5f50a
3f8e6e98
3f1638f2
3e028338
3fb812a0
3f484e09
403d9c8d
3f94ab23
3f3af95f
bfbd184d
bee6084b
3e82f2bc
3f16881b
3ef16439
3fa7e25d
bf790f79
3f639dfb
3f13ec1d
bfb4360e
3eee4e87
3f47e192
3fa42189
bede7813
bcb4c3c6
bf51801d
3ee8aea7
bf0311e8
3f2e07c0
bf13d81d
3faade38
bf59e455
bf60145e
3fe1fb7c
3faf7c1f
be9a0b87
bfc46c75
3f326d54
3faea1af
bf99694d
bebd0cbb
3f92b66d
bee74b6b
be61d836
3f036802
bec40a46
bed54b44
becfc980
bfdc2496
3ecac2ff
3e5c0cac
3eaa3bab
be0ce95d
3f4d9df7
befcffe8
be311cf8
3efc12a1
3f0843f5
bf11436e
3f4ffb6f
bfe61777
3d580b4b
3fb4f10a
bd801d3d
bfea0ea5
3f6934f1
bfa2a96b
bf0da17b
3f261d76
becedd76
bf170724
3e4ee926
3e63b3d4
bf9b1f64
3f272a1f
beaed710
bf106d71
c01d2285
3e978699
3fcb64bd
3f9c3b34
3fd51fb4
becaa4d0
bf218ec7
bf8ba5a0
bfbbd200
3f03535f
3fb19350
bf0bf36e
3ec05321
bebfac2c
be2db621
3fbbefa0
bebccfae
be5ecbce
bfe04440
3f6662ff
bfc478c4
3facd6ca
c02aade3
3e3e2bd2
3f80d1f0
bcc5b173
3e28d4d9
bfd8fa01
bea1b348
3f675c19
be808c16
3f48541b
bd420fef
bfed3665
beb30243
c00ebb17
bf59c1d3
3f9968fb
3f606e79
3fcc9cab
beb4c1ab
3bdcac4c
bf915b81
3f4fc2ff
bed521d2
3f627bb7
3fac41cd
bf409ed9
bf47b5cf
3e0211a6
3eac7cd3
3ee95bd3
3e4ed3d9
bf9f8f7b
3f99147a
3fd2f6d8
bf034e29
3f83a2e4
bf5ddd6e
3f051018
3e74c9c7
bf5f021d
3e08a68a
3f08a32d
3f7fbb2e
bdfa681f
bf220fd5
bf8f0c16
3f8a1ed6
be91cfa2
3f5af059
3ffd9924
bf8e8a67
3ffa0ffe
be88569e
bfcce313
bfacbf50
be293669
bf88136c
bec0479f
3f934ee8
3ce5e262
bfa14d6d
bbdb975b
3f737fba
3f38c318
3f183960
bf9be6e6
3f60698b
bf350f2e
c000a947
3da26601
3fb9ba82
3f73f413
bde507e5
3f25bf4f
3fb47d1a
bf5b7b1a
3f75e9ac
3ef4a204
3f6ca935
3e7433c5
3f71bc37
bea02bb1
bf71db86
3e008e08
3fc0cd7e
3e543fd9
bf9a113e
3ea2658f
bf7cb003
3d8af698
3f46ed9d
3fa8d04b
bf1bf064
bf4631d9
bfb1a990
befa2560
bf03cb3e
bf7d2f54
3fa57df0
bf9530f2
be2d4213
3f11d7b0
3f2c413d
bead53ad
c01c3841
3f8e20c5
bf8e59fe
bfad7dfa
3d6c21a4
bec1afdc
3f199995
3f966d37
3f14b549
bfd05f70
bf061c0d
3f66e741
bf6f7c16
bf41e196
bfadeb80
bf572440
3db8b969
beb6c2e5
3fb75b4b
be31197a
bed79cb2
bf4baadb
3d6dcf29
3fb1c449
bfb7b73c
bf33fb97
bfb566df
bd9e5f27
bfbd3f0d
3e106cc6
3f9e649b
beaefdae
3fa472e0
bfd08b5e
3f857feb
3efcd008
bf20c024
3f235d09
3eb1244d
3ec3d47d
3f87feaa
be4bb18a
beeafae5
bfcfd8f3
3ea89c06
3f923321
bfe51170
bf88409e
401d58cd
bfea4e34
be8c5bae
bf7e6918
bf849524
3e13eb38
bfb3d4d2
403fdf59
3f549425
be6ca0f6
bf291837
bf6bd29b
3f2829b1
3e13011e
3f5a042e
bf2dbc71
3d017b3c
3f983c7c
befe625d
3f1432c3
bf09b244
becf7bde
3f589aa7
3df79086
bf889e37
3ffec4a8
bf73794d
3f23ed0d
beaacfd2
be67fe11
3fc00d08
3f4866a9
bd41cf39
3ee07e3a
3f372000
3fc1e500
bdb4bf83
3fa94abe
3e4f202b
3f8d40ef
3f9fbc40
bff9831c
3e9cee92
3f942e46
bf5becff
be2cf02c
3e84b108
bfa25f67
3e80e094
bff4e8be
3c71c144
bf8361c1
3d999f8f
3ecb2e42
bf38ddb0
bf752efb
400eb673
bf16e621
3f1924fd
c0061852
bed81e2e
bff03a52
3f3f9881
3fed8d19
be23bb34
c01dd11f
bf340ad3
bfb24b0c
3f9755f0
c02972c0
3f23f02a
3eaf4bb4
be95b319
bf0ac108
bf81eec3
3eb3236b
3fa6c498
be3bb0ea
3f094265
bf5b0d91
3f1ffa4f
3f40be13
bf55d0a4
3e3f0d2b
bf78911e
c02d8721
3ef76880
3d44ecad
bfa04f1c
3f127a39
3ffe2150
3e64986c
bcb1aaad
3ee86c88
becb51ff
3e7b1512
3f42411e
3fe64e76
bdd1e6d6
beef06c5
bf16d752
bf313154
3fefedde
c00f1c03
bf9b3ba6
bf2d78cc
3e832ba4
bfd1e038
bfdd2519
bee77be6
3f0b3c3a
bfd0b405
3f7c9131
bea8acd7
bf17d63f
3f875390
bead8015
3f1f6159
3f0946db
3eeaa98d
bf31f026
bea414e6
3f0c81b3
3f8822ed
3f4c53a5
3f5f6954
bd9d3d55
bf01c46b
3ebe03fa
be77b337
bf90f44d
be40cf94
be8cae9a
bf1f3771
3ef4d827
3eaba14f
3fec8eed
3f7294e8
bf34dd67
be1925a5
bfa1d5dc
be98b003
c0168a92
3ed4b11c
3ffd415b
3eb052c0
c0138dd3
beca05e7
bf7d7f30
bf889737
bdfa8177
3fcdbaa4
3efe3ea1
bf567286
bd442fae
3f1a8a7c
bb990c7f
be810c32
3f8fc047
bebf58fe
3eaeee42
c01047b2
bebf6c42
bf518aa0
bf77348d
bedbcfcf
bfa7ee93
3feb8393
3f11671a
3f53ba71
be4a8498
3fac235e
3f965b2d
be8647de
3fe0b72c
3fd5f822
bfc94293
3b219940
3f46e560
3b5c4276
bda5dcaa
bec2707c
bfff1cbd
3ff79c59
bf6c281b
3f81a233
bedc90a2
3f1c4f6f
bd042abc
3e4684cf
3fb02c02
be65cd4a
3fa5dfb7
bf5f1240
3d7ddb09
3ff55382
3d4b2337
bf7c6491
bdc7a0eb
bfaf4553
bf257bee
3c816598
3ef0e8be
3f3ff435
3f4aa76f
bf9063c6
bf44c23e
3ecda7d5
3dc58b67
bec0072c
3e8f40f7
3f58f2a9
bfb843c8
bd9ac1de
bfffacfe
bf1df53f
bf05a028
3fe8af3b
bf2a48bc
3e0a7706
bfb9c2cf
3f8a11f3
bfcb94e8
bc9a3847
3acdd244
be9d011d
bf216218
bee33c32
3f15f8d9
be931b91
3f8f7c09
3c1034b8
bfaf228c
3f416e71
bfc72821
c00aa886
3f23f48d
bebd4a99
bfa33e2d
3e8d94ad
3f31372a
bbd9b432
bd28c310
3f724e7a
bf73ad6e
3fa22a3e
3ea0aaec
bf825f40
3ec14b39
bec6e52e
bf268752
bfd4a32f
3f5a80d1
bf78a464
3f769775
3fe14e8b
beac02bf
3d5ab1e2
3f4e7b95
3eb48f18
bfc9c4bf
3fbd1dc3
be5f8cd9
3f9bb2e6
3f4c8940
3ecde152
3f3248ab
bf25d9fb
3e57f140
3d4240f0
3d85d2dd
3dd88e48
c00ae7a9
3e78b9e5
3f286c45
3eaf1e02
3f01a343
3b14d10a
bebab923
3f62b2e7
beff5a55
bef0686b
3f09b247
bf861ddd
3f9f5fcc
3fb73209
3f52b700
bf1ccdcc
3fb601d5
beada0c6
bfda483e
bf7821bd
3e9a6a21
3f68a5ee
3f81cc33
bf96a1eb
be637429
3f99b0b3
3e77313d
bebc40a5
3fc7afc5
3e9ccec5
bf89c70a
be7bc959
bfaf11a8
bf7e1ab5
3f79bdf1
be3856cd
3e17faa2
c004617d
bf26da29
bfb2c6a1
bf85ccea
bd24cf51
3f60a48c
3f914654
3f457c84
3f636976
3f5ec967
3e927e70
bff13dd2
3f0df754
3f85b1f8
3e400d8f
3fafbdfa
bf815f2d
bf40f12e
bede8d54
3ea0b182
3df01d1a
3f186f31
be835e02
befd5981
be8e37f7
3f0c3ced
3f815db6
3edb6da4
3e4c6238
bf820bf5
be597566
bfa265c8
c0076a34
bf899e62
3e4b2c6c
bf8587a6
bf479894
bffcc069
bf40767a
bf91acc7
beac1bf8
3fd63cfc
bffe874b
bf2ace24
3fb9d81f
4042e692
befa87e9
be37050f
bece2c11
3ea47f94
3ecf770d
c003e7d5
3f90b92b
3f325c6a
bfc5a72b
be8e4d5f
3fa268d8
bffaf6a4
3f16c046
bf7cf931
bead3362
3fa027f1
bf181888
3c949b8e
be357160
3deafebd
400fec73
bf0d2ef0
be6643f5
3d603b88
3f5dce99
bcc91fa8
be23bad3
3f16be3b
bf8aff88
bfcc7f6b
be22d3a7
3ec1ceaa
3f6d66c4
c07ee735
bfd2f4b1
be7376b2
bdc40ae2
be0b77ec
bf1f221f
3f1abc68
3fa581cb
3f38a183
3f1c290b
3e99d66b
3fa6dd7c
4005ef5a
3f57e94e
bf392b45
3f6ca679
3fd7cf3b
be7b8041
400be262
3f83d56e
be21e65d
bf9564c8
bf20d55d
3f89080a
3e3d98ea
beed884d
3edda3f7
3f1689cc
3f233327
3f1b83ce
3eb726a2
bf452008
be15c9fc
3eb57c35
be04b183
bfefacd9
3f6899f7
3f1e83c3
bf5f8e5d
3fda8bf1
be48cf0b
bdb8fd6a
bf12b12f
3f5095ac
3e8b98c6
3f2a6f35
3fb91a78
bf6bde7b
bfc94534
3f310f31
3fcd90b2
bf443a7e
bf5b4fd6
bf4c6684
bffbc2bd
bfa818e2
bff1c6a5
3d786212
bf7964f3
3fd320c4
bfc416da
be112833
bdaf562a
beb05e60
3f9ad5b7
bf3f0014
bc1adf66
bfaaa378
bef3301f
3f77fa36
3f79fdb8
bff40dc0
3f0e3747
4035c881
3e75f73d
3f0dfb4f
bf5dee26
3fa75a74
bf194edf
c075ec21
3a9afde4
bf9ce7b7
3d8508d2
bfbd7b68
3e861673
be197905
bfc56438
402049e8
3cdd0187
3e053485
3f89a24c
3f64d394
bf9f5ca6
bf1d3ced
3f345e1e
bebfbd79
bf946467
3fbf795f
bea62a1a
bbdcac94
bf320bd7
3f4487ab
bfd13b4a
3ea828db
bf1e088b
3f09952a
bf75ca91
bf2f8185
be434e03
400d4f22
3e1ef3ed
bf80ef30
3e23a2a2
3e3ea14c
3f0b8c3e
3f61849a
3f596cdd
bf1343ec
bf78bb2a
3fc99828
3fd1ae10
bc872aac
c003d2af
3f7dfeb1
bf3d4752
3deabc2d
3f25a1ba
3f22e5e0
be976bd5
be4dd3f1
3dcf7640
bee2a3da
3f818f7f
bf29f8b8
3f88ec6f
3ea53d3f
3e769c54
bef86509
be6b2d22
3f0e11d4
3de27b30
3dcbad12
3e96192a
bebff20c
bf92e811
bf167bfb
3e0aa180
bf675dff
3ecfca34
bf11dd01
bf124072
3eeb874a
3f814d7d
3e6bfd3e
3f431250
3baeaf69
3e568ebe
bffb1a48
3f4ba306
3e6d4b9c
bf97760f
bf8cc049
3fbd6f73
3fb0e1c7
3f9d00d8
3f5a5723
3d834257
bebd2e7c
bfb07de4
3e7c6e64
3f37ac58
be8576db
bf3d3966
bebda322
beae0082
bf2e5187
3c4baefe
3fe734e2
bf11ac18
be8cf132
bfd5a1fc
3e838a0f
3f102bf1
bef1cfb3
bf543ece
3e83bc96
be865011
3e90d745
be09f23c
3f96d9a6
bfe8a53e
bfb170c8
bfa9f1fb
bfdeb287
3f045f6f
c00ea15a
3f8f4caa
bf0e2a51
3ed32518
bf523da0
3f84515f
3f1f0e5d
bfddb114
3e0462d0
3eb052c5
3f869bb6
bdc5ace3
3ea54c78
bd9c5962
3ef8b544
3f95fb9d
3ee79645
3e89fc70
be77c4ba
3fb26e5b
3f03e98e
be611550
bfb9296b
3fb7d969
beab3491
3e3c32d1
3ef52441
3ec8ae4e
3ec4da68
bea03e71
3ef57c60
3f02618a
3e7bfe6a
bea5d7e6
3eec4e34
be934b12
bfea5881
bf16a1b6
bf127cb9
bb02f61f
bffc50ec
3f388431
3f4c4eb7
3f1f18f6
3d8e1ee6
be42aa3a
bfad0dcf
bfb09842
3f83b337
3fc6abe1
bf610da5
3e849c2b
3f1da75a
3ff828c4
3f855ff3
bfbc5dae
bce68a3d
3fe0af3b
3f414101
3fcf4c50
3e8fce50
bf91c635
bf50f0bc
bf4c1ea5
bf48b8be
3fd0a1c1
bfa22709
3f97e4ab
bf58395e
bfc017de
bf83cd41
3e7a2308
bef12332
c00f7a2a
be550d45
bfb86cfc
3f8ad7d8
3e689fc1
bf893863
3dcc61d5
3f36d22a
bf6591e6
3ecdc1c6
bffa5d06
bfdbebe5
3eb7fee2
bf082b72
bf1596d2
3f0295ed
3ec4a9c2
3fc8ed82
bf43d087
3f6bbaf9
bfbf6339
3f5fdd4b
c036117b
3f37de5a
3e93c359
bf284303
3ea1d545
be397490
c00c3679
bf1c39b8
3f8a7cb4
3ea2ec44
3f4edab7
3ea06274
be082948
be2e2d10
be87504a
bfd6b972
3e1db538
c012ab18
3e984fd0
3f8e0d9d
3e8b1cab
c015471b
3fc99a37
bf0fdf29
3e8eab3e
40348147
beecbbfb
be217d97
3d23b34c
ba9fb3ce
bf5106cf
bf0180bb
bf70fd6d
3ec69440
3f881c0c
3f8313f7
3fef1c92
3e8c948d
be965c2d
bed56587
3f6a6d58
bf4dbfd8
3e7417fa
bfc29d2d
3f8c3636
3d6c8236
3ebfd643
3fb8a577
be251c81
bed20378
3face5a5
befeef47
be3bb3fc
3f25b516
3e407abc
bf1116ea
bd922682
3fa93bdf
bd61bcc7
3f16ed26
3e9dbb83
bf70ea1d
bf79ca32
3ec70070
3f22033f
bf5c3663
be43ac02
be96b96c
bf91c286
bf407021
3f9b2bc5
bea13d10
3fe17fee
bfdd5a6b
bfe387c1
bf88ab09
bf7d9295
be91aab9
beff6230
3fedb5b9
3e933c91
bfad5b44
3e3380b2
bf717fea
3e860412
bf2127b5
bff6be40
3facf6b9
3e063397
bde7acf7
be0bd9c5
bf8e6040
3fb21084
bec27c21
bd79e63d
bf4bbcc1
c037797c
3f6cd777
3d371721
3f9d3cd4
3fead044
3e819c97
3f50baa5
beb09922
3f549ecd
3e08d672
bfb84852
bf36fe64
3e717201
bf73fef7
3f5da3fa
becfc337
3f087fe9
3f3ae72b
bfddefa2
beae63c4
3f44b803
be910a2f
3f92ad9b
bf3e4483
4020829d
bfa6b3b4
3fd412d1
3dde1601
bec53e5d
3fefc577
3f8fc776
be9da632
3f10d504
3dd02d1f
3e693229
3f918887
3f1a65d7
3f92165a
be4d9153
3fc1da3d
bfadef15
bf8e6e31
3fa82cca
bf6b046e
bf7cfab3
bf67e929
3f0355ce
3cf396ff
bf9f8961
3f285e8d
be82a222
bf437309
bea2b676
bee730ab
3e74f9d6
c002978b
beedf342
3f841014
bfcf2575
bf39b935
bfb5ea9e
3f951b69
bf25cb34
3fb6e52b
c00b8728
bf8649af
3f011828
3f530382
bf43a2ad
3d413240
3f75fd79
bf4aa864
3f9982f4
3f1a155f
c029a7a6
bf82cecf
3f3cf015
bf67ab00
bf9dc2a2
bf944450
bfacb65e
3e32561a
be37f201
3fb07db0
be6f4174
bd548fe8
3ef37ad2
3e856fd2
bebb6731
bec49239
bf8409c3
bfe6fda9
bf03053b
3e981efc
3f17c9d5
3f053ca8
3f23d40d
bfa8d451
bbf8548b
3fb4cd1f
bf3004d1
beeb9f5b
3e77fe20
3e7b2ba9
bfc60ec1
be01d6a3
3f22c80a
bfd00aad
bee6b322
3f57f6d7
3f7e82fc
bf88d44b
3f67a3f3
3fd25da5
4014f19f
bf4806b1
bee40d8b
bdc4cff0
3d533ea9
3ec8d8ac
bf07cda9
3f8cb338
3eb66dcd
3fc47c81
beef63fc
bfab3676
3e45d8ab
3fe49f2b
3f1f2454
3ed686f7
bfd2a2c0
bfda36e0
bf932a23
c006f334
bfad4efb
bf494eef
bf048e6c
3fc8c776
bfc5ed40
c048895e
bd8c589a
3ebd2a6f
c00677ef
3fbfaa70
3e923451
bf9dd94d
bff31fab
bf17886c
3ef1330b
3f89894d
3fa6a18c
be9a0372
bf5a7cd3
3fd209e9
bf3d471c
bf604768
3f0922ff
be67281a
bfac811b
3fe7ac28
be4b0126
3d91b19e
3e6a3a67
bf9b875d
bf8dc509
3f0a242b
bf4a2f13
bf110bbb
be631174
be8516bf
3e781299
3e64546b
3ebca81f
bf8c2a2e
ba194575
3fb2f187
3ed1811c
3e5d5c7b
bf2e6ce2
bfa4b620
bfd69562
beca6bb9
3f9525f6
bf69afcc
bf118000
3e5730a8
3eb5d9e6
bf147b51
bcdbd679
be6dd878
3f3e0c40
3f96fb54
3f9e2926
bfd46271
3f908cfb
bd13acbb
3e0df8e5
3fdc78a8
bfd887a1
3db695e1
bf9bfda4
3f07cbb2
bfa1aef5
3ff4dfba
be9f55a6
bfa1498d
bf39d7f4
bf8231c1
3f9100fd
bf6051a7
bf029c4e
bf80638f
3d2ae9f3
3f066033
3c1260ac
bf56afcc
bf56d744
3fa9d45c
3f2b975b
bf4dc534
4002db61
bfb8fa7d
bf101a59
bf96cb75
bf94aa2b
3ed14b47
be953495
3f0a8e3c
bede656e
3f13f7b7
3fbac48c
bed4ef0d
becbdeda
400b878d
bf4537bf
bf3e05cb
3f8a817f
3e7bb644
3edea828
3fd268a1
c013cdb9
bf3872e9
bf1c692a
3f23ab18
c02dba4c
3e9a4542
40159987
3e8efb29
3e80beb2
3f398408
bec3bd86
beae09ae
3f9445f1
bea94173
3f2f5947
bf58cdd9
bf1956a7
bef7def6
3fac6674
3ef2e023
bef5afa9
3feec032
bf2cd376
3f96ae63
be3f3136
bf95ca2d
bdaa083f
bff89429
3f879af7
bdab4224
bf282a35
40342122
be4d70a3
3e0b9a8a
bfba12a2
be9f68a0
3e3bb7bb
3f545beb
c018aa06
3fbef59c
be254884
3f6a3a5e
3d9ce860
3fa86e59
bfac4aa9
bfa3824d
bee31eb7
bf234f64
3d0399aa
be01507a
beefef3a
bff463af
3ee647fd
3e8c10e9
3ffc6a6e
bf5466dc
bee4ca84
3f87bf28
3fabeb93
3e236920
bf5519b8
3d64f172
3f11057f
3e879932
3f357560
bf341149
3f5992a1
3dc86224
bf81a9e6
3f916afe
bf677e8d
bed59b1c
bf6e66c2
be9f3f35
3ecfba7c
be45956c
bf81e08a
c0139c3f
be14c74d
3e8aa9a8
3b92b346
bef33112
3e9d2021
3fe710ef
3e96beca
bef34166
3f293870
3ee2d520
becec847
c00390ee
3f233a00
3f9ce84a
3db7b327
3f34b186
3f6871d7
3f19959e
be2c85b5
c010f6b5
3f810a80
3e83f89e
bea53b04
bdf38d57
3fcfd149
3effef8f
4016e389
bf88346e
bf33b1c3
3e5c4c28
bed7a8b7
3f638f8f
3ec434c7
3eebdcab
be64d908
3ea7c92f
bfb9c6d5
3e8ad6a8
3ecfbff5
bf8c3679
400d973e
bf391b13
3f92e45c
3f89927b
bf627115
3f543af6
bf0ce2a2
3e49066a
bfafffb2
3c3dc5d1
bf622914
3f942aaf
bfe692fb
bfd3e725
bfc4c025
bf13a32e
bf03d989
4012c47e
3ee8ff02
3dd0b514
bfbcfe21
3fa90fdb
3ee39689
bf0e6140
3f8347c9
beca1d06
3e36c05c
400ca685
c00cb0d1
bfad7379
be9b042e
c0018683
40100cb5
be3259f1
bef67f53
bf585787
bdba3473
c0221ea9
bf501261
3e24fe46
bec8fc61
bf814ddf
3f535c5a
bf420cb2
4019bbc9
3e85eaad
bf806b12
3ea4a1a4
3fc27eff
c01747c6
be6df15e
bd6d1e59
40006cda
bfb3579f
bfd5e2b6
bfdc6a9e
be8e04f9
bee6d54d
beb71207
3c42c0a5
be24b89b
be19e2ca
3e8146e1
bf5751c3
3e9fe679
3f572a23
bfc704a0
3f1b3185
3fc1f801
3e7f81d4
3f1e5cde
3f3179b5
3fcbc78e
c07203c2
3f23476b
bf913ba8
bf61449b
3feb872c
be571475
bef60ef7
3ed32e64
3e73d617
3f84db17
3f93dcbf
3eededce
bdd15027
bf7ca209
be69fa10
bf96d047
be4fab18
bf977a94
3f8fbae7
401826c9
bf5f0a88
3fb0f8bc
3ee0125d
3eeafbae
3f1a024f
3e8f7311
bf287dfd
3dc14727
3f092be6
bf7d9bca
bd40757d
3bf0c2cb
3fc43b18
3edca7c9
bfa5d9fd
3f0cdfe9
bedebdbb
3d8f3f2e
bf0806b8
3e43573f
3fb3de0b
bf7bcb50
bf151367
3e59a8a9
bed3f409
bfc8c191
bfba254e
3f74fa81
3edca4d0
bf1c9cd8
3ee7ae2a
3ee04a63
bfdba4c9
c01beb92
bf45d0cf
3e994aaa
3f80a9ec
bf2eccba
bf505516
3fc7a71e
bf23a8f9
be4b074d
bde9b28b
c0461ea0
bfe86dde
3ee82efa
bf7be32e
be6c2a55
3f73b37b
3f06f56d
be9de584
bfbb0c6d
bf29d669
bfddd8f8
bf623fba
3ecd7dac
be85cad0
bebdc30d
3efe9ca6
3f29f299
3f3f3eec
3d94d0a3
3f068045
c0064849
bf4703ab
3f5596b0
be0c2026
3ee5af34
bd915318
c01ceb69
3fa15cec
3f9492b2
bf5f9939
beb0d99e
3f4fdd50
bd5c7837
bf28132c
bf75f8b4
3fc28796
3f155dc9
bfaeecd5
3db0cfce
3eb7f39b
3eaecdb2
bef70c12
3eecae6b
3cb0f924
bead016c
3f2a7767
3f4255e0
3f603ee8
be90e5b1
bff98470
bf88cacd
be98e85a
3f88d082
3f60d649
3d18f633
3f9791e1
bd80a6e4
3facc33c
3f981e75
bf4f1db1
3f8048fd
c02b0037
be0f45f9
3e0542ed
bee94c6e
3d865778
bf51c56d
3f4c4072
bf7f8cb4
beeb3a8d
3d5a2ab0
beaa66b6
3ed0045c
3eb582b8
bfcfee9a
3fc43b57
3f8d75e2
3f6e115a
3efbb7dd
bfc417f6
3fe3af6b
bf0e89fe
3f12b3db
bf71b34b
3ee81f0c
bcfd2ea5
beb92e19
3df61da8
3ebd841f
3ef23a9a
bfc0ac01
3e8d4d95
bfa03e7d
be530488
bf865bce
beda5056
3f9f277b
bfa34065
bf8d951f
3e81fd93
bf8c0534
3f4f1986
bf1dd6e1
bee04aae
bdabaeb1
bf189640
3f3c64b6
3c01949b
3f0e6a70
3f20226b
3f89cada
3fbbf74d
3dd79112
3fa0055d
3f857764
beead9fd
3eb89f65
3f6027af
3f16d037
3f86c666
3f63c151
3f3e24b3
3e148391
4012c946
be317d0f
3e340d73
bfc4ae13
be987f52
bebb023c
be41c336
bb05cb69
bfb0f43b
3ed74503
bfa314fd
3f47b4f3
bce981a6
3fc553f9
3f221191
bde3db60
3ec82835
bf7416c1
3d52c221
bda84090
becbadf7
3f858e43
bf191ca0
3f1098dd
3f218a4c
becb3ccc
3f8bfdee
bda589f0
bea96121
be3f5c43
3f2408d9
bfa11139
3f136947
bef83843
bfe6cef8
bfc77ab8
402159d0
3f77d7ce
bf1dc7f5
bfbb472d
bd978cb9
3fbac319
bf07cfd4
3f2761ba
3e76b2f4
c00264e8
3e27fd76
bd8fdea1
bf489747
bfbfa618
3e05bde5
bfcee97c
bfcf62ad
bf74fbd9
3e09af5c
bec59ac7
bf3e993f
bf84d3e1
3cb7426e
3e9b9e97
bfb10e85
3fd3d30b
bf85f7fc
bf86cf52
be519d3a
bf9da2ca
bee3a883
be95ad96
bf7c35a4
3f71df33
3fed0563
3fbd345a
bf5f3d5c
bfb81c2b
3fc0a8dc
bc9022be
3fe517cb
bfbceab4
bfd31edc
3f2562a6
bd8ec0c3
3d56e961
bf850d9d
be01818a
bf790454
3f989d0f
c010317b
bc8f8c4f
bd9e10c8
3f82a777
bdc0fb8d
bfe3da22
3fd5ed4e
bf55006c
3d3ccc37
bfaca3e9
3f2123de
bf3a2b7a
bf6c9cf8
3f9b51ce
3c1066e1
bf123ab2
bebd57fb
3ed83a0f
3eca235e
3e11ffd9
c003f4b1
beb6fff5
3dfd4f87
3ef097fa
3e99667e
3eb394e3
bf0ae863
bf6131d7
bdc10b8a
3faf0bf1
3ec0feba
bfc9488b
3f130d1f
beeb232d
bfbac7c5
3f9db298
bf1315c6
bfd39eb4
c03586f7
3f0c3de4
401b5d61
3e2e8f0c
bffb65fc
bfe5edd8
be54015e
bf0816ab
3f5680e9
3f3fa124
bf67aff4
3f01a3bf
3fd056f2
bf9317f2
3f06d7c0
3e9c255e
beeaada7
bea175c7
bd5e38cd
bf6b604c
3f8cb9cd
3f2e8278
bf1c8976
bfe4e2bd
3e15037c
3f51ef18
bf02bbb7
bf51849c
beea46d8
bdd67e28
3c036436
bf2c0338
bf911bbb
bf85e7c3
3ef3e9e9
3d6df773
3f19c863
3fc3e229
beb3424e
4021578c
3e16fe44
3f244af4
3df3dcf8
bfd63800
3f18a885
3f5744e1
bf8bd8c1
3ef66f8a
be4b31e0
bf0c98e8
bea308c6
3e5abbcb
bfc93025
be0eae53
bfac9957
bde275c2
3fccbc87
3f19dab2
be81b50d
3f88bdd9
3fca4304
bf0a4e1c
3fc403db
bf0c9f39
3f5ad220
3d9df55e
3ec9e948
bfdf67ff
be7dfd97
3fb3aa60
3fa55b3c
3ec6af25
3fa9fb41
3f51fc7d
bf182d4f
3ef01c4a
3f37df2c
3f35cbba
beaa0a4e
be71b825
3eb9436c
bf2ab1dd
bf7dd499
3edbbfae
3f05f2b5
3ed399b9
3f567823
3f1e2f3f
3fe9aa54
3f6247b2
bdff1188
3e569743
bf8e80c3
3d5f4630
bf313e06
3fd42247
3e141593
be4c8dc0
3f5f8fc6
3f32b04b
3f73531a
3e3f869a
bee99ce0
3fab6e54
bf8fabdb
40062400
bf366d9b
3e91b8d5
bea07b66
3dccbe0a
3f875811
bf07ab32
3f4a3c36
3f329216
4005f6b1
bf0d15f9
bd701533
bfba6508
3f065009
be554efa
bfaeb2d4
bf2fa285
3ed2d2cc
3e20ea67
3ef5ebea
bf4049a6
bef0a3ff
3d8de39e
bff31283
3ed98332
3f615087
3e8eb9c6
3fcede95
bfadc1b1
bedbde25
bfe41cea
bf87a1ae
3f7a7e27
3f325fb4
bf45140c
bdfa2e91
bf64d807
3f5f19f7
3e210bac
3fdb8d8e
3ca0841e
3efa01ff
be3a39a9
401c5f3c
3e2bd1e4
bfbe98bc
3f88e185
3d87b21c
bfad4486
3fb43dcd
3f9f37be
beb6a178
bf8a1b5d
beb689d0
bf91e54a
bd5c925a
3deb7120
bfe2fb7b
bf6e9d02
3fd84235
3f41efda
be543376
3ea9c1cf
3f9a7169
3f5eb1a8
3f0d9398
3ef4e527
3aa8bd75
bf20015e
3e9ff672
3faede7c
bfa32b3d
3f006078
3f8e535f
3f3a1702
3fd82b2e
3f3dfb25
bebb96d3
be90b5a5
3fbbefa5
3fba14ce
bfa28374
3e7123d7
3e6c1eea
3ed91d90
3e9a90bc
bfc6e952
3f4d500d
3ef0061f
bf00c29b
3ebc18e0
bf7ffb07
bf506db3
be8327d0
bd9b4048
3f24d172
3f167c1a
bf4c06e3
3fe8406f
3fd4865e
bf9e57d7
40266599
3ed7be45
c000da1e
3fe08321
bfae625f
3f470230
bf771759
bf2a766a
bf84c1a1
3f77ba14
be43ab15
bec6df50
3e65eddd
be81610b
3f3bb6d0
3f19ff3b
3f46ab20
3d067f4a
bfa4b5d4
bf2aabfb
3f4bd269
3fb89077
3f6e7825
3f6d6585
3f147e3d
3e118c57
3f5e240a
beb686be
3fef67d4
3f002cd8
3f7ae95e
bf2b03bd
beb26881
be8dbbe3
bda1cd74
3f29203d
bf0441b8
3e443d1d
3dff30b4
3f77a133
c00f4818
bde1ff6b
3fda703e
beefd5db
3f11149f
3eeb86e1
bf68f491
bf082000
beb00df0
bf32a5e1
bf9d5bc9
bf06ed08
bd9d0c10
3e535c25
be0c49ba
3f69196e
3cc11cfe
bdaab768
bf7cc3e4
3f29926a
bf19b32b
bdc0571e
bf934c16
bd99514d
3f056dae
3e0fa989
3ea63eff
bea78808
3e238f4d
bf2f99fa
bd89353b
bfcecc4f
bf47405d
3c19a824
3f8c3a2b
3da6520f
3f4e23e6
3f42ee24
3ee7d141
bdaf81fa
3e8e81ff
3d751d7c
3ff4f63c
3e75318d
bf343c2e
3e7f212a
bf877692
bef7b3a2
bf198ea0
3f66c3ab
beb6c875
3f6c8619
bfb613a5
3f8b3d32
be840011
3d89ba7c
3da56c27
bf5507e1
be04786c
401b3680
3f254237
3f52935b
3e68d44a
befe499a
be11384e
bf815403
bfd5920f
bf053bc0
be7db431
bf0ee336
be37f464
3d530bf6
402613e3
3ea1b477
be13137d
3f8c765a
3efebe4a
bebb5230
3f236fab
bf54f9fb
3e24e518
3eb3942f
3f95b888
3f4bb72b
bf955008
3f9b2a92
3c527f34
bfadad02
3f7e81c3
3f378ab7
bf94a3e4
be45be84
bee31690
3f2e40d2
3fba8365
3d2748e8
3fd28db4
3f72695a
beb20a64
3c8ba4cc
3e101bd4
3f9b53f8
3ed25eed
bfa5422e
bfe4da09
bfb49bef
bf72ce00
3e650f9d
bee56d94
3f9c1724
bee6f97c
3f6bfcd4
befd5b56
3f0bd6ba
3e9afc25
3f53d9ed
3f02721c
bfefee3c
bf94566e
bd32b6e1
bfc1acb2
beacbbd0
3f0b5981
bf23ba8d
3d330f11
3ddc91df
3ecd842b
bf2d130a
bfdbd00d
bf0f13de
bfa1e016
402c9aa0
3fbe5d72
bcdda93f
3f0d612f
be9d7078
3f069044
bf520380
c004abe5
3f8704d4
3fadc0f3
bf329e3e
bc879b6c
bf30db98
3e616508
bfa184f5
3ee415a5
3f0c66de
bf15b6bd
bf26ff70
bbe688ec
bf288a40
3f19a10a
3e2423c7
bdd93c73
bfd4051e
bec9aa10
4010174e
3f8096ad
3fe05a0b
3e7187fb
bf21690e
3f1fbfc9
bf728f07
bf02cc05
3f05de71
bf8900c4
3e9e7296
bf421669
3f12e8a1
be9fd396
3faa02b6
3f050d00
3e89d7e6
3fc7a3ed
be8eb221
3f06b256
bd3125c0
bf87f77e
bf3808f1
3e0b1f60
3f19ea9c
bfd08251
3e39e131
3f95436a
3e4205e9
c02b7ccf
3f61cdc8
bf40efd7
bf89be07
3f0a62b8
3ff7981f
bfad9e69
3f8e0b48
3f9477f2
3f848b99
3f0f12d7
3f4475d6
3dcf8dbf
3edbad59
be09093e
bfc866ea
befc022f
bffac762
bed450cd
3e9e74c3
bf95d8c4
be96144f
3fa10873
3fce90d0
3f6c288c
bfb72cbd
3f3fb97c
bea16092
bff558e0
bf4212a8
bf87a135
3f10a65e
3d3803d6
c01c9a1e
bf9b7548
bf8d282f
3de6ff6c
bf3e9c1b
3ff2b4e5
bec002ce
bf21dc86
3e9872e2
bdd0703d
3f28ffdd
be9e99b6
3ebe8dfa
3ff16013
3fa28b9a
bf7a6cdf
bef4d544
3f0877e1
be7e52b1
3fadc076
3f2c3005
3fdc9021
3e4210d5
3fb9dda8
bf57bcd1
3e487189
bfdd36a7
3f111d48
3e024c38
bfc66875
3f5f5655
be0af873
3d7d3094
3e8d45de
becab9b8
bf39e658
3dec7041
be31f86a
3f080b5b
3d87a8e6
bfd4b7d1
3fe0b882
bfaaa7dc
bfe96a48
3f3aea6e
3f118d3b
bf1071b9
bf28beb8
3f3a3991
bdd17c4a
3fcbc73c
4018e826
bf9b626b
3f36d3f7
bec19970
40371594
3fc9308d
bf8eb49e
3ea06295
3f88dcda
400faf9a
3fc95e3d
3c496eb5
bf115195
3f7cfa95
3f918287
bf5e471f
3e8818ba
4000d319
3d0c87d1
3f1a9ddf
bfbfb7f9
3f4600cd
3f1901a2
bfae168f
3eda45da
bdbd0423
bf096721
bfc7ff16
3fd0bbc4
3f968214
bedae37f
3faf4946
3e77fb5f
be910118
3e50712c
bffca375
ba991c57
3f01c1f0
3f2463c4
3fd2f455
bf80dcef
3e82bbfa
bf21b92b
be984129
bf305e74
3f824625
bdfcf98c
3eb01707
bf7c47c4
bb3d701d
3fa75086
3f958bac
c06b3e52
bf6aee02
3fa3992d
3f674ba1
bf7ec56a
3f3f474c
3fd1f633
bf36e0f3
c0351b7b
bfa81450
bf8645ef
bf990f5f
3e896d8f
3f152e50
4007453a
3f6eb9c4
be9a8aa2
3edf524b
3df8a11a
3fa05165
be30ec54
be9f4c3d
bf1352c4
3ed075cf
bd9147ee
bfc80e74
3e00a6b1
3f2ba0fb
bf9fe15a
bf570169
3eb96c56
bfa00d70
be62a86b
3f80fc71
3d9ab454
bf5c0d56
bef9b440
3fdd32b2
bf91c461
bd6ceca9
be8e7688
3fddaec3
bdb73cc6
3f11c86b
be0dd106
3e9ab34d
be3ee2f9
bf8af803
3f5b2e36
3e4673a4
3e64badb
3eb937a5
3f2b296f
c002836e
bfab903f
3e38f583
3f81a4a8
be5f19a3
3f9f425f
be1de1aa
bee9d8f4
bfa3533e
bfba31a7
3e49407b
bf793bde
3f76607f
3d8bd1e1
bfd00274
3f76335c
bfa2ba0e
bf2bdc64
3e5f528f
3facbf45
3e7c9fd1
bf02c308
bf0b7dac
be5c9b58
3e8f5385
bfb38d32
3d9095c8
3f694a9d
3e2033b2
bf1a252b
be825893
3ea09a0c
3ef011c6
3f194177
3f9a7110
be0111d2
3ee274fb
bf8c36ee
bfcd3ab0
3ce563b1
40188ab2
bf0ac48b
3d9d95d5
3fa41581
bfee75f3
3e34f8e5
3d47e79c
3f9d1591
bf586228
be837d71
bf2f0a80
bd3847e2
3d7160de
3fa3422c
be869b04
3f48777a
3fdd2132
3f5bf8c5
bf5a3710
401e738e
bf64c54e
bfc9ee36
3e9254e4
3f28a581
bfc04666
be155d06
3fe8d616
bf3fcf9b
bf9ba687
40120f1e
bf2a26a7
becb8f28
bfa8aeaa
3e888971
3e9989fd
3f30aafe
3f47600f
3e403c64
3df3d0f4
bfcaf1d3
c007c106
3f197c24
bfb20902
be5247e4
3f02f17f
c0227409
be85647b
bf920718
3ef2c895
bfba4e74
bfa9a1c0
be1a7cbf
3ee5ad28
3fb11e3e
bfe60e0e
bf6c768e
bf33956b
be8a221f
3ed28c6c
bf637d87
bf74ba0b
be752409
40022963
3fc38858
be6d3d84
3f1aeb07
3f68cff1
3f3ef5d6
3feab5e8
bfafa891
3fe71630
3f0d2447
bf39ecdc
bf16c8d8
3e1cdb5e
bf0d8c25
bfbe5824
3fb6d699
3f6a8477
3f401c7d
bf1960ff
bf4018e7
bf818b63
becc8b3d
bfdf506f
3f7c3c44
3e884da7
3f4c0b85
bce9a589
3def91bb
bed479b1
bf951793
bf6a0a36
3ff71aa8
bec4902a
c007d953
3fcd1890
3f4df8a8
bfc25041
3f57530f
bf1b2db5
3ea61f20
3e8ceee1
3f968618
3dcbf9a1
3eeb57f7
3f85265f
3fad41fe
3f7e384c
3d1a3416
3e9a6564
3f7a27a6
bed88aa4
3d1afbd9
bf0792c1
3f8b7ef2
bf37e609
bf2b375e
bf339bcd
bf128ae9
bf2c0c6f
bf0b980c
3f895bcb
3b7edc55
bf164709
3f4cee9d
3f15c499
3dc55c98
3f9f0425
bb5d9587
bf2c06db
bf5b1205
3ced7a47
3e65ecc4
3fa85a28
be967f92
bef7b8f0
3bc097ab
3f8ef7f4
be021a76
3f2f7a87
3fd1b6db
be10849d
3fc67a7b
3fc7489d
bf9e0bd3
bedd9030
bf9e6110
bc22b6af
bde57f41
3f2cf8ba
be1b6094
bf675627
c014888a
3f3f2742
3fa23e61
3e2a9dbe
be851ce1
be6bcd40
3eee9ad1
bf2f44ba
3ed150e1
bff34a46
bf8a64db
be38a3f9
be3496e8
3dea7213
3f1a5b36
bd6504be
3f356355
c0112122
be702c5a
bdfd7233
3e529d92
bea83b55
3f8edc75
bf01f703
be2d27b5
beca9faf
3fb450cf
be19376d
3fb8c6e7
3f1461ed
3ea967ca
bfc6ebd0
bf24a107
bf9e8633
3e9059ad
beb7a42e
bf93d4b0
3f379deb
bf040a10
bf341e27
3fc06ce9
bead77a9
3edc5646
3f64b8a0
3f4f78ab
bf61708b
bf75f099
3e0858b4
be9f184d
bd7b911b
3fcb1930
bdc54bd8
bf314eeb
be78dfb8
3f741771
3ed61d06
3faecaa7
bfbab070
3fe95fb2
3eb92dcb
3e5c3c4c
3f10d264
3ffab0cd
bfeb99f0
3f9c342e
bfb152cd
bf0e0ff3
3f7777a6
3e8cd1a6
bf8a891f
3ea34a81
3eaf1c2e
b9f2f7de
bf9adeb4
3e697572
3db85b47
bf567d1e
bf857d24
bf657be7
3fa9b381
be8c4bd3
3f85aba8
bf45a69c
3f1472fc
bfa8e976
3e8d5eef
3c2f6384
bf3dc7c6
be101fe8
3efa9017
be9f4de8
bd25c28a
3dd1ed42
beb369b2
bebe8c9e
40001e32
befcaa4c
3fa3fd42
bf38f77b
bf826f01
bf11d780
3f1992dd
3cc33960
c0082d58
3f8ac552
3efd5079
3fcfe9da
bfa50160
3f5cd042
bed3a13c
4008dd32
3f0d3075
3f9b283f
3f47e554
3cb936a3
bf729835
3f81d1c0
3fb63df2
3da62f03
bf8fa1e8
bf0599b1
bebd9088
bfa01a21
bea2234c
3e0228f2
bf38bd4d
bfd20dc1
3f07c842
3e9b6fcb
bec08941
3f1ae8bf
3e9c4440
3dcbc0ce
bf986d12
3f0b4675
bfc21c6d
3f3c0cdd
bd998ad1
bf910ef4
3ce658bf
3fbd7017
3f366410
bf364a9d
3f4df357
3f2cd643
3cde1a4d
3fb486d0
3f1c1bc5
bedc15d0
bf0bce8d
bf66b4fb
bf518e7d
bea6faed
be99e5e6
bebfa172
bf003b17
bff3f750
bf8cfb0e
bf757ef3
3fed3c1d
3df72a98
3f6e6e75
3fec6d5f
3ea28db6
bede890c
bf17098f
3e04e3ec
befde5c6
3f8018a7
3fb278fd
be6d9b13
bf7ff1b0
3e3d3880
3fdc91b5
bf636214
3fb37671
bf7e3040
be7bbfcf
bf0980cb
3e11fefb
3f7540bf
be9c1c0f
bf4dc801
3f869d2a
3e6b73ac
bfcbb2b4
3e7e7c73
3d459061
3e56ee23
c0083000
3fb7a3fe
bf5d9a7a
bf00a42d
3fb20bd7
bef20959
3fdeee1b
3e8a613a
3e56e6f3
bfbbd3d0
bf7105d4
3ee9e325
3f65938e
bea0106a
3fa6ed20
3f3349a4
3d80a383
bf278a00
3f39de80
bf870c5c
bf847502
3f22b0b3
3eaaa6fb
bf1c3b1e
3ed62560
bf034f39
3ed3291a
3e78ae71
3d3b15de
bfa52072
bf1ecb94
bec07795
bf2acb65
3e8d5cf4
3fa45ebf
3f572151
401c155e
bc0353b0
3f694610
3eff7bc0
bf30b49c
3f4d0f12
bf5c2bcc
3f295593
3e4cfc2a
bf357a68
3fabb61e
bf10245f
3ec8f3dd
bee57b75
3fd51e33
bf855cc8
3ef583e4
bfa8d439
3e55c297
3f80f7ec
3f843497
3fa33610
bf018cfc
bfa9bae0
bf82263a
bfe8894d
bf27a54f
3f580781
3f744a9c
3dad45eb
bf7459e2
3eac103f
3dcf5bc6
3d8511e0
3f35c0c5
4011077a
3c1589b7
bf8882de
bedce075
bfa98963
3f0731e8
bef8f227
bed7cbcb
bfacda70
3f3488e2
3f3928dd
3dcfc574
bf97d8c3
3fa5d3c7
be9eb3c2
bf32e92f
3d9ac60d
bf8e8384
bea0e0ee
bf6d8015
3e5b061b
3f1d35ea
3f2e89f1
bf65ac04
3e3b8a62
bf50c6cc
bf14e26b
bf5c4464
bf954b72
bfbd647a
3f14620b
bebd2bde
bfdb1bd8
3f56a0f3
402623a6
3eaa1bfe
3dd44614
bf502fec
402c0714
3f801b16
3ee63690
3fb60c7b
3f20d89f
3e3285a0
bedbcbf9
3dfce346
bfb7d72f
3f06d25d
3fa9b48a
3fd607df
be91a686
40391dd2
3f72b598
3fd8a955
3ec78b6a
3f37c7d4
beaa7ce7
3f55fa22
bf3f077b
3f177d07
bf1e39fd
3fe5e431
3ed12540
3f43a74d
c00bbbe6
bfed9b97
3f5a0b5b
3efd00e3
bfb2bc12
bf57fccd
bf8404c0
bf6a16b7
3f05127e
be7d152a
bd892d56
3f9bd8c2
bdc6174b
400b8e76
3eb95b46
3f7176f8
3ea326c6
3bb0020b
bf74ab78
3f393c52
3ec77331
bf70eb89
3f960c56
bd7c1665
3fe1fbd3
bfc811dc
40157e1f
3f63d36f
be8a2aeb
bf2292ce
3e9ccff8
bea5a810
3ed71631
bff1d328
bfb166b5
3c9ac0f0
beacb7b1
3fa42e02
3f3ac2d7
3f8fd4b7
3f03b31f
bda2f235
3ff32d2c
be9fe04f
be0aeb48
bf1fa4c2
3fa5954e
bf286169
c007b249
3f96642b
be2bb9f8
3eba5171
beb7580d
3edd9ec1
bf6a5e88
3f2cd420
3f0c9571
3de513a0
3faef421
beb9832f
bf390d68
bf0d7e6a
bfd9ab75
bdd0ffc1
3e72ccc2
3f51cac8
bfa2473a
bf4d66c5
be65bbc0
bd8d2823
bf5e1512
3e5c181b
3e3978c9
3eb24188
3f941c53
be9fa03a
bfc64b75
3f11226c
bfbc09ec
bfa143dd
3f13e6e3
bdb86b5c
3ffb5c09
bfbfc3c3
bed99227
bf4fd49e
3fa2d0b4
bf2065ca
3fe17fe8
3f2ee586
bf151fc0
3f937f29
3dc1cea3
bfae1f04
bfa555f6
bf643f09
3fd502b7
bf96d394
bcae25f0
3f280f6b
bfaf625f
3f9bbba1
3fbc7a7f
be8b127e
3da81e10
3fe6cf2d
3f5747e9
bebb61f2
bf5a2106
be3be7f6
be7f2018
3edba3b1
3f51aa12
3f54ff21
bf808e61
3f25b56a
bf9e1842
bfa7fc57
3e9b652d
3fb83e87
3c0263cb
3f4b45d1
3f4c3135
3f9f221c
bf648cf4
3f31de4e
bfbb5981
3fdcc674
bf16ed6b
bf3b114e
3e81f424
be666370
3fa4a06e
3ffc41e7
3e1b107c
be99f671
3fe95595
be1c9eef
404f6016
bf8aa4a5
bd5fe1b6
bf94528d
3ee2cd59
3ef9606e
3efbbdf1
bf9b7f81
be0b29b2
bf1ca874
3f1d3a1c
3fe0090b
3f7cc812
3f4dc24b
bfdb6fe7
bf922f59
3fa9a42c
bf19cb3b
3fb36d58
bf1c7326
bfaf9d77
3f6d691a
bfc41a23
3e4a65be
3f528082
bfcc0ef2
3f0f7732
3f36bcf4
be3295bb
bf5e78c0
3f3d6733
c022f0f5
3efc44b3
3fe889c6
3dabe837
3fab124f
c017d481
bf33ed34
bfdf7279
bddeff6a
c01c99cd
bf8db3a0
be892d1d
bf0b3986
becb19bf
3edbaa56
bf0c98db
3fb2aa62
3fa721fb
3d747bdf
3dd82386
bf17e772
3f0bf8ab
bf98fbc6
3c627686
3f1f4908
bf3116bf
3e569e7a
3f5b2229
3ef6c77c
3eac2c8f
be9ab6c7
bf1aa2cb
3f1d08d0
3f2e26f0
3e0f3ec3
3f71ec95
3f938e4c
bf3e15ea
3f6a1a64
be41800c
3fdbb247
3e6cb9d6
c0177eb8
3eff6ee8
bf127b04
c029e08a
bd81b49c
bf771dea
bd6398fa
bf9c5538
3f964293
bec3a1e2
bd39db51
3cee804c
bebf2751
bd7ed9f9
3f09ec52
3e032c6a
3fb91826
be735768
3e336144
3fda6ab1
3c195eb9
bf8b6949
3ec385a6
3f44c886
bf13f80f
bea043cb
3f12782f
3f656b16
3d9eec80
bf0435a3
3f358d70
bea2f0af
3eb2d233
bfb41f6e
3da62277
bf350c0e
bdebc5f6
3fb0b5c5
3fac0690
3d05a5a8
bf0a8cb6
bed25803
bf3820d7
bca4fb28
bee77656
3e876804
3eca4359
bf09772e
bed8cd38
3e8eeead
3e8c3cca
3f6fbc4a
3f3ac7ca
3ef9241e
bf306d72
3e4a41c9
3fb4c1c4
3cbe4a4b
3e3ddb32
bf11c4aa
3f895338
bea50c02
bf8a7142
bf75bea7
3f45b8a1
bf1b9cff
c0414d75
beb64a4a
3f60ede0
3f76262d
bf5024dc
bff1ab89
3f907990
3ef900d6
c0016374
bfb37715
3f8c07a8
bf37c02f
3e1e5812
bf3385cc
bed9a7b1
3ed517f2
becd1b6d
bd8404c0
bf78baf2
3f01272d
3e763ae0
3ebe1825
bfe56665
3e4764a8
3ee34d17
3f843535
3ed679f2
3e977755
4042483a
beaed096
3fb22846
3fb9236a
3e68bb7a
3edf0d9e
bf073cf6
3f83a732
3d9e3e30
bfb982da
3ed9befc
3f021e21
bf48c058
bfb0fe99
bf1f2954
3f7f2e8d
bf817956
bf5ae56f
bf9556b9
bece97b7
3f0b3ff0
401cc1f1
3d0492d5
3f465ebc
bfc41969
bf589e60
be342682
3f8efae2
bf228e82
3eee2c18
bee817a9
be7fde9f
bf15addd
bfde8cd7
bf3ef083
bf893383
3e881a4e
3e946cf4
bfe6acca
bf3a9acc
3fc171e5
3fbe8fc6
3f0434a3
be5b6a7c
bebd3b5b
3fbb3e21
bf6658a7
bf908164
be8e61fe
bebf40fa
bdd2a8e7
bbd36571
3e4bcbe6
3df1d936
3f13b0d6
3f50b980
3f178451
3f800bb0
3f69b92e
bf888512
bfb254a0
bf25ee3e
3d426138
bf59ae05
bfae5f22
3f06b1e4
bf22e6a2
3e35122c
3fa618ea
bf821683
3fa1cbb4
bf82894e
3f7fde35
3f18cc69
3e5503b6
bfb220c4
3df7888b
bc933ceb
3fbae5d6
be182231
3ee350aa
3ebc42a7
bb50f9b7
3fcfcdbe
bf3621fd
3fcc72e8
3f812bd2
3fad80b1
bf189aa2
3f53f122
be261e0b
3f8a694e
3e5d5ccd
bf937e02
3e07787f
bf04e26c
c056875b
be73bd5f
bf00e120
3ea48d30
bf3068a7
3e2bec6f
3fc003b8
c014d53a
bf26a470
3cbc41d8
be11613c
bf45acab
3e9344ee
3f0eee03
3e17eb34
c00f2792
bf965099
bf900303
be7b94e4
3e5478ea
bc6fdfa5
3f688fc4
bf341d5c
3f26f815
400e81bc
3fdabed4
3fd15741
bf1847e5
3d924299
befc651f
3fa774f4
becd2afc
3d9969c4
3f2cdd6b
bed52ddf
bf9b67ba
3f5d6eb2
befb4e70
3f8cdb8c
3f02577e
4002b4ab
3e99a40e
3e32e5b6
be0361d9
3fddbecf
bf3904f1
bfa1d4a7
bd6f01ca
3df22705
3f42aa8e
3ff50ba9
bfd7b205
3e0cf662
bf963c1f
3ea02c92
bf95909b
3c601dcd
3f392054
bf901a97
bf328714
3e007c19
bf9b6073
3fb59b2e
bfc034a9
bfd3c7fb
3fc0d58d
bf21e33e
bf7c2271
3f993ac5
bf183fd8
be301b85
400f20c1
3da4ddcf
bea9de41
bf129d97
3f5f5622
3efdd951
3fd9dc4e
3e026690
3fa96a5f
bdd134f3
3efce509
3f52ac7a
3f28d86f
bf37a4f4
3f7778c5
bdce60a2
3d59b89b
3f5a9fed
bfac6ac2
3ebb81af
3fa92122
bf17b928
bfc8ad91
3e5dca3c
be948673
3e1738a3
bed205c0
bf1886c2
bea73d61
3faba1dd
3cdadfd7
3e578834
3f652f48
40007a75
bed85959
3e87049d
be1ba359
3febd0b1
bb825533
beab458f
3fbe7cc8
3f8fce76
3e72b033
3ff80e07
bc8074b5
3dcb423e
bf41c69d
3dfb71db
bf9f814a
bf2dc3ae
bf0d4db7
bf19bc30
bf852be0
be289d68
3fa2c281
3ec3fdfc
3e56e5e8
3f514fe9
bededc28
bf96e144
bf2d60b3
3eff5cfb
beeb8207
bf80a101
3e07eea6
bf447c58
be67db69
bfd30d4c
3f1473c1
3f9dace4
bfa478d8
3eb00635
bf947a53
bf2311aa
bf4c90ca
3c83fb2d
c0240020
bf11c92e
3f210721
402bcf6a
3f9920f4
bf1c2412
3f3959dc
3cd2ee10
be5e04d2
3e840597
bf039304
3f9b9fcc
bfafa5d5
bfc07697
3ee546dc
3d83b02d
3d01c664
3f4ef5d0
bf3c5dce
bf84e214
beb162bf
bf80309b
3f8ccf66
c0007024
3ee73702
bf7aeed5
bee74e04
bb1a7971
be7f7c35
bef4fa48
3f61e328
bf5e6dc1
bfa6c236
3f9f9aac
3eba67a3
bf4edfd6
3ea2c8d0
bebe0e7b
3d869a93
3f3c291b
be6404c0
4029453a
3f7ce5e4
3fa4fb6c
3ff95e87
3f0215ed
3e46729e
bf145df5
bf48983a
bf5d7d4b
3fd1cf37
3e2a8012
3dbbcf46
3e44fd30
bfc28d79
bf680c1e
bfdcfe08
bf4af6a5
3d029631
bf34f1e4
3d779799
3f94d197
bfced637
bea4adb6
3fd7b794
3b694fda
3e68191e
bedaf283
3f9b7e67
bf65c5bb
bf3277dc
3e4e7efb
3dfe912a
be90c887
c04ddc0d
3f436c25
3e1303cd
bf79ac13
bf4361d5
3f99d0ae
3facad99
3e139d69
3fad02b5
bf5f12a9
bf96ffa1
3f99c268
bf1667d7
bde4287d
3f817b5c
3e950a48
3e884832
3f8de91f
bded1a3f
3eef744a
be1278b4
c012a78a
bf901971
bf7af2b3
bff90c1c
bfc25d66
3f2d6b8a
403444c8
bf8ee855
3fbcc921
3eb7b8d7
bed01961
3ee22822
3f8c8b06
bfe16fad
bebe4de5
404e906e
3c755fbe
3f1b6d4d
bcea5761
3d3926fc
c002f63f
bece6397
3f784682
bf8e66b3
bff2df5e
bf843d03
bfdfb8c4
3e065500
3e560d34
bed7e174
3ec2a330
beea2431
3ffd6f1f
bf42ec26
3f5622b7
3f9d46d4
be6cb9a0
bf0ce5aa
3df6010c
bf5cdfe8
bf19f0f8
bf09a72a
3f080227
bf6a9fa2
bf945df5
bfac025a
beded759
bf0eec8c
3e51aaff
bec71af3
3f05201f
3f304cee
be758fa7
3feb2919
3f293904
bf904047
beb1d467
3d811b44
bf8d0648
3fafc6f5
beacb18c
bfd57962
bf2f3131
bfb3d6a5
3daff305
3f1f609c
3dd08176
3f1ea354
3e3be262
c00d2fb6
3f66c29b
bf09ed47
3e2cad34
3fbe04c7
bfc47c80
bdd74d23
4007f13c
3efd1507
bf3044d4
bf965515
bf915e6e
bfd03fc5
3f00d9f0
3f5f9e03
3ede13b5
bf000cc2
bf3d3d2d
be231695
be186948
c0127b9a
3f5cecd8
3e8b1ba8
bfb5b5d2
3ec9d444
3f4848ba
3df32e30
be94cf4a
be6231ca
bcf9959e
3f82c3d4
3f46f09b
3ebff989
3f916d2c
bf81ab5c
bf30f140
3e8ce3c4
3d8ba414
3f97415c
3f581189
3f0b79da
bff28627
bfaeb2d9
3f0ca63e
3eefbe12
3f5e0d11
bfaf9203
3ec2b035
bf801a4b
3f0e50ba
3f9a3036
bee88a88
c039a465
bf227dfa
3f5dca77
3d0b4d0f
bf362ac2
be836ae6
3d4a07ea
bf29514d
bf3cc6ac
3fdf3828
3fae0255
3e8b4238
3f3e05da
3f2a4020
bfb1ab59
bb954955
3f64726a
3cd562fd
bfc54a64
bf33a9a0
c02bc8de
3edcb2ee
bf85b45f
bf5d8974
bf06c608
3f1eb783
bf1901c7
3dc87103
3ec171f4
3f6f86fa
3f019e77
3eae6d4b
3f562311
3fc6b944
be34c70e
bf44d2f9
bfe5c6a7
bfb292b6
3f35fa12
3feedab9
bfc95f0e
3f9a267c
c023ac3e
bf82b30c
bfa64a3b
3ed318d5
3f811477
bf6de8b6
3f0a90de
3f235a4a
3f1ecaee
3efce909
bc89d60b
3e6b7a85
3ea218eb
bf60bd80
3e3146f2
3fcb0700
beee43ae
3e4dabce
3f5cf358
3f8f0097
3e923d1f
be264f61
bee0944f
3fdcbc55
3f2b4b0a
3eae146c
bfc6176e
bf006064
3e91352b
3f1f6e32
bfed148e
be8127e2
bf7df6f2
3f1bdb79
3f36a66f
3f9cf128
bf8284d0
3eb58084
3fb1dc09
3f6ec9e9
bfc0d3cc
be9b038b
3e85eb46
bfed715d
3f49ef7b
bf93645d
400d6ae9
3f62dc92
bf86ef62
3db308cf
bd43bb8f
3f6b34e3
bf629a6d
bf5cee26
beeb73ca
bfcf8428
bd522bb9
bf8dcc7f
bf615a10
3f32a8d2
3f93231f
3f500f1f
befc645b
bd9c11e3
3f3c8800
3fef712a
3ec5edba
beda9ce3
3e61dc1d
3fe61d48
3ff32bd9
3f73d253
bee9e4ca
3f5b0b0f
3de8faff
3fddc9dd
3e95b38a
bf166adc
3f10a2bd
bf0cf0bd
3f32e0e0
bf505c8e
be8eb675
bcd75c8d
bfcb303b
bf914623
3f37d967
3f4641dd
3f875a8c
3e7f3200
bf04ea8e
bfb817dc
bf87f050
bebd50a8
bdd825d8
3f7e7e1b
bf53c478
bf3205a3
3ec31c1e
bfebb32b
3d763b1a
bfb0ca2a
3f9e7a3a
3f545396
bf8090bb
3f7a24df
3dedf534
3f3eb7b3
bf46246e
bf281f91
3f81c481
3f6248aa
3f0801f3
3fa83c50
3edfdbe6
bee257ba
bfa59433
bef41bb9
bf0191db
bf990b7b
3f0ac6dd
bf370d9f
bd95b383
3fd5ff5f
ba94dc82
3f343c2c
bc15fec0
bd96ac5b
3ec8ef8f
3ed2d609
bf69f60c
3c050277
be763e95
bf575974
bf1704e4
bf8910d8
be860cb6
bf82b0b7
bed76fd0
bfc5daf2
3f560bde
3d864739
be079a15
3fd343d8
bf6ce3eb
bf76562b
3f28494b
3f99983f
3f93acc5
3df8f8c9
3fbdae86
be197990
bdf58ae5
3e94e381
3dd9cf15
3e287b3f
bf6a74b6
befd96d5
3f5a53a6
3d6a0890
3ec38db1
3f63eb30
3fa55c74
3f1d6252
c0197ac0
bfbf2c54
3f64cf64
40003746
bfdf116c
3e67e332
3e8126a6
400f80b1
bf37ee1f
3ecd873d
3e6c9eea
3f9cf5ba
bf53107a
3f1f5cfa
3ea0d129
3f364da9
bf893e81
3e0b9699
3f115bf6
3ef860cc
be97a080
3f1d7ec9
3eb4d331
bf022bc9
3ee91499
bf4670d0
3ee862b5
3f62cde9
3fe8e3b6
3d568e20
be360aea
3e84f481
c00cc75b
40102166
bf2c7e6c
3e81d050
be36c12c
3fb80d07
3e8d0e57
3f58c0b5
beb5f597
3f6540a3
be845b19
3f06d0ed
3ddca699
c01fdaed
3e6fdf52
bf0c25f3
3faad0e8
3f5fb9ea
3e28da2b
bfc5def5
bf40c870
bfdb6eed
c01d3e02
3da6986b
3f447a06
bf5f2567
3fc51621
3f8ba38c
bfd0e609
3f9a54a9
bf2870ae
4001db4e
3efd184e
3ff28943
3fa3ce19
3f09c870
3ea4efe5
3d72c993
3f0a81d9
3db41b77
3f17cf83
bec0d6e2
3ff5e2ef
bf9af629
bfb6a5bd
3d79861b
3f788aea
3e2dbf59
bfbb35c7
bc15a4d4
3f71954f
3fa02ca5
bf31858a
bfbdcace
bf68783a
3ee571c1
be7beca7
bfb6c879
3f44aa62
bf8ead6a
3f33016c
c02f7685
3f07f57c
be5bdb06
3f0c4ad1
3ecdcd29
3f82b8dd
be2845bc
bf753860
bf03cfdf
3fe0904f
3f3f2f75
3e05e87d
c032f443
be8c4331
bf0b1bea
3f52ee93
3f82c663
3e8c1835
bfe87dd2
bf9ac129
bf8d5272
bf349682
3eb8c415
bf5a064c
3e8473ee
bfb716df
3f9e7bbe
3d2802c5
3e26fa77
beb945d1
3f614560
3e7390a1
3eb72c3d
3dc5b2dd
bff0f56f
3f5535a7
3ff19b91
be0fcb14
3fbf0be7
3fb70777
bedea45b
3ec9cd97
3f29cfdd
3f7da879
3f41e9c5
3f04896e
3dcae07d
bf20de05
3e7e6ec0
3ddc9bb2
3fb41ff7
bf9e7d9a
3faa1ac5
bfafd9f3
3e30c194
bf96de2a
bec5326e
bf02197e
3f3566e0
bec7c6d4
3f8ddd87
bfa62b8b
3f2230f7
3f7d7538
bea3b1ce
bf5f893f
be7d5a46
3fbf6eac
3d828e97
bfd05ffa
3d0065ea
beccb38f
bed94003
3e99f136
bf4336a7
bf9b0804
bf983604
bf32147b
bf850712
be8d7891
400329d8
3ed4e843
bfdb9da6
3e9280d8
bf887528
bf2d304c
3f52bf98
bfb48ad2
3fd4e16f
3f22b52c
3f0ddb1e
beb84941
3f6ad86e
3fa58213
be6e9d65
bf274a42
4002f62f
3fe1ae58
bf502151
bff48001
3fd182d2
be7e20e2
3f6a95ef
bf86f8ac
3f01abe2
bfff0f9f
bee50bed
3fde3ad8
3eb33621
be829f4b
3f1c1710
bf83f8c6
3f5bee9a
be3384bb
bedc1aa9
3f4bc018
bf2f48a4
bf38c899
3f945fae
3e6b91f9
bf69778d
bf0b9dee
3d8f5bbd
bf30e3a3
beb839e3
3f2fea0b
be898c55
beee4c7a
be04f98b
bde0acc6
bea0c3e5
beba5de9
bebc5158
bf62f8c2
bed1cca3
be83ad55
3f4e599d
3fcd39f1
3f03a640
3ec3dbbc
bf0a6dfa
bd8f3132
bfabcece
3fa66314
bf9fd994
3faa76a1
bfbf85ab
3f2bb8f5
bf18bc64
bfb016a6
3f31924c
bf86ea3e
bf55a4ee
3edab83a
bf6972ef
bea0412b
3e0f469c
bdae967b
c027a46b
bf645529
3f84d3e8
bd7f04fe
bf4ad1ea
3d1eff9a
bfe9ffb0
3f13f97e
bef81cec
c0200aa6
bf1f46bf
3f6e4be4
3f81eef8
401188c7
bee32776
3ea320f8
4017f9b4
3fc3bfa7
bf6e6858
bfd43a96
3edcbbc2
3f52685c
3e638a03
bed62318
bf71c072
bfaf7763
3e66955a
3f17d8ec
3f593674
3dcbdf07
be9d46ad
bf4394b7
3fbfba74
3f7aee74
bd15eb58
bf3a7563
401ffced
bf4bb535
bf3c3eff
bf3903ef
bec5864d
bdfe49c9
bd2241e5
3f3ea2de
3eaad876
bff931a1
bfcc4d7a
bf7f7d15
3f81f99a
3f3d90b3
bff0d5e7
3efd5dee
3f24b390
be7274c1
3e6be4b2
bf0cb068
bf9f0cb7
bf1fad57
40001893
3f34ffe6
bf4f6a21
c010e4a3
bf155829
bcc6cf32
3f03f459
3f3f3761
3f1ab49c
bf1fdae2
3e408247
bdf84fb4
be9d052d
3f839b74
402e8bb0
3f38ec31
3f32101c
3f36dd3a
bf3590c6
3e584c31
3f81d58d
c043df77
3fc75b21
3dbdb50c
bf51a00b
bfd72d79
c027df3d
3e0ca378
3e8275ed
3d8df18a
bf42a7e1
3f23f04e
bd9906e2
be72c23a
bed7a6b0
bf0c75bf
3d5ab129
c039fd9b
bf2b123c
3b800ebf
bf10643e
bf6b9707
3e2b9480
3f7e358c
3f1944eb
bd83acd0
3e5aa531
3f0a974d
3e88e3ad
3f1aa852
bfbb1942
bee5e409
3fe4ea04
bf16f14c
bdaff177
3f9a6563
3ddbed0c
bd68ed07
be9153d7
3f7f7883
bd9dc4f6
c0005525
bfaab6b4
bebb77ca
3f8c6aae
3fa36edc
3d122299
bf6bc93a
3ce7e605
bfe3427c
bf58c938
3ed07d69
3ef3c8cc
3bf8be2d
3df68483
bf39af47
3e9c40fa
bd13a741
3f0ab453
bd87f8e5
be1b18e8
3f04a60e
3f350083
3f078907
bec3b413
3fe631d9
3e92e6de
3e489a22
3f1ef08d
bf49ced8
3fd73007
3f30f166
3f778b38
3e31f3da
3e8fd5d7
bf0be817
bd3f3119
3ca68403
3fa61fa6
bf197cf0
3f4d82b1
3fdd52f7
3fc6de26
bf932169
3ffdf928
3eb92283
3f19f318
3e9bfdad
3f875b95
3f4fa438
bf494f89
becc3a5e
bec9acf5
3f9aac33
be2c92b2
bf1b5a4b
3ecb707e
beff4e59
3fa1ded8
be47284e
3fa67e36
3e7cdc63
3f9b2dcd
3f6434e8
3f6de40f
3e33e773
bfe6f722
be56c7cf
3fcb1b06
3f20cd16
bfe95d10
3f6b72a2
bedfe8bd
bf819b9d
3f861077
3f960dbc
bf7a5b30
3f12394b
3f5393ad
bdf5ca88
bf00f423
be86be5c
bf72bfe9
bf24ad76
3e74949f
3fbc11cc
c012e3c3
bf794832
bbe199c6
bf804de6
bfaebfd7
bf6a48db
be0b8521
3f8196ae
c024ef51
bb1df172
3f94fd88
bed5b987
be4ceb9b
bf20a96d
3f195147
3e9f5a7a
bf4508b2
bf901be4
3e191edb
bf3b160b
bfb85cd9
bdd70fc0
bf340f8c
3ba9844f
bf201892
bf345947
3f43628e
3e3004bf
bde9348a
3ee36896
befa53b9
c00ad4fa
be1ba62f
3f94253b
bfd18dfd
be752c4d
bf5c8ea3
be6a9b56
c0039acc
3e19b15f
3e0434b8
3e9eaa16
bf62119c
bf0618a6
3f577fa1
3ef67262
3ee26641
bf13dd24
4005c069
3febc00b
c01543cd
bfe4df29
3fae0b46
bfa721fb
bf806072
bf83d055
bf1327f5
3fbfe495
bdd42cdf
3e906fd4
bf56321e
bee70001
bfe93d42
3f410640
3f94feb0
3e527a9e
bf243885
3f9bc7b2
3f036805
bfe6e66f
bfd55702
3f87074e
3f3160c8
3ca1d8d1
3fa67fef
3f44f876
3e203247
3eb6fa1f
be97a209
be8d04f2
3f383b21
3fc5e9fe
bee8c761
3ded8c54
3f61d0b1
3e1c4018
bdea3e2e
3fceae58
bee06b72
3e26fb95
3f285bc2
3f8d82fb
3ddbfaad
bf8e458c
3e6a45eb
3ff0246c
3f9d9041
bf81e5a1
3f0891e1
3f4b683d
3e185853
3f900045
3fb9a929
bf58e9d4
3d78d2ef
3da76b02
3dec417c
bf9a6e34
bf48be66
3e18dad8
3fe5ed7c
3fcda5c4
be716323
3f14eea5
bd75ca48
bdc463e9
bfe9283d
3df8ff47
3e9e8806
bfbfc012
be8da500
3f953a96
bd201814
3f2eaaf6
bf7d4ce0
be9bae86
bfef16c0
bfebde24
bfc840f6
3cf9fd82
bf192f79
3fec6a7e
be4b70fe
3e287ad1
bf7c86a0
bee7f926
3f8f4ce1
bdc2f074
3dfe56b4
3f88792d
bfcc5d62
bef1dff3
3fc574d0
c009ed84
bf19830a
bcd5ae32
3f15ec9c
bf2a4ea4
bd7a198b
beb3a444
bf4e52b3
bddd1067
bc771f03
3d9088d4
3f7e210f
bfeac645
3f5b2db1
bf8eb027
bf5e61fc
3ec97153
bf7bdf24
3f95aeb8
bf9532d3
3fd559fb
3e8511a8
bdaada0f
be9c0c8b
3e2587e6
bf4ff64b
bee7efc8
bf8576ea
3efbd57b
3fb696f1
3f02fc52
bf8f734d
3e871be0
bf1fde29
bea2423d
3fa64686
3f235706
3f6bf566
3e459e22
bfa280e9
3f8ad0ea
c0502f75
3f092340
bdc65aa0
be611356
bff8b2a0
bfbc9272
3f6adb3a
3ee7ec52
be8fe2a4
bf3efbc0
bdebecb5
3ed98ca7
bea79db9
bfcc845e
3ed6fbd7
bfe448fc
3e899d43
bd7149c2
be9cba4f
c0217866
3b38edc3
bf8cd18d
3f6e773a
bf699c6c
3f8e9132
3feadd14
3fa9a797
3fc47a02
3f61317a
bfa026b7
3f188495
bf250fb4
3f85c043
bf987c4a
beec98ad
3fc28e98
3f21d1a2
bf17235e
be452cf5
bd966ab6
be74ba06
3f0e830f
4001b0cb
bc9ccdb7
3e2fda8f
3f518171
3fc64b0d
bff007ed
3eefe046
bfac235d
3f947755
3fbfe300
3f5e4e8b
3f61d156
bf85bf67
bea67c67
3dbdf451
c014e08a
3fdc31d2
be4f73c1
3f067ea6
3d54150a
bf273549
3d864a11
3f67a267
3e9665a0
3e75291b
bf07003c
3f893c31
3eefdfb0
bff40799
3e5792fc
bed9efaa
3f53852b
bfd7b3f0
be0460c4
3eb04ecb
3f9117c7
3ee7803a
bee7ee55
3f4cbac5
bf3835c1
be508474
c02edd30
3eccc681
3fa78177
bf08b2d5
bf9baa13
be1305d5
bf45c757
be5e129b
bf8bedad
3faee7e3
bf8091d4
3e835d51
3f596c3d
bf978b74
bf9217aa
3f44e37f
3d6046ec
3fe0a79c
bfa91dc0
bf3760df
c00efa06
3f60cbb9
c0109ee4
3f11e65f
4008ac71
c044439a
be14f8a5
bf189488
bdec90b9
3f9e6e0b
bf9e3ba6
3f81af03
3e817d5f
3e23dceb
bf9fd9d6
bf0c0682
4004a71a
3e76e178
be8c9a1b
402271b8
bf0dde03
bf00cbea
3e907488
bf8c2202
3e4b145e
bf7fb84b
be08a2e9
3e834b80
3f734900
3f24149a
be6aecb1
3e8f5ffb
3eac4cba
3f0ba395
bfcf1660
3f93f73e
3f0bd8ea
3ff20dad
3f610942
3e43f08a
3d3ca6d7
bebb2c44
bf42c9cd
bf12f65a
3b9073b2
bf25229a
bf1944dd
be55267c
bee42873
3d55d9a3
3f95153b
bf131718
3e258714
bf3f89e1
3f8a3eca
bdb62270
becf3400
bf1b5338
3f97012f
3f04707d
bcc195c7
bd6225b7
3fcf0165
3f03686d
bf2dc4c1
bf270f38
bf2550e2
bd5cdc86
c001040d
bdf2867e
3fd5ce54
3edfb8bd
bf2ce994
3f53fe81
bf2b45ff
3f264dc4
3f1aca76
beda7b81
3f9e0b02
3f966916
bea10140
bf435f48
bed614ff
3f5a25da
3e8ecf5f
bfc7b732
4002916f
3e974552
bec19a7c
bfb04a9a
3f91a998
3e3ef3dd
3f531421
3ebc906c
3edac107
be9e4f38
bebaccea
bef1a317
3f6db254
be544fd6
3e21cff8
3e4e1081
3fefbcd1
bd8771c9
3e9cf34c
be734bdc
bf1dfccf
3f10c1ad
be2b354f
3f98cacf
be429dbf
bf5f347a
bfb9ec04
400fc90e
3f83af45
3f50e7cc
bf291739
3e95c101
be9a27d9
c011afc8
400c0b43
3f353ec0
bebbb48d
3f1dfbe1
bf67d2b5
bfdc24d9
c01bca51
bfea5db4
3ed92866
3f422b93
be6aecf8
bfc88582
bdc81b56
3e0e41ce
3e6480ea
bd5da603
3f0342cf
3f07503e
3fadbfa6
bfb5f194
3f044dd9
3f5ca096
bf7c110b
bf17310b
3f64f903
bfbf4c76
3f411295
3f9e3b8e
3f665ed2
3daf14d9
bf64094e
be98c716
bf405fc9
bf614a35
3f56d786
bfa98f9c
bf516039
3fa399ff
befa8311
bfaab24a
bd87747e
3e876043
3e9ed2dc
befec6f2
bf2b9f0c
3e3b06bb
bfd4731f
bfa83da4
bf9fd510
3ec537b6
bf745208
bfbac8b0
be29cf72
beb4de1d
bf99af08
3e8cba75
be853485
bf33b224
bea4019d
3d5573bb
bf2cd16b
bf920d30
bf58afe3
be312584
bfd97949
3f0288c4
bf986009
3df8086b
3f84891a
3f377cc3
be0b6a9a
bfd96d5b
3f848641
bf9bb2c7
bf6089e1
3fa141d4
bf2d38e8
3f01f84c
3f48d1c2
3c1a6c5b
400a1226
bf01c780
3d9341bc
3fa17100
3f023bbc
be88d3f5
bdcd9091
3f9c6f13
bed57199
bf8d5248
beb2a7a1
3f92d533
3d32cae6
bf8b2c02
bf1c7721
bf854a4e
3f95838c
3ff7bdf8
3f1a6ce0
bfa5477c
400f8b9c
3f3d2874
3f426ea5
3f9777b4
bee69a3c
3e864fac
3fd40fba
3f581761
3fca27dd
bdf3ea83
bfc0062d
3f202cd8
3ef95c80
be1501db
bfaa2bb9
3fd59ef9
3fd80039
401c519c
3e741cb5
3f3ca8b7
bf7a416f
3f02c4d8
c046eff4
be55d8ac
3def787b
3f1477b3
bee7e96a
bff44245
beea5c86
be3f55c8
be7b571c
3ef587df
be6aa0b7
bed35416
3d9ee47f
3f6f7f71
3eac1ed6
bf3684af
be269668
3fb8d48f
3e90f2d6
3f2a8f82
bf0c78ad
bf19870b
3fa2bb20
bfdbfe00
3f8f2d79
3f4f38f1
3ef48de3
bd89c71f
bfeb5551
bf8b0604
bf68965f
3f06e13a
be608345
bf0402af
3f4d098a
be36fc7f
3f3ae82c
bee4885f
3fe97e90
c025f30a
bfbcab8c
3db46fec
3f7a902f
3f75ce42
3e0b4854
3ec2f2f1
3f0af913
3f25cfa2
bf5c4f5b
bf33f52b
3f4a00f2
bfad89ad
bfe12df1
3e914aa1
bdd79cd5
be9bfebd
bea0b89a
be31e531
bfa7c0be
be48c9e2
3f430b56
3f1504f3
3f7e68d6
3f2eb17c
bf1ae809
3e43c05d
bf799bad
3f0e27de
bf87b733
be921259
bd9b8157
3d37a40d
3efa2032
bfb24195
c01b2ba8
bf983817
3e169cac
bef60982
c00e6097
3ec8f09c
bec621a1
3fbca915
3fb80d9f
bf04d77a
3e9ae749
3ed18922
3f0b22d4
bf64e33e
bc969743
bf800380
3eae9d10
3efb9d2e
c00dd970
3c4a52a6
c01d3472
3fe7e0ca
c00ceb6b
bf506782
bf435daa
3f8e60b7
bf5e999d
bfc31ee2
bf9ee6fa
4000ff17
3f4bfd56
be445ea0
be1725ba
be0637c5
bdd3a284
bfc62f6e
3f8811b7
bda295cb
3fc103c7
c07a0d1c
bf81ebe2
3fda1e74
3f056869
c01ffe40
bec5494c
bf467356
3eccfa23
bf97ac11
3e00b7c5
bf9893b8
3f08560f
3fe70dbf
3ef7cced
3f194d47
bee7cd56
bfa3f377
3fcb79de
bf7a72ad
bfaf3a7e
3f90f510
3efa3a77
c00be142
3f9efefb
bdfc45c7
bf17832c
3f7ae6b3
3f3596ed
3e841a5b
3f4ce19e
bfd23689
3f13757f
3f0cecba
bd62e7e3
3ea15eea
beaa0880
bf982643
3f55a37b
3f20c781
3ebc8c82
3f48207f
bfc76316
bed505a3
3fa29a54
3d1b9a45
bf811379
3e99a5bd
bf824453
bffe7509
bee69556
3f71541b
beade207
3f2cc37c
3f21685a
bf50d45a
be3a8d22
4013648f
bf00d766
bf69741f
bf3ce373
be895ece
bd888fc9
be036c2d
3ed5dc07
bef0dcea
3f3f59d1
3f3bd18b
3f40532e
3f2a92f9
3f763951
be93abb4
bfa5242b
befccb43
3fc0e4eb
3e5b5423
3fe3b73b
3fcc4048
bfdaa30a
bf6e62e6
bf3085f7
3f9c3a30
3e43a1ec
3e92ddd7
bf8ae916
be93acb4
bffdbadd
bfdb1f13
3fd2a962
3ef500f1
3f461e2e
3fd9c643
bf3d8990
beee5bba
bedb5495
3e728349
bf534347
bea4666d
be2eff0f
c01c390c
3eeb550d
3ebac8ad
3dd1744a
c016e227
bf570a70
3ee06433
3f5baa11
bf4564c7
3f13e39f
3eee9292
3fba7512
3eed1b95
3ede38e7
becc6e53
3fc46738
becc0902
3fde6cc2
3eca4f0e
bf3e9a94
be868da9
3c18dd40
beb088ca
be45d291
3f2c6f57
bff03e39
bef74d06
3fd3c3f5
3f384c44
bf8592ea
bf50a069
3e143ff5
bf279f2a
bf44d34c
3ed5082c
3fc00f03
3f987d60
3f28f426
be0c60c3
bf61697f
3f5e5b52
bf51a2f1
3e2a80ba
3f689e86
bee35c61
bf701fab
bf9bb532
3f665738
3ffb5564
3fca65fe
bdc7e836
3f56745a
3f8b0fba
3f98efb7
bffb890a
3f011d6d
3f06bd5c
bf741101
bfab7f06
bd269517
3fb34380
3e309e7d
3fac4b22
3dabff19
3e5bca20
bd9b21cb
3f3994f2
bd5d1e93
3f6aef03
bed2f8db
3fa916d9
3f198d03
be0379fa
3f401ac0
3f9f2c8a
beb8cae4
3d847082
bede866e
bf2004d6
4014499e
bf7cf3fc
3f4cd36f
3ecb4eb9
bf569a34
4004fcec
bf238271
3f4df0c5
3eb0088a
bf817d35
3f148815
be5da960
3ec17e06
bee7285b
3e0046cd
3f59aa6b
3f5642f6
be828d78
bf845962
beaac54c
3f550663
3f2fd68d
bf707cec
bf783c74
3ddd9974
40091314
bf39bd98
bdab518d
3ee85917
bf82ebe6
3f1fee7f
bebd5afb
3dc3bb98
be81451c
3fd52b98
3fe25cb2
3e63afed
bf1313a7
bed66832
3cafe403
bf93b6ce
3e72e6e9
3f086ce8
3f91dc25
402dfa4d
bf0dc4ee
bef30389
bef150a0
3f1d64ba
3fba1c81
be8bb2e6
bcbf39e4
3f75001c
3e13a503
bfd121d7
bdcc2840
3e517e9e
bfacd433
be4d66a3
bd7a5411
3eb79a65
3f9da9fe
be93dad5
3fb9d53a
be8a55f7
bf3f7714
3e876cf2
bf8fe07d
bfac3c82
3f1bb494
bf4cea5d
bf1327f7
3d53c29f
beb2c2ff
be92c479
bf73fe36
bf874920
bf69d77a
3f2fb447
3ddcc43a
bff27c93
c0328320
bcaade65
3fb0667b
3fb3ccb2
3eb3328a
3f8057e4
bf776a29
3dba71e4
bd5d632f
be72a6a0
bf7720b0
bb952638
bf770b54
3e7f4db2
bf7fafc0
3eeff9c1
bfb39a5e
3eb25740
c015bf33
c0073a4e
3f677b47
bfc6cd2a
3f28c94c
bffa327e
3b0a1a4b
3f95ca3b
3f075fd6
bf457d64
3ffae83a
3fa557a2
bf3c97f8
bf64b652
bf20c418
bf23b35e
3e7bfb29
bfd4bfae
bf49b59d
be8b1820
bfcf3917
bf993adb
bf3337c0
3fdef43c
3f28e00e
3fd49c4f
3ee41a57
be52c7e1
bfb3f2ad
bec62ed2
3ed7b0c4
bdbe4abc
3e7e1f95
bd90a25b
3f2ebd29
bea44710
3ebe3409
40090f87
3e00e666
3f21d109
3eedbe86
bf82a2aa
3fe570b3
3f0536bb
bf30b4f8
3fc63710
3f19c892
3f05eb4b
be4595bc
3f24dbac
bcd12cdb
3e973bb2
bff5257e
bf5765f1
bf302745
3e58c7dd
bd772a88
bf9cdd25
3ea4e7e6
3f997c70
be995052
bfa474b0
3bfaf7c2
bf8fe649
3db1e214
3f834d6c
be37a9c6
bf0b0fbd
3f297b29
bf12e580
3ebb31e7
bed516ba
bfb16344
3d9a4312
bf9c1875
3d93434e
bfbd547f
3f626e0c
3edd6b1c
bf8abf55
bf3a8835
bea009e1
bf1667b3
beb514b4
3fd04937
3f99ea67
be0b56e9
c002854b
c03b69b2
be295740
3f8f07d5
3f176b10
bf3925ff
bf82808f
be674f82
be2765ed
3f681714
3f142d16
3f39ebec
bdc32624
3cabb7ff
3f347f34
bf517643
bf6a6382
bfa274e9
3fe48243
be0a209a
c05730be
ba8af298
3fbf3a5a
3f7cbddf
bd137499
3f60318a
be3c5cce
bed4477d
3f6ccab7
3e849dd8
bf236235
be990743
3fb9efbc
4005a72c
3f51f1fb
3f851e0b
3f25c71f
bf2b219f
3f1ca030
3fc1ec4b
3f67fb81
3ebb4304
bea568cf
3ea4f027
bcc2c09e
bda28b1c
bf69bdf6
bfd5ac28
bf79bf4b
be07c1a1
3fda2be5
3f17fe5d
bfaff9de
be2a4016
3f009c12
3f7bdebd
bf633c0a
3f955ae7
3f4e5aa0
be710f37
bf2d732e
beac0071
3f975ae4
bee558ff
bee883e1
3ee2c225
bf993f6f
3f79af46
bf637f2e
be381946
bf75d8eb
bdd80971
3dd211d1
400f2317
bf13f2c4
3e969597
bfe4b1f6
3f4297d5
3e8602d7
3f2d3401
3f8211c3
bf1b9a39
bf1e375c
bf3b3697
bf3ac630
bfbef3d0
be28f284
bf444c0a
3effb906
3f9c8a07
bf1d6cc7
3f0f406c
3ce29860
bf2bd7f4
3f795e75
3e8f093f
c0011eb7
3dfea0ba
3ea1afe4
3f1aa04c
3fbaada9
3f096e56
be85cd4e
3fa04e87
3e65f894
3fa3dea9
be9132bc
3fa57314
c002fe64
bdca6045
bfadc53d
bf4c24eb
c000f824
3f8680f8
bf266871
3df7b114
be5708fc
3f853f3f
bfb9fd65
3e479919
be8c56dc
3e882e6c
3fa91399
3e9e4824
bd145459
bf9fa1b6
bf7cc316
3f346f75
bed42bb5
bf6c827e
3eeef481
bf48adb0
bf8c13bb
be85432f
bf887792
3e1b3744
3f4f7603
3eaf27d1
be89a02e
3f08b664
be1927b1
bf5368c8
3f6b7116
3fc2a166
3f8e677b
bd5596e5
bf4a84f1
3f18bc18
3ef5c88e
bf13e481
3faa7b94
bf839d65
bfc3471f
bfa7eb9f
bfe6b0d7
bf8c043e
bf1c946b
bfa16816
3f91e368
3ff9fb34
bee2b46e
bf746c88
be60b08a
bfc5db6e
bf9034ec
3faeaa43
3f0916ad
bfa353da
c01c4aa0
bf444505
bfd214c6
c02168f4
bf141ed1
bf238e83
3d2e3004
3f876554
be297d5d
be089a65
be83f0cc
3f5785a5
3fd8f624
bf00e969
3c8f6332
3edebb44
bf0f4aa1
bc6a7489
c00e887d
bfde096a
3f39badd
3f50de27
3c360bd2
3f274826
3e7a0f3b
3fa5b8c0
bf0bbe70
bfd0863a
3e4d86c9
3f19e1de
3f5be9cb
be51f9f9
bea3684d
3f6b1010
3eac8471
be9326fe
3fae9d72
bf1e2529
bf90f07e
3f9017ab
bf02cd5a
3fa38b92
be182077
3f484a5d
3f6b2b19
3f5bd5c5
bf3a40b4
3c1fd7a2
3f19c5ce
bfcc1eac
bea07a8a
3d480fbe
3f19d274
bef16d0e
3e095a0f
bf48a64a
3e847bea
3ee71cca
3fc30f2b
3f20094c
bfe843af
3e8220db
3f478cda
400ebd21
3f0c85b1
3f8fda61
3e5a0b0f
4007f56a
3d15b433
3df98c05
3f311b49
be98909c
3fa56024
3f84b6e7
bfa9b09d
bf5134b4
3d3303c2
3f51a479
bf7ca4a6
3dda6383
be2dc1d1
bef443e4
3f5e5c90
3ee4ba05
bfe87b68
bf46349a
bd54c5d3
bf6ea5e0
3f0f68ab
3fdc9687
3f041f1b
bf32421a
be034f81
bf50fecd
3f1c8584
bf91ed7e
3d8e5b47
bf6168e3
bec14abc
bf2b9f1d
3edc40ec
bfa736c3
be756ec6
bd660698
bf43e6d8
bfc2b785
3f306aa4
be6b39d5
c04c7882
3f1e672f
3ed229c6
bf938dd9
bfe64c32
c00007fb
3f819184
bd9a9e40
bd18fefa
3f1caf49
3f19df50
bffbc7fc
bf5bdc49
3f0b85b1
bf118de0
3e1d1aeb
beaf30be
bfa295ff
bf1305a8
3f3d5c26
bf33d469
3f7892b3
bfcfd98f
bfaf5952
bf917748
3e8d7dea
bf5596cd
3f7f3ed5
3ee8c22a
3fb82305
3cc14e9d
3e021985
3d86faa1
3f838cfd
bfe832a4
bf82240c
3f0de360
3b31d21d
bf153c6f
3e3c96a1
bf31b821
bf44a97d
3efd2e69
3d68ac8a
bf565fdd
bf807613
bf9bbfe1
3e87f500
3e8da2ac
bf9fe19d
bd52fb40
bf980df2
3ea420d8
3f0f4482
3d479747
40077fc7
3db00a9e
bed0e0cd
bf3cc2b7
3f48f5dd
bba1e457
3fd9fbbe
3fac9af4
be1371d1
3f1b5f18
bf80e977
bf0c93f7
bf7ab907
bc612709
bf831ca7
bf331244
4003a95a
bf165bd2
3fd95b23
bf290bee
3f725c8c
be8f892a
bf5a09f4
bea30327
3eb13e8c
bdfeb98e
3f3ea1e5
bef4a8d0
bfef53ed
3ff0ee63
3fa2d15b
bfc8afff
bf7f9434
bf1ffea5
3e3e8050
3feabddf
bf2ddc25
beb799bc
3c1a6db3
beca0e02
bfa237a6
bf30ba1b
3f6ad112
bf2d538f
bd569d00
3fd4ebf2
c012163c
3f906892
3f19d3d8
3d0046be
bf13430a
bf499118
bfdbfc74
3d047b3a
c00d11dd
3eb2d5a6
3f0c1435
be8c830b
3fe7e10d
bf780292
3e7cea2d
bfad3e4c
3e5f35a7
3ef3f4ba
3f0ac7ed
4015aecc
3f121682
bf4d122c
3a0261d4
3e07ca7e
3f954da8
bf98c1d6
3f1df534
bd4f1da3
3f2c26a1
be86cfc2
3e9c8388
40157e58
bf91c5ce
bf54e9f9
be950ade
beaa8a34
3e86b2b8
bf461eba
bfb1b055
bfb6026a
3ffd2028
becccc78
bf694311
bef729c5
bf371d82
3f4cbdb1
bf3c940d
bee3fc9d
be9349db
3ed516dc
bd67e696
bd25fee0
3e6e0fbe
3f089889
be84c7c7
bee7a9c1
be82e52f
bfb83e6b
4010d05c
bf652c2e
bfa9a25f
3f0821cc
be475094
3e3875df
3eea9e50
bf461734
bf1e3465
bd87492c
3f849d96
beeaaf06
be97dbb3
be95fa32
bfae8770
be8db8f7
beeaf0b9
c01f103f
3f06281e
3fc7b3ee
bf8d310c
3e92d875
bf5c8e74
bebd674f
3feb4c4e
bf0da883
beda2a62
3eedc3ca
3f6f7c1c
bf2bbe18
3ff59782
3f3c8424
bfdac59f
3fac5e3e
3d0d7a69
3eb9e872
bfac4843
c0280bdb
3fccb375
bfac06f9
3e8247aa
bfa31f35
3e2213bb
3e05bf81
3fd3d204
be6e45e9
bf9edd9e
bd66e318
3ec1e9e7
3e3e3e55
bf5db08a
beeaf268
bf9ecf0e
3e621706
bed47571
3f355e40
be64474a
3f15f85b
3f33149a
3f538763
bf259dfe
bfc00c7e
3e161b0a
bf47feb0
be72864d
3f34116e
3f1da54f
be640558
3de1a24a
3f87c10a
3ef42e57
bf84ab63
beb68abb
3f6a86c8
3f065d80
3f06104f
bf1ea365
bfa0a598
bf9ca945
bf84dbc4
3f8be5ff
3d8070c2
3ed03432
be456093
3f524442
be95883f
c0133fff
3f674bde
bebb25e9
bf7677aa
bf7a84b0
3e1e1d83
3fe087f8
3d434920
3d1d1938
3e5c9608
3d3ba8d5
3ee06527
bf4e8c1c
3d2133a4
3efadaca
3f6420aa
bfbf755e
bf18b61c
bf471cf4
3f903e4a
3fb46efd
3decbc78
be97d244
3ef34498
bf2c7487
bebb39d2
3f5d3dc5
3fb9574d
bfaac913
3ef2ca9e
3f0cf180
3f17ecd1
be82efc4
3f83e919
bfe267e3
3f8d4482
bf69f320
3d1e1944
be259254
befefc21
be9d5c44
3ee0b67d
c02d56e1
be041a7d
3e01f7f2
3f3f4558
bfd3f20f
3c0d325f
bf8ade5c
3f020366
3f9b6c52
be0467e9
bfc84bd2
3e5e65ff
bf083e6e
bf9e9633
3e9bce06
bd7c046d
bf59b896
400b9511
3f36f68f
be602223
3ef3ff34
bfb87d54
bf059a9f
3f88c41c
bfe26f33
bf47a38d
3e8116d8
3d5a9b33
3eb64d9e
bf837638
bdc2b016
3c5b1935
3df85346
c02f97fa
3f6fb123
bdd76d9e
be8fe491
bfa88c60
bfbe5e2d
3d578d99
bf0e72a2
bfa493c5
3f47ba2f
bfb51d82
3c9c384f
3f351a87
bfb0953f
3f1e7f61
be2bbf86
3faff09d
3d1a194a
3febb2e9
3ab41f49
bf3e3f0a
3f4ccb78
bdfca1e6
3e7685d3
3f2c50ad
3e8b4ec4
3fd4641d
3e57da49
3fa149d6
3f155a6d
3f971333
3f8bcad3
bf356070
bf091c2c
bebb70db
bf9f47df
bfc94301
3e848478
3fa10406
3fd0b45d
be52e862
3e3387e6
bd9a98f4
bf895367
3f8ee4e0
bffe3d90
3f6f153b
3eae2fbf
3fce3155
3e0303e8
bf3303e7
c001aef5
be93670d
bfaa4366
be779bec
bf5b5037
bf18bc4d
be4c01ba
3e91b28e
be66e4e3
3f930746
beb823a2
3ea6e176
bf9f8cb1
bd20bb43
3f88436d
3f4359f8
3f7ac7e9
c02e8186
bf3f2156
3f0f86ff
bf3da9d6
3f2c946c
3ed736dd
3d7d7983
3f912af5
bf5d67be
3f4e67bc
befd736e
bf5614b8
be2037f0
be1726e9
bd830df0
3eb3debc
bd877355
3eb3cf6a
bfa74be1
3e9a07eb
bfcf3437
be35cee7
3fb40e8b
bddedfc3
3f174b6b
bf2418ac
bfcb12f5
3fd03912
bf2495b0
be41aad4
bf9ff028
bee42ca2
3fb9f2ce
bfbcc05f
3fa15580
bf60a829
3edb98c6
3fa18157
bfc0cd27
be6bef78
bfe38708
3f71440f
3fb3ab46
be99f49d
bbcaf856
3fbb659d
bfecd354
3d99ad4a
401c28c4
c022307a
3f59c142
3fd620b5
3face3b0
3e362d8c
3f3660cb
bfff0d8b
3f629160
3f125be7
401b9d32
be76727c
3f6e4743
3e259dd0
3d2e6f4d
3ecdce1c
3fff55b9
bc189eb4
bd8016cc
3ec311d4
be273d61
3f0c765e
bf7eb2cf
3cd9b05c
3cbafd1e
3f9ee58d
40124273
bee4a231
3ed6cafd
bf2a9092
bf917c75
be26ef6f
3f47f415
bf992660
bcc1c51d
bfee9063
3f8c6fb3
3f397d6f
bf2b23d1
3ea9f4b7
bec1d9a3
bf0fc55d
bf809bcc
3eb0c274
3dbd4c47
bfa82492
bf032024
bf502e92
3dfef60a
3f0e6d53
bf54a539
3f230b18
3ecdff45
bf73cdf0
3f61cfc4
3f56cd4b
3fed71f9
3d9bc6d0
bf8441fe
bf1d0804
3f3368dc
3f6954f1
3f61f7d1
bef250ce
bf4af78d
bf998e7c
be8c0861
3f2b042b
3e84a4d5
be7111b8
3e95547e
bf24a7c8
3f1cfa2d
3ff20463
3ee86f18
be580a55
bf54fb17
3ee98d19
bf8f6e08
3f59536c
bfe7b869
bf940626
bec66040
3f79c648
3d8d5d33
3fca0fc0
bfdca454
c00f8fc3
bf9cb932
bf0882e7
3f3e7499
3f06e151
3fc8f5e5
beb45943
bf6dfe45
bfb91186
3ec331ec
3f5f5e3a
bd9bebe7
bf89ad2f
4034d0fb
bd7d3773
3f85ec81
be908686
bea1c807
be6467ea
bfa0c43e
4055eaef
3fe6c09e
3edd087f
bdccc2c1
3ff0732c
bf2cab84
bf5fa2fe
3f94868d
3da0a915
bf9179cc
bf2fc045
3c65100d
3f634922
3de28bab
be9f5e97
3f25f20c
bea25f3f
3f89874c
bf513f30
bf75f324
beb3c6bc
3e887070
be1bc9c6
3f407d47
bf3ecad4
bf52b8f2
bf5b4437
be3b66fa
3f1a6756
bfced49c
bf7259d4
bed7dd25
bf8f56c9
bfa6e61d
beabf357
3f9ddba5
bfb52459
3f89a9ff
3f832c70
be8caeb6
bfa83f5b
3f28e8be
3eb5aa45
bf878cf3
3fd3ff33
3f077d8e
3f05536a
3f387e4a
bf877c64
bf2ecc71
3f763c69
3e2e4534
3eaa1509
bfa516f8
bf07657a
3eebe8a6
3fa60138
bfc878c8
3ecb1caf
bfa35c2a
3fc23cc6
bfc1cc0e
402fc035
bf92285d
3d47e9e1
3d2ea940
bfac40d3
bf6ec756
bd1236a3
bd03eca2
3fcfb7ca
3e946700
3fa26b81
3f86a349
be9c0bb3
3f9ba263
be486c19
bf13b830
c01a05c1
bd689158
3f96fec6
be1af8b5
3f788097
bf8d94fd
3f979848
bda5cd2a
bf50877d
3d24aac6
be1dbf71
bfa87adc
3de06f6a
3f1cce27
bf2e1705
3ef8a6ae
bd04a44e
3e6eeaee
bd0ced38
bf55a5d2
bf75971c
3eb65073
3edd60d7
3ec25ddd
3e997414
3db00cb6
3d1301d8
40133339
3f1b616b
3ef9e24e
bf0c611f
3f51c90a
bf0bf1c4
3f4fc27c
beadaea2
3e4b4f9b
bec65cce
3fb42814
bf80aba3
bec7c6e2
3f2eee7b
bf0508cf
3ea829be
beb0fcda
c00329d0
3fdc701c
3de42444
3ef4f4d3
3f6ec092
3eed2c82
beb4b492
3f0e4f12
bf1ab95f
bf2531eb
c00fb66f
3dd14497
3f38ac84
3e438809
bf948c1c
c0194505
bff603d0
bfcbbfa5
bf7b4471
bebecb62
3efd747f
bf2b6ea7
3ec0faef
3fb2ef3d
bf4b9e73
3f480f64
bf609492
bf05972b
3f9a7d7c
bfbf2d0e
bd233e6e
3fb17174
bf6c045f
bf1b1cd7
3efb4a8d
be85a506
3fa0e628
beeb3c03
3e73d12e
bf39557f
bf9976c2
bec10344
be6b5d4b
4018bae9
3f4542aa
bef20441
c0425176
3f0e4bb4
3ea330f2
bfe12bd3
3e647c5d
c00ae340
3e4a6022
beb8f306
bff6d03d
3e8d8eab
bf997476
3e229a92
bf93cbb1
3fbd4799
3e31d3c6
bfe57cb3
c0000a66
bf3e53e5
be6c18be
3cf4bd58
be00e65a
beec58b6
bfda4e17
bedb4bc3
3f17bec6
3fafe0a4
be8a550a
bf377047
bf12ead5
3ed0f88c
bfa842d9
3fd80051
3e25b995
3f6280c5
3ebb9148
3f208daa
3f5f9b4d
bf4e558e
3dc6ff00
3f24b132
bf60ecc0
3f877ff5
3eb4e29c
be51e090
3ea1ae23
3ddd7c91
beb27fa6
bfd0ac59
bee088b4
bbc65228
40012dfe
bf7712f7
3f396ba3
3e2c69ba
bfb9e1cc
3f8a296c
bee550a4
be5bbf6c
3f8541b3
bf9b2263
bee35d20
bf07c387
bf8ba54d
3e8ebf3d
bf27cef1
3fa4cb78
bcbca264
3f2f26b4
bdf7dcab
3f873448
bf64a00b
bfc80fe9
3fff1c22
3e9b8a0f
3f879c6d
beaff2d5
3e94ddd8
bfb1966a
3ed887cc
bf2e986a
3f4f188d
3e80fd7a
3f6c4db1
3e62775b
beb7bf7b
3f27d448
beb283ae
bfc1a399
3db4f61b
beed1a27
3fc5ea15
be3e9b83
be500626
3e5fe5b5
3f2cd117
3fd07256
3fe39da9
bf5564f9
3f02631c
bfbd3d97
bf62d80a
3fbf1337
bcf109de
bf9c701b
3e7b9a8a
bfe21a19
3e3a6d8b
beb210cb
3fda337f
3eb818d7
3da44be5
3f707c28
bf1682c4
bea10e1c
be20bd8d
becc1f4f
bf229a98
bd8d4936
bf8c82a7
3e85b3b4
3f2852c1
bff8647f
3f77af4f
bf72029d
3e7bb087
c03d51a2
3f5f3000
3f1aacd6
3e90d41e
bf62f795
3ef300aa
3ed75c81
397067e5
3e0ec16a
be86dff0
3fd05e4b
beae1ca7
bfa2218c
3fa25c00
3ebc2dea
3f81e041
3f9df899
3ef7b150
bdc66419
bf05b3df
3f06e762
3fca1a4d
3f8cc501
bfb2c06a
3f8060e0
3f61b887
c0236c7f
bf692b58
be851fc1
bf2df7a6
3fa5e338
3eaaaecd
bf329bd5
be60b96f
3ed314da
3fc7d58e
3f229540
3fc0df79
c00dd03c
3e392902
3f6df691
3fe175da
3f0165e2
be854d53
3f23b76d
bf112ac2
3e8ffb9a
bfdf1375
bf900431
bed965f6
bc9fe21a
bf304cb7
bf049368
3f46ad40
3e96cd16
bf84bb14
beef4a8e
bf40d018
bfb4112c
bef4aa63
3fdd9096
bfe71d09
3f095786
bf0d8e11
bf0c58d6
3f4bd331
3ece1a65
3e9195fe
3ef73659
bfe8b2fa
bfb1f954
bdc9c8d7
bed529db
3d9dc206
3c4fd2c3
bc0ebca8
bdf885f6
3f77e66f
be938448
3e437cc0
bf9d34d8
be86f092
be992f53
3c1d8ec1
402520b6
3f430f3e
bf74d34e
be535300
3f8c2f75
be071fac
bfa00a41
bf64beeb
bfa8afdf
bd74abb9
3f99f926
3fc12d26
3d32b88b
3f938a8a
3f5b6d50
3ccc57ac
3e1496c9
3ffaa285
be818938
3ffc78ef
3ed18b35
bf80b45e
bf89589a
bf8932e7
bf2d136d
bf16e719
3f6f03a5
3f05653f
3fc12ff8
3f765b65
c006485e
3f2b41c9
402365c4
be344f23
3f080f79
3f9fe07a
bec81886
38d0ad04
3f2656ac
bf9f0880
beb7b19e
403a5042
3e468bbc
3e7adcb1
3efe8728
bfb1bc47
bf170f4f
beb889e5
bed9f126
bf995904
3f2ca3e0
bf876aa7
bfb6296b
bf21f44b
4024a31a
beb39798
3f19bced
402de7dc
3f03e907
40093a94
bd0bc29d
bffbe5cf
3f474f15
bf9f72c8
3ebf2858
c00bf656
3f3867b6
be4ea2d2
3f311ae0
c03823b4
3f61c6b3
bf5b59b7
bebc1949
bf88a4d7
3e8f3f8c
bf54c66f
3f94a8d8
bedaa4dd
befb7523
becddb9b
3fdb16a3
bf1b82e3
3f022e97
3ecf4d5a
bf01f8cb
3f9c5509
3f169b6f
bed5fb1f
bf847015
be477005
bd1f6681
3e1ed59f
3eead4b0
bfc8abc9
bddc4055
3f3e9e52
bf194302
3f4306b7
bf0c26e7
3f82570a
3f042d9b
bf149dae
bef4281b
3e7928ee
bec074c0
bced1b98
becd8310
c000adda
bd8320c8
3f72bad8
3efc11f3
bf05f46d
3f3742a5
3f11807a
bf6188c6
bf6c8e0b
3f357d8b
bf2a4b30
bd10e84f
3e871227
3fc6a702
bf5407f8
bf6cdfb0
bda19e11
3e89b53b
3f9c13e4
bf394dd4
bf91abde
3b142c1d
3f52759f
bf59fee0
bfc92b78
3f4bb280
be92bbd4
bf518e7a
3e8df0dc
bf0c3b4d
bf6d8883
befa943d
bf128ac4
be25d015
3f6cc088
beae353b
be2673fc
be5a7937
3fb40fec
3e808506
bf816897
bf3aa450
3f353941
bf1fd773
3d539b0d
3f58d427
3fac530f
bfcf989c
3ea332a6
3e98c7e2
3e21184f
3f0ab7b3
bfa3f3b2
bfac9fbf
bf83a2e8
3fc1b907
3d1ac605
3fb78da6
3f4307d4
3fa11224
beb6512b
bf8262ed
3e774972
bf487b63
3fad57eb
3e4e42ec
be832c8d
3e97305e
3eac0e67
3ff13831
3f96d8c5
bf83a401
3fd0cbd1
3f959af9
3f65d015
3f8e6ace
3f12c3b6
3f2c71e7
bf153cc5
3fcbe161
3f7f56fd
3e2e5870
bf12e52b
be909cf2
be928ad1
bfe2b920
4002255f
3f3f8099
3fd21096
bf0c57fe
befbdc47
be6475f8
bdbacce6
bc7867df
bf28dc90
bff5516a
3efef1e8
3fbf6dee
bf27faae
401aaf26
bf6dfe4c
3d72f773
bf5f0d52
bfa5ce9e
bda46413
3eaa5f6f
3efaeae5
bf2129a3
3f306e64
bfce61d3
3f76f3b5
bf81b3f5
bfa18939
3f507232
3f057952
3dc922d7
3fa33250
3f87b11f
3ffd106a
be99a8f8
3e5a4460
3e08b809
bf14ba44
3de4e3d3
3ee9c70d
bcc2cd9a
bd320f9e
400d02fa
3e8ea7ab
bec88308
bff65169
bf559b6d
3f87057b
3e98a051
3f004125
bfb6ec95
bea83344
3e6cccc4
bde49941
3f61b440
3f244c73
3ccd71b3
bf2e2b8f
bf507c57
3fbbac6b
bed6c528
3fa728a8
3f48023d
bf2576ed
3f50f171
be9472b0
bf0704e7
be480c02
be6ccfc9
be969cd4
3f1b4d8c
bf359a46
3e5fd333
beebb499
bf34eef1
3dc83888
3f6be6b6
3fa30f74
3f70cc39
bfba485d
bf72223f
3fa5945e
3fa13c3f
bea6e8bd
bfcfbed2
3e7f2689
bf01b803
3f2a6033
3e5fc037
bef446f6
3f34fad0
bf66b908
3fb5374f
bef3f9d0
3ec71ec2
bf775f1e
3fcc3559
3ed68265
3f9ebeb9
bee157c7
bdd6a031
3f443629
bf91cbde
ba2b09d5
3dfe5cb5
be7683cc
bf4e1f10
3fad20b1
3eea8684
be397d9c
bf118cc5
bf3d013c
c01139cc
bcc3c946
bf52aa77
beff03b5
be5ae148
bf256921
bed2bc81
3eae0504
bf3689f0
3f956592
3d84e54a
3f1acab2
40064909
bfc7a269
bf8fa272
bed97b2b
bf145911
401d419f
bf0bddcb
3e41561c
c0187f08
bef994e9
3f4255c3
bff8d4f9
bfa0b83f
3e24f7bc
3f6ae537
3f2873d5
bfe3b128
3ee7600c
bed3e28e
3ee5befb
bd6aaf73
3fb6df89
bda1b894
bf813c45
bd8fd634
bf2822d6
3efd8913
be387781
3b8ce3d0
beffa075
bed5029f
bf19e10b
bf100db8
bf113e2a
bf5d094a
3f8d1c5e
3d8be191
3d1b79dc
befe088d
bf7c4c88
bd9e91be
3fbff1f7
bfef678e
beeb1ad2
bfa74261
beef384f
c03bd847
be02ca6d
bf1937d2
bf5d8445
beeb2b03
bc34c2e0
3d80fffb
3e162416
be319cd5
3f50be6b
3f04f63b
be1bdb8a
bf314f89
3f4bf190
beac570c
3fc4dfda
3ee1b208
bf72e1de
3ee97e20
bf84ab3f
be422b2f
3f306c6b
3f8fbf60
bfa06381
bfb24cce
bd9fa167
beefa072
3e350cc8
bf4a0e69
bf0dea48
bf3f46cb
3f976279
bf0d99bc
be62ffe8
3f9452bf
3f5182a9
bf0bffa6
bf8fb686
3f5fd00d
be807d01
402056d0
3fc0da6b
3e3026e2
3e777726
bc8e0f0e
3f4d4a1c
3e62b40a
bf339450
bf2bef29
3f22cb38
bea61ed0
3fc30d64
3f40a1ff
bf32db85
3f0b715e
3ffbec1e
3e968f7e
3d259f83
406f7bec
3fc0f80a
bfce5df7
bef91fa5
3edf4bc9
3edcce60
3fa24f08
c0212332
bee9eb14
bf8d197a
bf5bb7e1
3f3d9aab
3f28baff
3f52854f
bfabe0d8
be3b448b
3ec91016
be5a36c2
be14e5e1
3f4a0487
3f9bc777
3e1c293e
3da8c20f
3f19e5a8
3f6b43a5
3e0a4a12
40198b60
bf5ba134
bf9962d0
3f066136
3ee4bd23
bf0721f2
befb4271
39a87c08
bfc32812
3f75d5c8
bfcd458b
bef2a1e4
3db6b60f
3f89fab2
3ee7c15e
3f990292
bcd76b0f
bf0a32e1
bf137efb
be1a08d7
bfa4dc7a
3f110648
c04f35ce
3efd4ce0
bf7004b7
3f2c0d46
bec8233c
c0086ddd
bf411af1
3f7e9676
3fce617c
3c82ebaa
bf474c64
be3d7cff
be3c89eb
3fd82289
3faab54a
bf9b2828
3fed386e
be624b2e
3f6aa8a4
bcc342e8
3f09cfbb
3fccd130
bf2bc9ac
3db59146
401ab6d9
3eafcb5a
3f650544
3ea62c22
bed06f7a
3f307ddf
bf1602de
beb4a633
4005c1a6
c00200e1
bf07766b
bd8f6266
be9245b2
bf838c27
3e3c52ff
3e848bf0
3bea82aa
3ec1fd4c
3f9e95d5
3d6f58ca
bf09a7a7
be5ff8f7
3e31d711
bcc2d518
bf31ae5f
3e8969a8
be36491a
3e81e21a
4000b1e8
c021ad4d
3f22c953
3f056791
bebba23b
3fd325d6
bf216834
3ecbebab
