3f276369
3f676262
3eaee0b1
be9875dd
3f918ed7
3f64e4a3
3ded05e7
bdb14320
bf30f4bf
bf55ab9b
bf41c9c8
bf339185
3f91e84b
bf764986
3fa1a1cb
bfeedb08
bfa82e5b
bfd6117f
be46cf23
3ef9ee17
bdbe457a
3f94e88b
400289db
3f5126a7
3d8b69d8
3f5ceccb
bcda78c7
40172a8e
bf32ed36
3fa8ffd7
3e96bcdd
3f1392dd
3d800798
3e443d1d
bfb6f101
be88a4be
3eff8e29
c02be383
bf8cb8d4
3f0f0402
bf357a5f
3f50670f
3df5b893
3fe17d33
bf0d2021
3f397d7e
bdd7b9ef
be76b478
3e807899
befda0f1
bfa456b1
3fe6ecee
bfebe0f5
bf1efe0d
4044c8e9
bee45205
bf3191dd
3ee53e0d
be54c5a4
bec7021c
3f8c4c70
bfd3dd2e
bea61fd6
bbfe077a
bfa3f626
3f42c140
be1126c6
3e018d96
bea8b88b
3cdb9cb2
3eea2ba7
3fc3e809
3f4a0f4e
bdfc454a
bf37829a
3dab4f5b
3ebb1f0f
3f8d6c67
bf01770f
3e91e928
bf37a186
be4a7bb9
3ee85790
3f74884b
3fa87441
bf333ead
3f6011c0
3f6956eb
bf3e7ad2
3dfa1ee3
bf4053bb
bf5357f8
3f3dabbf
3ffcd9c6
3eb516fa
3f5ae8b6
bfc2c98c
3f9f0ac6
3d811ab7
bfe292b4
c0077ac6
bf07bed6
3f4be2ca
3e4bf21b
3f89a743
3e37233b
bf6abe1b
3eaa278b
3fd9f83c
3ea2daa3
bfcaa4df
3fb5f864
bf070bc9
beae73c9
3ea7f7a6
3e872ff9
3f6b063a
bf64cd9c
3e2ef25a
c00a7999
be971c20
bf56d464
bd852516
3dca062c
3e9e0a74
bfb24167
bf28bbc9
3f7a2b65
be447312
3e63ca8f
3f4e4590
3ffb94df
3ebfc93c
3da210d1
3ea7c0b6
bed91c2f
bd027206
3fe5f94c
be81512b
be5c1c8b
be19bd90
3f8675d9
3e926c01
bfc0c4af
bfba0bc1
3e827dcb
3f3e0ca3
be0dcdca
bea1074d
3c83c2cf
3ee884bf
bf4d9659
3e2efa24
3f0cd29a
bf9e0ebd
be96c046
bda5b222
bf1c4573
bee7a820
bf8c7db4
3e7e7ed5
3f475715
3f92dd71
be62dc3f
3da5be27
bf124f09
bd2cd1e5
3f6d2f96
3e8d8754
bf9def77
bf7d7013
bff5a7c9
bb0b3bbf
bfa8edc6
bff9f715
3f17ce7e
3ff17537
3eac9699
bde1c36e
3df89bb7
bfb663ca
bf0e198f
3d425442
3ed4796a
3fffb8da
bf310411
3da2da78
bf2c4572
bf5b41a9
c002946e
3f910894
bfc26da8
bf0de179
bf527ded
bf126d22
3c90fb11
3f0163e4
be0e2977
3fa05e07
3e94e94b
3e1f054a
c0049f35
bf31136a
3eaa2d9c
be938cab
bec9af07
3f1399c0
3e6c21ea
be31d4b1
bf0ea30f
bf0e6b21
3e24be56
3e530caa
3f14ba91
bf9cf21c
bef0f62b
bf0d44b5
3e2d850a
bff0172b
bfb8c0f0
bd8c3bb7
c0045d22
bec9263f
bf2603de
3f7572b2
3f14c3d9
3e4b2387
bdcf0c9d
3e1fda23
bf05a007
be8cfb89
bfd74c0a
3f81f8b0
beaec622
3f8081b1
3ff9e773
bf7b15a5
3ea9557d
3f848747
bfa8597d
bf750c46
3f1956f3
bf1912e7
bf2d09b2
3ee6b5c5
4004fa5a
bf7216fa
bf8042a5
bf01110c
3f8ec021
3ebe9910
3c138243
be54dd0d
3c20b982
3ff17235
3f9bbb2a
bee1234a
3fb8115a
bf9c77b9
c00164d6
be8c6f5d
be034e21
bdae7b92
bff89cac
be567072
bf93b314
3ea116b0
be4726e6
bddad8bd
bf95feef
3f503a18
3f820a9f
400ed151
3f84fce6
bf7e6fe6
3ef3c4f7
bf92dc78
400c6734
3e99cc8c
3e9b293a
3f0b40e2
bf33d918
3e6a2879
bf9ee570
3eb87f5f
3ef4d2c9
becb2d19
bf86bd29
3f23da88
3f4bd75d
3f6d6d9a
3e22112c
3fe72558
3f38dc50
3fc60f75
3e37663c
3f1c5b0e
3f886279
3f1d4a23
bf2b8980
be73de53
3f00c7e4
be829834
becde486
3fa6b34d
c00544e9
bbc8ae36
3f7dc86d
bea3fb1f
bf85b85e
3f0acba6
bd971bb8
bf03edcb
be2fe02a
3e551811
3fa9bf52
3f4aef44
3ffc4714
be6f13da
c00e8a5a
3f341af4
3e0f29b5
bf27c5a2
3edbe745
bf285b17
bda45303
bf83d977
40364161
c01272d9
bf89cc54
bed405b9
bea26318
3f9b4763
c012eb80
3f8dcc67
bd88daaa
3f2e8f76
be90a457
3f18832d
3d3e5658
bf08f89c
3f73666e
40090e69
bf801cb9
3f5ce62b
3f7d782c
3fc54db0
bf76f322
be5bbbe3
bffecbd4
be709cd7
bf503072
3e8fd778
3fc6e947
3f3bb670
bf61342c
bf3ae2b5
bf6ed2c3
3faa4e81
3f8e6d66
3fb4c873
3e68ac44
bda26dee
bdcc6d5a
3ec662d7
bcef99d6
404182f8
3d12ad7d
3ef9ce43
bf8346cf
3fa07f13
3f121b1c
3f3ec794
3fce8c91
3ed2fa08
bf5b1fd3
be972a72
be00eda0
3f9e94e3
bf8263b2
bf35dbbe
bed8122b
3f00486a
3cf5931f
bfacf68b
3cf0c65f
3f3cdc81
bdb8ecbe
bf0b94d3
3f3e8576
bf4e48fe
3eae2117
3eca3c0d
3f952ec8
401a51dd
bf6fb7b7
3de96651
bfb9d9de
3eb5c555
bf526fc0
bf681a44
3d2dcf32
be22d0ec
3f0f76bd
bfb61def
3fa3d822
3f55a909
3e9ab08c
bf656adc
be98245b
3f46d723
bf0b2238
bdb706ea
bcfa2e5a
3f7ba130
bf5daf9e
bf539776
3e92ec75
3fab3fe1
3f27101f
beef99bf
bf37cee3
3e9ec8db
3f4c33c5
3fa8a0cf
bf020dd2
3f5d97b7
40072aa1
bf9ceb0f
3e20ca72
bee906e2
c0040cda
3fb3b55b
3f37a57f
bebdf147
be3def51
3f2b2190
beefbe13
bf8b8d33
bdb21d6f
bf200dfd
bf4ed3dc
3f896a14
3f56fff7
3f4e276d
bf1a12e7
bf5a8f2e
bfbd2a40
3eb914b2
3b1356ee
3c89cb01
be39f41a
3e4b843d
bf819353
bf000917
3e7cd7bd
3f9a279e
be9a3b11
3debfc82
3e2724f3
3eb97aa0
bdb4bb94
bfc7e60d
bf2b7912
3ed62360
3f525cd9
3fad5c97
be8a55a4
c0022bf5
3fbe2524
3c1c2d2f
3f9df995
c0302c40
bfd49ee7
3ea478e4
3f1df00b
3eb5978a
3f930bb8
3f509c3b
bfaec2ad
bfa05fe3
be6424fc
3e1a164e
3f6081ba
bf9d9c7d
3d6c93e7
be64e13e
3f300e27
3eba05c1
400a6236
bf1615d2
be31de3c
3f537347
bfa16113
3e63390d
bf2bbbae
beff46cc
3e694416
bfb77b22
bf99aea2
bef35dde
bf949008
3f05b528
3f7d3ada
3f07cca0
3e51e91c
3fd90cf2
3f6b22d7
bfe2159b
3e6462c2
3ee33ba3
bec1c859
3ff55005
be3a5126
bfb08722
3fd53f64
3cd764e7
3fc27260
bf4ba070
3f4865c1
3ef01033
bceef79e
bf9b3174
bfacdc0c
bffc4023
40124bac
bebdaf99
3f7bc719
bf9710e1
bf7120ca
bef2b132
bf8cd4fb
3ebdfb55
be97ca5d
3fa24edc
bf993f26
3fd84116
c0210e4e
be5f02ce
bf52c590
bf05b807
be6ed582
40242782
3e0ec8e1
3c9d0f64
3ea65019
3e18e4a7
be8c4510
3efb6277
3f87024e
3fa05fde
3f9905e1
bdf20a1d
bfc75d18
bf0953da
3f64af57
3f9fc1b1
3fe40747
bf509db2
3d8caa38
3f6187a4
40034541
3f83e0e0
bf6f65c2
400b983c
3f35a6f3
bfb78278
3e849c5e
3f89c7a6
3f5948d1
3f961bc0
3eb7c2c0
3fc83300
3e9b48eb
40028ea5
bf6744d6
befe09dc
bffe0f77
be21a75c
bfb017c5
bf13d853
be50d1a5
3fe42596
3f0bf185
bd209aed
bedd0bf6
bd92ef4b
bf65e69d
bf8e39b1
bfa9e4cd
be61046e
bf7a5843
c00c688a
3e9a3408
3fc0d73c
bfa8491f
3f0d2393
3ee32b73
bea4fce0
3f352bed
bf323273
bf2932a3
bfb564e8
bf95e0d2
3f241182
bf642a69
be950c53
bf563f88
3f00c50e
3f26a9e6
bf6eb358
bf3aae2f
3e4eb315
3fa6714e
3f83a9ee
bed6d3fe
3db75a8f
3df77ba3
bfb63689
bf360a18
bf7e1293
bf994324
3f2aaa26
bf243a08
3f6a9525
3e8db5c1
be85e01f
4002468e
3f5be2d9
be6bf8f1
c000a8d9
bef811d8
3f1befee
3e702952
3f5077a5
3f612142
beeb667a
bf8b38ed
3eb0aac3
3f79aa3b
3fda8531
bf19df3d
3e069c16
bf1c69b2
3e43e6f6
bde8e658
bfb878a2
3f1d391b
3ec8cf1f
3f28ba1f
3ead8990
3e18f743
be79e76d
bdd9552d
3f7cd36d
bf86d738
be9b2d79
bf0c06b5
bf5384f7
beb64176
bd737e25
bdbf32cd
befb7968
bf02a316
3ebc386b
be9c8527
bf1facb3
bf176af9
bf187469
3b8cf1f0
3edef1a4
bef165b8
3ff8a7bf
3fb47d4c
bf809647
c0029064
bfd120bb
bcd01fea
bf2fe3b3
bf9e7e59
beb6cfcf
3de50096
bf0ef349
3e1d6845
bf3641a2
be2e4873
3f5fc6b1
be12faad
bddd5a48
3f6d6c3c
bf0e5c02
3edefb95
bf2c235c
bfe57b3e
bf232ef6
3f10abc2
3facd442
bf142040
beae458a
3fd106f1
bec23a4a
bf6aa8e8
bf99c312
3ece3fd3
bcf5693b
bfa5dc02
3fa5d2ab
bec25319
3f17d99b
3e8849c2
3f35cac0
400302a5
bf3fa5f0
be62c88f
3f0428d2
bf54af81
3f3e7ec1
3f640dba
bfe97f1f
bf8c3754
bed9e5cc
3f1f7da4
3f40b7a8
c0113f71
bf1c74d4
3cca05cf
bf0edf66
3f450775
3fd84149
3f555df3
3f1b9180
bdfbaabf
bfb98f39
3f08f0fe
3f4e4f81
bfbe6a9c
3f77caca
3f9944af
be637ea5
bf88498e
3eda375f
3ec0ed14
bf3a5a99
3eb1bd9b
3e20a92d
bf2f55f2
3fd9e153
40144886
bee6daf7
3f001957
be3abdbf
3f9679e2
bfce03be
bf128f34
bea132a8
3d47fe12
bf83605a
3f766714
3fb6e3ca
be35246a
bfc1cfd7
3bd0409d
3f3d2c92
3fb0ad79
bf79b111
be3e6cc6
bec309f9
bf3675da
3fc42f82
be5ebf5f
3f74ca96
c00014e8
bfb54742
bd4338c0
4005c580
bfd3c546
c02f872b
bef3a87f
3fdf6284
bfe3e236
3fdba5bc
3f344efd
bf070c1e
3f048137
3faaeadd
bef514a3
be83a9e7
bf3cfb70
3f82e611
3ec9c68a
3c87081c
bede2f56
bf17f0b8
bece0b0c
bf4ce1bf
3f372bb0
be76d5f3
3fcd6403
bf78b439
3fe28380
bf8a8393
3e876af8
bef4c0ab
3f22d892
3f81314e
bec67f21
3f4a2220
bfcf5db1
3d4dae70
c01622fe
3ee81ba0
bf6bdc1d
3f0ba84a
bf3345ac
3e19c280
3f66dfa9
3f319396
bf616dc5
beea62b1
3ffe597c
bf9227fd
bf9c7bc0
bfde109c
3d7a6e4d
3f67911a
3fb2862c
bde13f8b
3ff2df93
3f397c3b
c02d3679
3fba9ad9
bf903a8a
3f9c1650
3c8cd732
3f38899f
3d38295a
bf0f298e
3e3c5182
3fd37075
3ba416c5
bf0db00a
3eec963a
c01e5971
bd10c7ed
bf564c7b
3eab7b8f
3eab414c
bf49603d
bd6e1fc5
3f7264a7
be875e1b
bf25bbb4
3f045fe7
3f15d5b5
be016623
bf645bd3
3db9b069
bf60331d
bca742a6
bf6cc23e
bf14fe29
3ee51ac6
bf5adb50
bf4383b7
3f49f75a
be980ecc
bf5bc9cd
3f72174d
bf97b978
40195a42
3eb473c0
3edfdf2d
3f51c5ba
3c0010f1
bf3bd812
3e34c1f3
bf2648fb
bf1191a7
3f66ef06
3e222d02
3ed19cd1
be98368c
3f8d8e7a
bf21d509
be9df478
c00da877
3d0f6e08
3ebc4ae4
bf556a36
3daf47d6
3ec7824b
3ed82838
3fa1c9da
40169ca4
bfb3a749
bf6a88f8
3dad3b59
3ded4f8e
40102b4f
c0395d00
bfdaa142
40090385
3ede431f
3e99bffd
c00e83cc
3f61c0a4
40051c32
3fe552de
bf814b40
bf34b473
3f57727b
3f67926a
befc31fe
bea511c4
bf93cd90
3ed37701
be01a30f
bf44207a
3e40a7db
be464464
3f1185f7
3f22d442
3df1b715
bdf844d2
bfa9cd47
bf3465f1
bf362f7b
3f81ae33
bf1fea71
3fab2eed
3e08f9f4
bee0fafb
3ed32f46
be3052f5
bee49dfe
40301854
be6aad5c
3c906e41
3efff127
3f4781fc
bf3b6cfe
bf9dfefa
bdc215fe
bf516634
3da12f5f
bf7c5c75
3fd346e0
bf91a62b
bfe8b613
3f30fb5e
3df328d7
bfe48dd7
bea044f9
3fbc4f27
3edd0225
3ecafe84
bd668c9d
bec96114
beccea7a
3d98fcdb
bf89babb
bff0a1e8
bf0d43e6
bf8859eb
bfb0947e
bfc785e5
bf984199
3f7367fc
3ed8f69b
bed116ce
bee7edcb
c004731d
bf5af847
bf615c1c
bfcd8675
3eb7668d
4010bf96
3fb7a072
3fb7c976
bf889521
3f0e0a93
4045e0a8
bf2fbc10
3e6f735d
bfdd3864
bfa8c8f8
3fe6d04d
3e81477c
bf91bec6
3f19ff2e
3e9789f8
bf32a29a
c0218ac3
3d45210d
bfb25826
3f926e10
bec00d35
bdaa0fe6
bf8af9c2
bfa4ee42
3f57ad03
3ee3cbb7
be9c7671
bfb415aa
3c4f5713
3f9bbeb3
3e79b12f
beea11c6
be208f24
3ea6983e
3fd82e11
bfa88564
bf5557b2
3f53dfd7
3fa9fd92
bf665931
bf4fac3f
bd81dc72
bce0eca9
bfcd17d0
3f9532f4
bd956c8f
3ff7be2e
3becb2ec
3e206c52
3efa9fd1
bf150bb8
4002ed69
bf658447
3fd0163c
bf178cf7
3f81c0bd
bfde7967
3fcb0f7c
bda6cc60
be0f5fa6
befe35aa
3fe4f7f4
3f391afd
3eb44205
bfd7b2bc
bf30a911
3fbb9514
3fb12d67
be1f18c6
bee204d1
bfb6c7a3
bf8a651b
bf761b51
3de0cd26
bf56fa1f
bddf01a6
3eed8c8c
3f782030
401e72a8
3cac074c
4009cde6
bffc7a26
3e642155
3f04962f
bfa10796
3e9133ce
c00c532f
3ec9d8fc
bf85a2e8
bf20342f
bfb940fa
3f11e9ca
bf28a2a3
3ffce040
3f94439d
3fa061e4
bf564c6f
bfd5e956
3ede4cf1
bd1a0682
3f9cce40
bf487e7a
bdfbe11d
3f35ee40
be64fe0e
3fcd1f34
3f59b5c6
3e5b1123
3e8cd5b5
3e693945
bf37f03d
3f5abf6b
bf160f79
40191fbc
3ea38a91
bf2dc3d1
3e5de6f3
3f89d9b9
3e03ac34
be9c8b30
3f58c390
3f5b9a58
3f1058dc
3ebf5cd4
bf0b20ab
3f013abd
3eb3a152
3dee69d8
bf3f644b
bf061a93
3fad9f81
400de334
bf2b9912
3edcb03d
be82a5bf
3d911173
3fdd0faa
bf76dd31
bfc33b41
beb7a0a8
bfbcee4f
bf5c3dab
3f0b0dfb
bd40215c
bed954ea
c00ce189
bf234df8
bfee1308
bc1c6a85
3f173836
3fdcbf0e
3f4d8a52
be3a746e
be5755e8
3f7863b5
bf7f55d1
bf1b2bc5
3f2e86f7
3e91fca4
bf3ce6c9
bf70682f
3dc0959f
bf613276
c00d94c4
bfd5097a
3e5554b3
3f19b155
bfceeaf2
3f3cc120
bed17757
3f3594b7
bead287e
3dedd99c
3f8f788c
bf9ed473
bf4958a3
bdf0fb29
bf64fae9
3e923aab
c00dcb1b
bf68f683
3f67ee56
3fd37ea5
bf9188d1
3f8aa186
3fc9a2d5
bfe92b3f
be6673ef
bf02761b
bca4b921
3efc6a9d
3f91ae21
bf6ac16d
3fab8f72
be0e263d
bfe56bc5
3f804d8d
bfd361c4
bd178b31
bf695a4a
bb1bd5fa
bf237a8e
bf62a169
3edf5966
bf98efbf
3f32fa77
3f969905
bf2b202d
3fb42102
3d38d9db
bf76cec0
3f06ad22
bfebcf94
bfd2246d
3d272534
beb2afbc
beefaf90
3db84526
bea46233
3f0ec9c7
3f93c0d1
bc9aed01
3f31e2ee
bf84ccc1
be405559
c030883f
c003f6ec
3f8c6668
bf5309aa
3f7f289e
bfa7c5dc
3fb3bf0d
3f0b5593
bf6f120a
c017af2a
be932a9b
3e305634
3f84f8b3
bd274e01
bf92d816
3d80f196
3ff8488a
bff57fc2
beaa9b37
bd572cf4
bf6203d9
bea58814
3e5ea0fb
3efb33a5
be3dc8ab
3fe883e8
bfb2d06e
bf92f661
3f944e79
4007357a
3f3c9e4a
3eb55ff6
bfefc5d4
3f7c4928
be506c43
bf97ebac
3dd90560
bf75b84a
3f80f377
bdd5c712
bdbac511
bf52b2ed
bf728e25
3efdad7d
3f8c7ce8
bc8f484b
3ed09882
bf3d4838
bf5428fa
bdb2cd0a
4012e37d
bf0c4a43
3ea0bf4d
3f08ea9a
40177ed6
beca955b
3f008b14
bfcc5222
becac902
bf8d223b
bf079b1e
3ea640ed
be2014ed
bf9d7012
bf7f62d7
bfd7bb54
bf7991c2
3fc1ec34
3cb2ae7e
bfa9aa7e
3e52d4a2
3f32f14b
3f373b0e
3fc5dbbd
3f8513d9
3ead21ae
3e8117a7
3faa00ae
3fcbec7c
4005463e
3f88b3ef
3f2a795d
bfa1db44
bf8494d2
bfb5711e
bee54218
3fc40181
c00be0a9
3fa10dcd
be3cea5d
3e0ba09c
3e932499
c00cbd89
bf3c26c6
bf759174
bf980b62
bef54a8c
3f117f8d
3f0fa78f
bf0ca75e
3ef8dcf5
bfe2d0f6
bef80619
bedab733
bf0287ee
be9501e9
3f152469
3eb2a8c7
3f61a8e5
bfb33787
bf8e9ca6
3dd318bd
bf1872a8
bd3567f3
bf6b3a20
3fda18cf
3fac868a
bfe1d573
3effe555
bf13d78b
3efe65b9
bd2e6d0a
3f69c332
3d4ad4be
3f863545
3f5cefdb
bea1ccb9
3c9f1acb
3fe841df
3fc794e5
c0381d5d
3bddb3c0
be959394
bff52c91
3ea50744
bb04d5af
3f95f9f1
3fa6b575
3f416427
3e4e29b8
4024f1fe
bde2710b
3ebe998a
bdd00c50
bf89c206
3f0015e3
bf2481a8
bf27fb99
bf01cf3a
3f7decd1
3f55d60f
3fc3f419
bf5d85b4
3e941c84
3ed14c33
bd89775d
bf3b68b3
be9a7305
3e98568a
bfd5067d
3e23be90
bbc8563e
3e06ff9f
3ea254a8
3f4da17d
bdd8c2ce
3fbd63b2
3fc01753
bed489c3
3faccfcf
3f36da26
3f8f68ea
3dad4326
3fd66d2d
3ee31e0e
bf04fd4a
bd87c50b
3e785768
bf86c042
bf2a3bdf
3dd78719
3e8b86f6
3f67f277
bf27847c
bf5963aa
3f12cc5e
bf920363
3f11ceab
bfc797b1
bf8afb22
3ea319b6
3ff29ea0
becb3c69
bedb5cc4
3f87f7ce
3d8455f9
bfc73f78
3f043b28
3f657c87
3fc630a5
3e840a76
3f2fcaaa
bf5171a9
3f4867e6
bc86e553
3e505652
3e7655bb
3f9d3cd5
3f9dbaea
3fb082a2
3de3833d
3f2f634c
3f37f7a7
be221c11
3f7e6104
bc3c409d
beb0828b
3e1d14ab
3eb0371b
3eb31726
be8a4ffa
3d833f7d
bfae94ba
becb8360
bde521bc
bea56a4c
bfd2d78c
3fbb94f7
bf518c6c
3f779834
3f92f650
bebab5c6
bf9f3a03
bf3cecb1
bf2369f3
bf2c2ecc
3d9fda5a
3ebda6b6
3f06549c
3f806d1a
3eb9fa9c
bf98578c
bf46c934
bedce192
bead35d1
bf8f4afc
bf9db89b
400318da
3d2b33ca
3eadea02
3eebdd1b
3ee5710c
3e7d892f
bce0d8ee
3e3196c3
3f8475b7
3e15cb80
3f183818
3efd615c
bfbf9426
bf09330d
3fdebf5e
bdb3bc3a
bf7b90cd
3fde7cf5
bfb74a04
3f07ec04
3fb76442
bf5404a7
be9b498d
3f7152a5
bf1b45ee
beeb34c2
3fb5371d
bf73b899
bd6659a5
3f2adc86
c017d39e
3df3a006
bf87bf43
3faebaaf
3fa71d7f
bfcaa6a8
3ef048ad
3f64b982
bf47c1ea
3f0126f2
bfcad55a
3fa77166
be4591e8
3f4ad688
bed39c9b
3f73cb79
bf74e435
3e6d664e
3f6e440a
3e8e2e32
bf14daa1
bf3568c8
bf3cb50d
3f4e51a8
3f9e8ffb
3f92244a
bf77960d
3f8c50f9
3da25044
3e81e2c3
bf8125a7
3f4e1e5f
3ed2a8bf
be6796b9
3f86fa81
befda236
bed83a7a
beb53dbd
bf4e6362
bf30e238
bf91069b
bf0317fe
3e5e8f6a
bf8e0640
3f9967b2
bf052763
bcf070aa
be2ed902
3f1512df
3fea4c49
3eb74468
bf9a8d7f
bef4bf1e
3f20e1e7
3f076b55
bfb65681
bf468684
bccafc05
3ebeb3c4
bf880d67
bf926707
3f883155
3fc4f9d4
3f26963d
3f9a4c03
bf1a740d
c00175d9
400804ed
bfbd3d56
bfeb807f
bf35f09f
3fb2435a
40142670
3f53b997
3f638493
be6d0686
3e04394d
be8f0e23
bfcbb367
bf5e16cc
bf2b6f8d
3d4f0b96
bf185006
3bca25a0
bf4d9b1f
bf764f31
3f7d2ab7
3ed4f85b
3f9e92e2
bec2b6ec
3eac2033
3f161f4c
3f44c946
bfa65116
40067ffd
3f1d7736
3f23bfe9
3f9ee6ca
3fc1d1b5
3dde19c2
bebec453
bfaeb623
bf268498
bec13db6
3f1b6e43
bf8bfe30
3ea55367
3ebacd77
bed7c034
3f5a5d9c
bfbeccf2
3ec90f2a
bee83629
3f634c4a
3abed63e
3f65b052
3f9bdcb3
3f817161
3e9dcb78
3fe7c01b
bf027f6a
3ed058b8
be0094c4
3fbb9e66
bff17559
3f4ac80b
bcbfff95
bf30a645
bf6746ea
be6e4e31
3f019588
3ef4836e
bf710df1
3e397b19
bf2fb5bf
3f563d8e
3e228e0b
3eb590eb
bd607661
3f9230a8
be71c2a3
bc45d581
3f82ce6f
3f9a7dc0
bf0a9ebd
bfb7088c
3e04bec7
401657b9
3f60a330
3f35cf3c
3ea2388c
bf7e2a65
bfa2ad3c
bc47e237
3e0e2743
bf84db2a
3ea658c8
bf248fc3
3e56cf7c
4001372d
bf1fda43
be5d6f3a
3e4a422e
3fd890ca
bfd89834
be4c150e
bfaa392c
3fa4e529
bf32a002
bfc4a5d2
3fbc3fc3
be964aa8
bf963373
3f25778d
be7d3ff8
3cb0497e
3f029dd7
3e4904c6
bf26cf9f
3f27659c
4007654c
3f1d4363
3f6cd3c2
bffee8ec
bed2acb8
bfd32a32
3fbb4c9b
3ea32341
bf3e55ba
be333bf9
bf84da5e
3eca79df
bed159c5
3d79333b
bf4c1610
3ee7bdea
bd9e8f95
3f129772
bfa7f015
bfbda97c
be3ba55c
bf9ca2c2
bfbabc39
bf73b2e7
bf11c1a8
3f5a4c79
bdcba155
3f838bb5
be66abde
bec8a646
bf062605
bf5c9255
401dc1ed
3d9f6679
be62270b
be866c75
3fdd8a65
bd25280b
bf9d43f2
becd737b
bf2b90c8
bfa6edb5
bfabae32
3fa99754
3f9f84a3
3eafaebd
3f9de34d
bf6f6dcb
bf7ed8e1
bdc6e28c
bf395507
3e0fa5b1
3f879191
bf200a6c
3f7a9828
beced940
3ef555dd
bef86e62
3fecfdca
3f5263d1
bf4205c2
bf827ade
3fb042ab
3fd2890c
bec664ba
bf96d4d0
3efb5039
3f610344
3e58f2df
beb1d097
bcf5bc6f
3e14456c
3fa471f7
bf9424a1
3fa41e60
bf2e5aa1
bf88b74d
becd94ab
bf410307
3e74abad
bf5359dd
bf7052d0
bec6226e
bd674ad3
3f49de6d
3ca6c566
bf4b92a9
bd5bf055
3f21507d
bf8d85de
bf469231
3f1b8d99
bec8c405
bf8ed811
3e79c9a2
3db67505
3cc34664
3f4c1a69
bf46f91a
3e8ff5a8
3e6a9bd7
3f6c6a31
3f297b2d
c024b9bb
3f107d3f
3f4e8f34
3d75799b
4009f584
bf308625
bfc01cc5
bef35db4
bf168642
3f043d97
3fac2d45
3fe4f139
3e31cf95
3d3442d3
beb29d8b
3faedf55
bed1f210
3f193431
3f143509
bfc3bbdb
bfed9bf2
3fc7d073
3e80db8d
beb132f4
bf154fc8
3ea7d583
402f2490
bf9ba281
3f1fa798
bfbee583
3f77a657
3f071c76
bc13e3c5
3ec00452
c0055aaa
be5f0780
3f00c561
becf3081
bec1dc61
bd50a726
bed4c6ba
3f19b3ac
3f9354ed
3fab0d52
bfcfe10d
bf03387d
3faaf9fb
3f2f8e9c
3f32151b
bef200cd
bf0c0e36
3f884bd1
bf9063f8
3fb2511a
bf916b7e
3f419f1e
3f6a2b79
bfc89673
3fd65df9
bf77e4ec
3edd84b3
3d33dba6
3f70615b
3f696dae
3fb9eccc
beb4877c
3d81cf69
3f8ae750
3ec76e33
be7de96c
4007cec7
bef9aca9
3fbc07ff
3eb1b045
40144cd2
3f1a00c8
bf8f3d1c
3f69fb06
be734689
3f9863b4
bf85b91a
3e3fb11a
3e24cdd9
3e947bdd
40045698
bf739bae
3daa8457
3ea08c0a
bf37f61d
3fc8a2fb
3f2e1daa
bdc29199
3f74a4f9
bec55ccc
bfb9384c
3ed9c78a
bf06860b
3e03b136
bf72dc49
3fb09f16
3f9e7335
bfd205fb
bf9a043b
bfbe99b7
3ebf2b3b
bf3b0ff8
c00abf50
bccf6e6c
3e72cda9
c01bfb39
bdef1406
3f631d82
3fa731c3
3f6a1ab0
3f57a3f3
bfda771b
3f85e214
4011c77e
bf49529c
3f21ee5a
3eed6f71
bee9b46c
3f8adc27
bf2114a6
bfb9117f
3f9e82a7
bef810d6
be9d7e07
3e48dd26
bea4bbe8
bf3a7492
bef42392
bf336b39
3f3c6ed2
be9c9488
be2cb1f5
bf2255ae
bfbcbb8d
bdf08905
be1d078d
bd0c4718
3f98a437
bf926dc3
bfb4c5be
3f60b1dd
be0d76f3
be5f6f2c
bf89f59d
becb2b57
3fe4f099
bf6da10b
3fa3d033
bde9407f
3fd5265f
3f11f935
3fd11674
3ebc7106
bff83e14
bf25cb30
bdd88d09
bf417336
bf6b6373
be992959
3f14c168
3faafff3
3e238d78
bf002299
3f456aa6
3e8e3ae4
bcfc4ecd
bfae557d
be98b583
bfe7afdc
c007416e
3e361a27
bf2e401f
be19c40e
3f2e0280
3e0ff318
3fd9b819
bf2d0b07
3fbd23ee
3f6b3c55
bfb86b35
bdd2a096
3f81ed5e
4028be90
bec0792b
bfd77586
bdaeb4ca
3e9465e3
bf96de36
3fc2d737
bfb0a698
3ff1a8e1
3fa5a9d7
3e4fff38
3e11d6d0
bee44e25
3ea9b0ef
3f2dcd1c
bed8aacc
bf98e9e5
bf4c7003
3ef72fa2
400b55cb
3d51ec06
bea0f7ee
bf6ec1a0
3f9f0b87
bea10155
3d768b65
3f0dbf52
3f48660b
c00ccc10
3eaaee71
bfa83d00
bf67a241
bf0574ed
bebde85f
bfbde3cb
bdfab70e
3f1e4f67
bfb411e2
3fd68109
bf381d2e
be091058
3fa19ec1
bea234e2
3da44331
3fb0ff5f
bedc021a
beea07a5
be2c87b5
bf90184c
3ec40236
c005e505
beb53a12
bf5f10bd
be93b925
3f8c9359
3fea6dbe
bf041c3a
bcaecf5f
3f0ae045
bf74fecf
3fb972f3
c00109d5
bf109691
bf8687f8
3f53fc51
3f8a52c6
3ea802e5
3f956465
3f678059
be45cf5a
3ecdbfb3
be5374b3
3f7ec101
beac2649
be8958b0
3eef8989
3ec60f30
3ec71499
bf8e8af3
bface6de
3f53b7c1
3f8a4633
bf213f50
bcd6cf51
bddab7d1
bf9ccf2c
bf1480ac
bdc068a8
bf8f40d2
3b48fd8c
bf9a40e8
3fa0ef3d
3e05a4c6
3e73aa10
bdbd4a7f
3f274cbf
3f26046c
3f55d8f0
3e964bb1
3eb7cb5a
bfcd666e
3f815dc6
bf274a0b
bf8fe005
bc236152
bfec314a
3f982b44
3eed0d50
bf5249de
3f4a2bc7
bed52106
3fd8860f
3f9c88fc
bf3c6c82
bf11621b
be252374
3ee59fa9
3ed66fe7
bdaa7915
c02a0eb3
bf64b828
3df36611
bfc1d291
3f31cd5b
bea9d4ac
c0448485
bed09ac2
3fb8a0d8
bf21921f
3e869d3c
bed72d48
bf00cd31
3f6ecae2
3ebc2392
bf8cc9c3
3efb9127
3da5eb43
3eb8f1e3
bf6bcb1f
3f86d821
3cf152cb
bf197ada
be9e9581
bf0ab1e3
3df73406
3fbbcd3b
bf576b79
bdf0dbfc
bf15d041
bfc6eaa2
3fa727aa
befbc770
bfbe43df
bf0aeed4
bf685577
3f3eadc8
bfa57302
bee38442
3f909d74
bf8c9069
bcff9612
bcd0a8f3
be8dfb17
3f357703
3ed3d7a8
3e7a7c59
bd617bd0
3e8f009c
be178fe0
3fcd6a07
be1fed13
40155148
3fab4bc6
3efe12bb
3e1722be
bf317941
3f3fa655
bf224121
3fc0af0e
bf234654
be6b1a45
3f118e02
3f86eff2
3f7a653d
bf211361
bf8561fd
bf3566cf
bec14b97
c0084ebb
bf13ccbd
3e1948b1
3faf5cb9
bfbdba37
40162947
bd41a20b
bf9399dd
bfa1bfcd
bf317883
beaf3012
3fc7d046
3f05e5fc
bd812d59
3eec0d66
bf818ca7
bed30648
bfd1c5a7
3d9dd36b
40079639
bf8307bf
3ebffd74
3ed71b36
4018e1c4
bf30dc93
3f059d83
3e280e7a
3f87a36f
3fb483e0
3fa49df0
3f26032d
bd325bcf
bf408e2a
3cea720b
be98bdc9
bebb243f
3f88023f
be956653
3f8b23ee
3f443a48
bf9af376
3e2ef983
bf83f956
bf787b8d
3e9a1658
4006449b
3f949ff4
3f700ec1
be7946bd
40051083
3eab15ff
be9e0e74
3f987adb
3f4fcaed
3e45c2a6
3ef5e2be
3ce30315
bf6d5883
bfd6e9fb
bfd6eb01
bf1170da
beed1b34
be80844f
3e4c3598
3e40bf84
3e164504
3fe52557
bfa25e7c
bfba8807
bf88cca2
3faa6253
3f1b4f95
3f445354
3f9d2fb5
3f61da3c
3fff0cd5
3f917e98
beea1fe8
beebb60d
3fce31cd
3fb2ab53
3ddd25b9
3f34d4de
3ff4860f
bde2075a
3f827a6f
3e600e76
3e9f9e01
bef6b522
3ebfd39a
3e1a9b12
be114def
bdf1d2a8
3e96719d
bf6cfc49
bf1fc9d6
3e55ee85
be2dc3b3
bff6f0d7
be83e4cf
3fd5bbbb
be620d62
3dc5a622
be87d1fd
3fb0fd3b
3d072227
3f36967b
3f7e057b
3f353b69
bf0b3538
3e941c8b
3f87d3d7
3f6a23fe
3d31b12f
3f3fccf5
bf8d5ef1
c0021ef6
bf795050
3f0ee6ab
4022ce6c
3fad9cac
be1f8f3a
3fa399df
3eecccc4
bda158ad
3f2baa00
bfb87447
3f2231e7
3fafab56
bf9ab600
3e87c830
be8ccb4b
3f8ff94f
bf21b8e6
be776dc3
bf6ced9a
3f9b2bde
4007e3bb
bf2ab01d
3f082a2c
be976fa3
beb7761a
3de316e3
bfaeb757
3fa8972e
bf503388
bfb4bccd
3e43ddd3
3fef7891
3f0e6476
bfde09bd
3f4337fd
3fad2af2
beb40421
bf5eab73
bfb29246
3fbcf9a7
3f8a9cb9
beb1b10f
bf6510b5
3fccb775
3ed85ee1
3d19508e
3edb2719
3f8838f2
bf8cb73e
bee8369c
3f69d215
3e8338b1
be6d3e8b
be2743fb
bf680f96
bfad0e5b
bd29e97e
bea0cace
3fa85b02
bf531fbb
bdc77f48
bf61cabb
3f7cfde3
3f8b4fbc
3f93b651
3f857412
3f397ed8
3f8cacbd
bed093da
3eb04321
3eede7c2
bee2f08a
bd9dcea1
bb95be8f
3f213fb7
bf36fcd0
3f58d3c7
bf7aac54
3f8b3cec
3f9e0c75
be433e8b
bf95ff37
bf9d034e
3fea9e9f
3f1fdbd2
3f1431ef
3fc745c2
bf7c46ee
3f81cce7
bec9931f
3ea10ac3
bb2e7d2e
bf672ab5
3e035df7
3ec3183d
bcd746ec
3f4a3367
3f56769e
3f2854e8
3ee91267
3f41f81c
3f49639b
3f1e2e82
bf6533f7
bfcb0fd1
3f47668c
bdd5ef7c
3f76195b
3e250bfc
be32ae40
bf88e2f6
3fe06f29
bf25566e
3f204978
bf991f14
bf3248bb
bfabc9b1
bfd91661
bf4e5096
3f102d4d
3fc2db92
beca8d55
bc4adeea
3fbd65ce
bfe70a50
bd98d9fd
bfdbf81e
bfcaf818
3e71442c
3f7d2e5b
bfb07e56
be010742
3f8e332c
bed69d35
bf911d30
3f98384a
bf2bf43b
bda52952
c00edc97
bf237485
bf303e26
3eb1646e
be57eb10
bf7a734a
3f1f0983
3de232f2
3cb532d4
3f410a1f
3f3143e1
bf906e9e
bf487e5c
bf09bd6b
bce193af
3f7d4a63
3f2d5f28
3f989ac7
3fa748a4
bf73104c
bf079fe6
bdbc469d
3e9059b1
3efb870e
3e8cd33d
bf697e31
bd2270f7
bea08a7e
3f38dfe4
3dcd52fd
bf1191ae
3f360276
3f0e6698
be7ff0dd
3eb76642
3f969e0c
bd6ebac5
3ebc82b3
c01753ca
beffdf82
3f5eb34e
bf8c9696
bff78d86
bf85a41a
bfba46c1
be313cd4
3f8941a8
3f09656d
3f83ce0f
bf5a275b
c00a5f02
3f23f110
bea9bea1
bfa48269
3fd98791
be3de2b5
3f367092
bed13691
be294f36
3f83343e
bf22aa00
3f0993ca
3f7e0d1e
bef214c2
bf361609
bf072891
bffc1e00
3f26a36a
c01bff19
bf62ca6d
3edb4ce5
bf0e43a3
be63eedf
be87ae09
3f6d7f51
c000a9f3
3f7da808
3f1a0b27
bfa62f4f
bff76624
3fc8cc9a
bf385d8a
bf6f3c91
3f3a4edc
bfa25c62
bf3c950f
bc5ba4fe
bf6cb0c8
bec63239
bf4d41e7
3dc9f797
bfad20e8
bfd45f04
3d83a3ca
3e57aa91
3e92fc2b
bfcf6b50
bf25fe39
3f1b9887
bfa61e3e
3e5fdd9e
3f41ca29
3fb4e26b
3eab8e10
3fd188af
3e96ec78
3f08103e
3e5a9332
bd8b2edc
3fb1f72d
3f7864ad
bfd79784
bfd3963b
be920a80
3faa5ec9
bd116b29
3f6f52d8
3cc44338
4001bacb
be83de33
3fefbd32
3f969d92
3eb60ab9
bfdfcccd
beace9bb
3fbe9467
3e969243
3ded19c7
4008cd7d
bff6a4cb
3f3cd9c3
beb50011
3cd77ec8
3fa18264
be58c7ff
beb41128
c021e398
bf791eb1
3f4a6ee0
3f962266
3fa45fae
bd8a6135
bdb8f2d3
3ef0e3ff
bf84d4d7
3ece9e35
3fdba982
be4146ae
3d89ad7c
c00b6a1c
3e949884
3e84877a
3efd11c0
bf03008b
c0079417
3da7c4d4
3edb0c9f
bdbd9e17
bfad4390
3e1ac613
bf8ae80d
bebc7e58
beb76f0d
3ef576ac
3ec87736
bfc43019
bf9431e4
3f25e385
bf0a7a20
bfacad61
3fa670b2
bf457445
bf1bb427
3ff8aeaa
bfaa1d09
be995159
be987785
3f60c942
bf16daa8
bec1ca3b
402b7813
3f1162ff
be91d84a
3e6ced85
c027915f
c00a1351
bfe682fb
bfa44986
3e825fa6
bf26aa9f
3e6e98a0
bf9c8a9b
3fce2422
3f6fbf03
3e0bb9b0
bfc55797
bea88781
bf51dd8a
3e3a6467
403ec2ca
3fedaee9
3f89c927
bf6a7cb9
3f0b7df7
bf08dc1e
3d1885c7
3fa9cfa2
beb0f0d4
3fdcf132
3ee3bf75
c0118148
bfdd8f92
bed5b14b
3f3114c7
3e2d70a4
bef1b3a5
3f13651f
bfa86d43
3f6857ac
bc66e403
bd8a5fed
bfb51e69
3efaeda4
3f5ba9fe
bf033ff1
bd88dffc
3f084421
c0028611
bff06266
3e7f1bf4
3e8fee85
3e54f511
c02dede5
3fdb5c0b
be8e5697
3ef7052b
bfa3d2bb
bf739f64
bcfece00
3f0a76d1
bf9c3d53
3f1f515e
3f6862b8
3e9d90e0
3f1d55bb
3f101aac
3ec7e137
3f5bdd16
3d621a25
bf2d450b
bf108b42
c045b8fa
3fbbdcc7
be5565fc
bfc7c909
bdb375b3
bf2603c6
bd88819b
bfc3f667
4007e3e6
bf075113
3ed2cd6b
3f1adc1d
bf8f4cb1
be93685a
bec16d0d
bfee7b13
3f5ec381
be838167
bf71b07d
3c84aed9
3f1a5091
3f7cb446
3d2ac218
3fbc1220
bee739a5
3f839d73
3c8d1159
be468ee9
3e0e9dad
bf591929
3e85862a
3def407a
bffc5190
3dfcf95e
3f1d810c
3f1192d9
3e014b22
bf8f2e5d
3fb059c4
bcca4851
be5eaa71
bec40bc6
bf17b4a4
3f444613
3fbc3e2e
3f56aab4
3e6227bd
be84a503
3ee62b8b
3de1d78f
404caea5
3f0d113c
c01a16ee
3f0afeb4
3e56869e
3f3eea56
3fb339be
bf5841c2
bead6bf1
3f3f7379
3f8725f7
bf429b20
3f36f943
3f7afdb0
bf839dee
c02fa76c
bfc39aa4
bf52555c
40073842
bf48202c
bf92e15a
be1cd903
3eadb991
3e67a0b6
3fa141eb
bec2b93a
3f3eca22
3fa1012a
bf7cfc7c
be628011
bf1ade84
bf03e88d
bf835b59
bcb41cb5
be88d658
3f444abf
4049a078
bf9ffd0d
3e2da706
3ddbe00f
be58a0d8
befb4302
3f454b25
3da9e535
be7ef739
bdd5c33f
bee2c3ba
3f9678e9
bf8847aa
3e390ce2
3f14ff90
3f4e75d4
bfb22185
bf82baac
3eaf71f6
beb732c3
3ea4bb1a
bfb24563
bea39abe
bf08e52a
bf020e03
3fafcfab
3ee2ec3d
bebee9ed
3df92028
bfec4e42
3eb69811
bfd8826a
3e3bef83
3f2e49bf
3d9d26e5
bfc802ba
3e7f05d5
3ee67357
c006b210
3f9a79cc
3fd4000e
3ff44fcb
3f0b50a2
3f6b87e5
bf9cd586
beabcee4
3fbdae12
3f6a0ba2
3f498f95
3e48ef50
3f956314
3f999e03
c00bf5e2
bf8550a9
3e925e70
bfce3d8d
bed94ddc
bf874ffa
3d878d27
3f5a76e1
bef357cf
bce0d8b8
bedfd37b
3f04e746
3e770771
bf9088b2
3ec88351
3f2d3db8
3e7eaad1
3f04435c
3f6b932a
3f1ba178
3f34e99b
bf91ccdf
bf5b02c7
c007587a
3e61389d
3fb209c2
3f5ab46c
3e8a9a8d
bf751150
3f5fe994
3f758db5
bed4b086
be05a79b
bfb8a1bd
3e9baf9c
3f9d612f
bff457a4
3f8c68eb
bfb830f9
3e90f290
3f48910d
3ee12834
3fa93817
bdeac496
bf5a03e9
bd1b064e
bfd96ec3
3eedb072
3e97b5bb
3f0430cc
bf3e6045
3ee1280e
3e01e3e2
3ef15399
3ecb09e8
bf88292f
3e129387
bf8d3442
bfe8244b
40044c18
4014a0b2
3eedcafa
be0a8f5e
3f166e56
3ebe1269
3ed95a59
beabff76
3e226841
3e9b5daf
3eeb1f01
bea0a9b4
3fe8c71f
3ede711e
bf43b9bd
bfb7d23d
3c0b66f4
be34e6a4
bf52000f
40206b5b
3fae045e
3f295da9
bf85a602
3f4492a0
3ef3f1d6
3f9bc340
bf368cef
3f1fad19
bfdb086e
3c8c181a
be0d417d
bedd03d8
3f0e9416
3f7fd12c
bf24dbec
bf8eaaaf
be8cd18e
3efcd342
bfb64495
3dd63751
3ed5c41e
3e936f4e
3ed668ff
3e9856ac
be8c56c9
3ea360af
bf836a36
bf406a7d
be85be0a
3f4510a7
be973bc2
bf2d1ac6
3db06a2d
bdd4a802
3f71c9da
3e16672b
3f3c3751
bf0daa11
3e0d39e5
bebeca69
3e3c8e6a
bffec274
bf01ee3e
bf823a41
bf792d31
3f1aea61
3ee69b13
bf6bed77
3f9cc6ca
bf33fee4
3fa48ca8
be417b9e
bf71c9b4
bf0c0f81
3fc80caa
be374e6c
3f6fdbe2
beed02df
c02f90ce
bf9ba12e
3fa1685c
bf1f9641
3f3efaf3
beae2902
bf4a8344
bfe98232
bfe2c802
3d2371db
3fc64caa
bf18246c
bf48bd32
3f56c783
bf98d996
3cad4bbf
bd9a5b6b
bfc58e2c
bf1b751f
c01a1134
bfdd768c
bf4a1fd3
3ed0972c
bf05654c
bcc20ea0
bf32aaaf
bd623ae6
be63a50c
bf7af214
bf3b50f3
3f4cdc31
be12d359
3fa6d77e
bfaf909d
bf757c57
bf00f9e0
3cd94f32
402c2bf8
bf3795c9
bfbad89a
beb52147
3ee5358a
bf5b0dc3
beb3cafa
bf8c08e4
400f6ebd
bf06bc8c
3f92241d
bf818b2a
bf0d2525
3e7a2769
bf85c05b
3f4809f5
3e31431a
3f1c8852
3f2cb034
bfc2b4ca
3e3b3db0
bf022a86
bff54cc5
3e829a99
3f321c33
bed84a58
3e8be3fc
3e573199
3f4fc56b
3e386d43
3eddc717
3f646332
3f1c5a08
3f2ed288
3f919468
3ffd9987
3e4d7c9d
bfd09377
3f3228d8
3e740c10
bdc80620
3f60ecfc
3eb37a42
3da4434f
bf66d4be
bed820ec
3eaa46b5
3c972217
3f87a7a5
beeb37b1
bf1682ca
bdab10dc
bf230961
3f8b9902
3eef1616
bfcf6af5
3ff79db9
be9754c6
3f834660
bebb3e1b
3fe2f5b1
bed7bdda
bf9f09d4
bfe978e9
3ff78369
bef9434f
3ed57b93
3fa320cd
3e8e2b77
bf25c09a
bde56317
bfd1aaf3
3f8825fd
3dc5259f
bec1c5a5
be473b7e
be128432
3ffa96bb
3fbbe999
bfa459f1
3f62b92e
bdecbd89
4009b9a5
3fc0554b
3f2d6d5c
3feca73f
3f1035e2
3e6c2744
3ed916e6
401128a7
be815749
3eb7ea53
bf672592
3ee684e7
befd0c59
bfbd5352
bf959b5a
bfb584a8
bf4e35f6
bdf05c81
bee8c543
beec46c3
3f8321db
c0370837
bf9b0da1
bfb2804c
bfa33512
3eece29b
bf955320
bf874cf1
3e71868c
bf4d0fff
4017a5d1
bf2e0733
3f42ec6c
bf865e88
bea071b8
bf44a673
bf40860c
3e331892
bffc5c6f
3fa1fc55
3e940b7e
bf3c7843
c02f07ff
3f510af0
3efa4da3
bf945a27
3fcfcd8b
c0262682
bfd75177
3e8989b0
3ef81c9b
3ea10332
beb092c1
3f9e51b0
bc6cd91f
bdbb8ab8
3f94c1c3
3e39a7f8
3f5735b6
bf02d1f3
bf1db46c
3fba2b2b
3ee2b27b
c014db89
be7f8c5b
bf0b0106
be811fae
3df3eeaa
3f3422b0
3f8171a8
3dcf7644
bf21842b
bfdd29cf
bf33d4ee
3f3fc61d
bfc4224e
be5b69fe
40254b6c
3f3dbec8
3ed089f8
3ea6a218
be49e408
bfae9de5
bf1b1aef
bd6957b9
402b530c
bffcabd5
3e1ba582
3f485af6
3e89d827
bf71cdb5
3ef7e988
bf93627f
be830954
4006fb51
bf8c43b0
3fb8cb94
bd831dcc
3da53804
bf795aa5
bf21551b
bf3add58
bf986a0c
3f8e05f4
bfc016e3
bd04d3a7
bf5f6903
be56d60f
3f21379e
3f83fcd5
3e2ca956
3e819687
3f8122e8
3e23d30f
bece1afe
3f09e330
3fb2902c
bf8395d2
bf1434b2
bf256a51
bf51744b
3f6ace0e
bfd6331f
3e36556f
3f823d50
bc6f2a03
3e4a7fbc
3d9ed49a
bfa3b405
bf996736
3f54bf15
3f192459
bf5019fd
3f1b0794
3f69244a
beb85ea8
bf1957d7
3f9ef8e3
bfa94f2e
3e9cc04f
3fb679d0
4002b148
3ecd63b9
bf30538b
be5b45f7
bc2a191d
bd1b4783
3fddd9cf
be33be67
3ffe3025
3eafef64
bf2eb800
3f82ca4b
bfa560f6
be2ee7d4
3fb9eb08
c0032ce3
3e92d11e
bfadc11f
3e5d0ff5
bf0c9f51
3eedad1b
bf92f609
bf6260a5
bf9e409b
3e6dbda9
c007d265
c022c268
bf5ca091
bf3a8e68
bfde7875
bf84a871
bf2ea384
3f4888a7
bf4b034e
bf3d786e
3eefe75b
bf3cb902
3f9cf364
bf88bcd9
3fa18cee
bfe03333
be6c1854
bebf304e
bf4f42f5
3f0c3efa
3f9447f3
3f883365
3fda3aff
3f0329d8
beb5f54c
3f7bd466
bf9fc30d
3f88b22c
3f0740f6
3f177b84
3f810a42
bf0a605c
3f9cb9ef
bf8e4d89
3f981d33
3e32d38d
bf7e3eaa
3dc86bcc
be47fb1f
3f25dabd
bfe2af78
3f8bdcfd
bdf2ab8a
3f10f13b
bf6ebd2a
be485544
40308de1
3f24397f
3e085cb4
bf471d8d
bfd661f4
be1418f9
bf9083a1
3f7afede
3f46baf3
bf578941
bec44467
bf8bed62
4024f999
3fb3d03d
bf176edc
bedb10df
3f89ea58
3fa1d692
3de6bc8b
bee333a2
be04ba60
3f93df77
3f369b5a
bee4b02d
3e9a89df
bfc15233
bf8cc76e
bcb31085
3f8c568a
bf3ee23f
bf070d80
bfbdd22e
bf76d6c7
4018a096
bd042274
3fa590e5
bdddbdd4
be90b08e
bf2346ce
be2e76b8
bfbe0370
bf172f3b
3d719ffb
bee7d898
c0002a0f
3fc7e5e7
3f5f97a8
be64fc1b
3ff2b846
bedb1303
becaa5f2
3fa22cd6
bf81a533
bf1261a6
3fd537af
3f690fd3
bf4db5f6
bfc6919f
3fb8c634
3facefb6
3fc5b275
bf51fc99
3f2d3820
beb8e090
3f1e96df
bdb44432
bffd846c
3fa7bded
bf0b0437
3ea279e5
3f36e53a
bde4b8fd
3ef40c94
bf80b31a
3f410ae4
bdbf0a94
bfeef6f8
bfc77706
3e258526
bcec5c4f
bf310fa1
bf0a7a1e
bf5a4660
be3c715e
3fdd1bff
bf52d7e6
3f751527
3f5c3385
3fb5e240
bf88ec1a
bf55eeb7
3ee3f510
bfbafb2f
400286c2
3f4b94ba
3fe96dc3
be64bd14
bef396c2
3fafda5d
3c55f6f8
be0e7e17
c0093927
3f5ac54a
be808e90
bec9bb15
3fcab5cf
3fa77f9c
bcf67085
bf60605a
beeec82c
c0155d64
3f9ba395
bf988c7c
3e257a25
be6e2b88
c00992c5
3f327a44
3f3e5a1f
bf672b8b
be975da4
3ef651ff
3f416be8
bf689c76
3f55cf59
bf5d9ddb
3ff70b2e
3fa6af30
3dcfe4d0
3f3c18e5
3f7e99a5
bd8b880a
3f782ecd
3e06dba4
3ef3ce39
3ea74a6c
befa823c
3ec7555c
3f008ed2
bdc3ca92
3f435c90
3f5e4719
3e025a34
be462ba4
bfc0d228
3ee0c79e
bda4871f
bebb9fff
3f8feb78
bf92bd41
3f76c63e
3f31f31d
3f338b64
bf648c61
be990be8
3f237e3b
bf295449
3c26ad75
3d9db701
bf218118
3ef168cc
3f801af5
bfa16879
3ed88b0a
be031b6a
401067c7
be330bfe
3f9f2570
3da3b782
bf0e800b
3ec1db53
3e6b1e69
3f98de7f
bd8316f9
3d9032a9
3e2f1c6e
3fbdf8d5
3f8a5392
3e888b0f
3ed00623
3fb59079
bf9f3f16
be09f84c
bfc9961d
3f20d03a
bf90bd43
beff079a
bf45324f
3e262bd3
bf82f86a
bd01fb86
bf01ae2a
bfa91fdc
3f1c68a3
3f8b9ebf
bfea9d85
be33eb0a
3f57433d
3d9951dc
3fc4bbf9
3e92224d
bfa2193c
bf8c47f7
3fc1c235
bf1660d0
bee9228f
3f01ecab
3e9ab6ed
3ff1097e
bf02b364
bfe69a64
3e857266
3fa1ff6c
bfd5a7f8
bf40d7d6
bf826e60
3fbfb968
40034d33
3fbbf8d1
3f293935
bddd4e51
3fccee73
bf705634
3f89ebba
3e9a550f
3fc9387b
bf867e00
3e96019a
becbbf02
3f8b85ba
bf2a96ea
4006d9b4
bfacbeaa
3ede7f0b
bdf770e3
bdab6610
bee7d208
bfda6ee7
bf018e65
bfd511f1
bf9964b9
be2caabe
bdbc2a88
3d62d3b2
3fbcf074
3e0a9bbf
bf0e4289
3f85fe7c
3eca47fa
3e81f219
3ff1b0f2
bd7a8ef2
bf7a12d7
bfe4a500
be13e962
3efcdacb
3f39aba0
3f6ba88a
3eebc662
bf92d725
3fc0e96d
3f4eaeb6
3ebc6e22
be25711a
bec189b9
3f7027fd
bf906b72
3f2ea8c4
c031b934
3f41f92a
c01841b0
bc720fba
3f408d5d
3e74beae
be9a1864
3ebbf457
3f7a0907
3f9cbfa2
bfbe7ecc
bd943070
3fbb2cfc
bec77d57
3f7c82d2
bffd8a7f
bdaa3a8f
be908538
bf5ace3f
3f5189fb
3dc511d9
3edf6c54
3f90c90b
bfb82ff7
bf6846b0
be8df06c
bf47b695
3f242c20
bfee8741
3ec3c48c
3c84490a
bfa15029
bde84b27
bf8cb75d
bef3a319
bfcb3331
400410a0
3f19cc8f
3fe5e75a
bf8468c6
3f0e1171
beab65a0
bf569a17
bf125b38
be13d829
3d4088cd
bfba04a4
3e6722e5
bf6bfa3c
beb2fa32
c0086476
bf7f6bb3
3faff482
3fa44d72
3ed79602
3f93b07d
3e8c75f7
3e12f30f
3f01e677
3f7e45bc
be63ff04
bf546319
bfa45c1b
bf24e482
bf9c19f6
3ff14fe8
bf8c7ce0
3f31fb2c
bc24736f
bf649b81
3fad19d8
bf680399
3f80a4d1
3e0e6396
bf81379e
3f8eece4
bf562593
3f9b53de
3fedffea
3ff85365
3fbdfca9
3fbd5821
bf977230
bea6cdee
bf92df9e
bf44b586
c0237004
3f70c9df
3eac32c3
bfbf268a
3e0a8e75
3fe8e4fc
be6c3e94
c03bd44d
3f70470f
3f24e9c9
bf24c8c7
3f875962
3e9996c0
3e58299a
3fa50188
be18efb5
3e7d6a21
bf633925
3e859071
bfccc88f
3de49303
3f47fb3c
bd8ef054
40439d67
bfbb98b1
bed007e4
be360826
3fc28b65
bd98afa2
3e00212b
3f8466c1
3f1f7566
bdb0edd8
bef8e61f
3e444177
3fdc9686
bf8855a6
bd6f6480
be82d7a1
3eb22e48
bf8b1ee4
3f4d55d0
3e3801ce
40222b54
3ead06d6
3fdde0b9
3f9a6333
be8c4de9
bfa20fb3
3ef187ab
3ff46055
3fb2e29e
3fad36d9
bf33ca8d
bd451249
3f8a863a
bed4ad86
bfa84f37
bf3c6903
bfd76cf6
bec32ef6
3fe0898a
beb626ac
3f5fe0e5
bfb712df
3fccecf8
3f5b3352
bc85731e
bf58a358
3f5c6a94
be8406d8
3fb3690d
bf718505
3fd9287c
3f12274d
bf027597
3ee53811
bf811e33
3f1121c5
bf9f81c5
bff1f9d5
bfdee952
401672c6
3eaa7e84
bfe63882
3f99a102
be8902be
3df167f2
3f39da53
3ef13da8
3f151639
bfb3cfe1
c005b86d
bf0f8b00
bef7f1fa
be98b806
3f90f700
3f5cec81
3f4a3303
3fc71a74
3f82afd7
beca4aba
3f3e3f9e
be77a4bb
3f040340
3fa0b9c4
c01a6182
3f38f667
3f094b57
3f5c8814
3e810529
3d364f3e
bebe072e
3e6b9a47
bfa729f4
3fb6928d
3f8301de
bf866c91
4019481b
bf27fe32
3e85ec62
bdf8c29c
3f8caca9
beac5d4d
be9e7d32
bec8df08
3f428631
3d56e6db
be8c8f4e
bf25120a
bf24ceeb
bfcb8884
bf2e6d4c
bf22f390
3f9ca3a0
3f684e9a
bf772c02
be933875
bf315b79
bf270c8f
bfa864e7
bf30c227
3f867821
3e6bcedc
3e1afc38
be4099ae
3f339f77
beb0cd9c
3f0ea99b
3ebbc87e
3fc7b017
bde5bc3f
bf02ed94
3eac6503
3f5f12f7
3eaee73b
3d50860c
3e2ff352
bf3e6f56
bf4eb3aa
bfe4a0d8
3d55f45e
3e489f35
bfe75875
beb79086
bf4244ed
3f82618c
bf941917
be91d7e9
bdb3be12
bef425a3
3f192f4e
3fb0677e
3e292def
3e47c94a
bf08e77d
3ee51b03
bf418c06
3f8fb22e
bed5af6f
be8984d3
bf3461e2
c0001d45
3f8dc706
3fd6b45c
bfa47012
be25a968
3f1ce2ff
bfbbaba9
3e028ed9
be84713c
becba172
bf7f781f
3f22c59c
3fc0cc41
bfbfa99f
bfc7d066
bf004dee
3f18e5e7
3f348e6f
be8695b1
bc085daf
3e61cf9e
3ed7babb
bfd74bd1
bf769cc1
3e09dc95
bfe61195
bf81ca2b
3e1106b8
bfae6544
3fa7619a
bf39ab8a
bef34ff7
3f9f84d0
bf1f540d
be5ac8e2
3efd6011
be22c5ac
3f80f986
be1a3ce6
be7828b7
400df200
3f2aefa1
3f18c9c5
bfb72561
3ed0998a
bf1385ff
bdd7516d
bf1df370
bf8f8ede
bff6b4c1
bf0ee4af
bf98f7e5
bf5c1a81
bff388ba
bfacbcbb
404e97cd
3e071e55
3ee8f006
3ea1fc35
bd7d7e3d
3e482981
bf927da7
3fb90c50
3f040bad
3fed91fd
bfe18833
3e9d5f0c
bdcebb71
400a8eb7
3fdbbbef
bedca04d
bf41ce59
bf400df0
3e65cb8f
3eecc67d
3f645f37
3e2adb4d
bd484b86
3db5101e
3e0e2008
3e9f9023
3f1c72bd
ba4d04a3
3f725726
bfd08d10
bf099cf1
3eb523af
3ea2f6b6
bee70a37
400e864e
3f1f3da6
3d2d8595
3e064441
3d9ebb94
3fdc861d
3eae2f85
bfef72fc
3fce3c3a
3f070616
bd884974
bf7d9c45
3e9616e1
bfa6d8ad
bf80f73b
bf091738
3e6cf3bb
bf883139
400c4503
3f6a1580
3e85c31c
bf657ab5
be2accb8
3f3b3d7a
bfcd7993
3fc93fde
c004133e
bcb38b58
3f333484
bf8a96f1
3f794bf2
beb14799
3d52a122
bfde5fa7
bfd96749
be32be4a
bff9ec2a
3f843f36
3ea497f1
3fdfe2e0
bf242701
bf6b5177
3fb9eb51
3e7cfc37
3fb2dbdd
3ee261f1
be6478e8
3e5143c2
400b4735
beb28a22
bf4ddc5d
3d800803
befaf5ea
3ec6dfd5
bb856a3e
bf3f79c1
3e4fabd4
beef7a66
3eed3523
3f668100
bfad481b
3f43b3f2
3fade2bd
3ec28b7b
3dc0e32a
bfb075b6
be23cf2b
3f2d5b7d
bf6a6a5a
beccde3b
bfb128a3
3f53ee25
3fd8ad91
3e83c797
3f0da298
3ecac2f6
3e1d3a3a
bf022f34
3f56f650
be7e203b
3f904788
bf582506
be6aee53
3f30d086
3e72ffe7
3d88222d
bffb5cf4
bea23a30
befdf687
3fd05323
bde9d34a
3ee80396
bfcd8f65
bf818d78
bfcb8859
3f9d14a1
3f2baf80
be6b288d
bf8bad74
bf2ea97f
3d826a15
be900586
3db2ac39
3f771208
3ef179bc
3f0e4433
be2c2fe0
bfb65436
3f6952c6
bf4d07c6
befc8443
3f1a926f
3fa7e384
bd9f6e8a
3f92e8f5
3f3363e0
3f1077da
bf724d55
bff27e35
3efd8137
3fb803fb
3f881729
3f128f4a
3cddcffb
3f179633
be9914c5
beaa074e
bfa3c882
3f5f0ea1
3fbd35a6
3fd147e7
3f19f89b
3cf956d0
3d29b410
bddf2a21
be90656d
bda2c699
3fd0088b
bfbeb7a9
bf2f0100
3f30fe4f
bf2e1783
3b126321
3ff04d6b
bf83e396
3f1b78ca
be2d8db6
bf74dfbe
3fe0b263
3fa2f12a
bfa87e01
bd2d55e3
3fad6d01
be2d3268
3fe946c2
bed1e89e
3f03504c
3f462cd2
bda04fd9
3f8ad72a
3e25b0c8
bffd8c63
3f50fc04
bfcb305c
be503a99
be15ec11
be4f7bf9
3e4de9a8
beeab6b0
3f44c86d
3f4efa75
3f32b4a6
be1cb6a8
bf105d31
bff41ee5
bf2ab63c
bfb2e0e5
bf0e6ff1
3ea7c021
bfa4c647
3f077d7f
3fa7fcab
3ecf7c1c
bef667dd
3f87f287
bfbd2d98
3f1c670b
bf218722
3eae6da0
bf0fbeca
3f7fed82
be5f8338
bdc37871
3dccea7c
3e790b56
bcabb146
3fad679f
bf8f1d2b
3f9120fc
3f1cf99f
3e8ba5cb
3f15c109
3fcb918d
3fbab7e9
3fb97127
be0502fd
bc2672dd
bfac0b29
3f81df29
bf725638
beac9bc2
3ddc8b9a
3f8eca1f
3e210860
3f9b6f01
3f05ed52
bfc3c81f
3edc306a
bde40faf
be75ed29
3f0be9e7
3ecaf82d
3fb5942a
3fa5c7fe
bfbf67a6
3f99df25
3f2185cb
bf228459
bd89560c
3e638d03
3ef7456c
bdc2b55f
bc8401f3
bd8d3aa9
be97b77f
3f9e6682
bf834509
bf72e0fb
3f1ef548
3f90a4a7
3f06dc6f
bf9809bb
3edec6dc
bfc25787
3f3e89f2
3f591792
be306f1e
3f3e426d
3fe4f1fc
3f36e152
beb5f398
3fc049c4
3feb86c8
bfbc7743
3fb8fd74
bedf57dd
bf66bb18
bfbe78e1
bfae3780
bfdc9c58
3e5ad9c4
bf530a3c
bfe4cc99
3ef2cb35
be92cfb1
3d8ca8a0
bed5933d
bf1515ec
bd5d3f53
bfbd0a34
bdd7fcab
3f0b3601
bf564053
3f6f645e
be7fb27e
bc3a1d30
3e6fad68
3f57b25e
bfa30c61
3f34bcb0
bffb71f8
bf149298
3f30c352
c02f5286
bf1662ee
bdfe88b6
3ea92f6a
3f4e7961
bf997279
bf62f2ba
3cb7e5b3
3f50a38c
bfe2a447
3fb48451
be36fa02
3f29a8fa
bfe21a64
bf866234
bf4a29f2
3f59f14c
bfc541a0
3f95d399
bf06b43a
3f65a031
3ecd3a70
bf662a0b
be7ffe4f
3eec1420
bf82f798
bf1772c3
be1785c1
bec14fee
bec23eee
bc90dc72
bca22f0f
3f34cf38
3ee9d8cb
3f99c8c1
4036868d
bf93257f
bf3513e3
bf82a227
bde9959b
3e23adab
bea46ed0
3f8fdff0
3f7c2446
3fc0243a
3ebebd7d
beca36bf
bf697934
bfb176b0
bf36879b
3fbc4c35
bf9cf6c0
3dfdda8f
3f5dd842
3f644973
be4b5e16
bfc0afff
bf76f2e7
bf3b6ab1
3eaf5255
3ee99a15
3fa923ba
bf87b31c
3d33538f
be664a54
3df88ead
3de21760
3f58cd11
beda178c
bee97fde
becda60c
3e0b2eae
bf0b50df
bfb06c4c
3ef76276
3f24cf8b
3f2d633b
c012a2a8
3f387e04
3f5b9cdb
bd21051e
3fe2f4ce
4004981a
c02061b0
bdfd27e1
3e482d8b
3f7cb6da
3fae6392
3f03254d
bf0d8bd8
3dbe1422
3f521a62
c010b13e
3fe37779
3e18afa1
be848841
3f57edb5
3fa3c986
3f0d7837
bec905ed
bf75ed15
3f0fae42
3e9c3b98
bf011043
bea6930b
bee6abc3
bedc4d32
3dd2cce9
3ebad166
3fa41518
3f3aa987
3fc97344
3fa42592
be84d275
3fb77310
3f9a3e3a
3e865d53
bf82e636
beaceebb
bfb0292c
bf179a08
3e483c75
bf2a68a8
bf7800ae
bed1e5fd
3f0f7637
bf094c17
c00b0293
3d4b8856
3f5e5819
bdafb7c0
bf4caf6a
3f89759a
3f728849
3f3d8c8a
3f418f32
bfab782b
bf38bd59
3f1f3789
3f5741e5
be45e346
bf25425d
3b754f4b
bf8519e8
bdc1f31e
3f8b5ba1
3d9fcb17
bf56e8b7
bed54db4
bf5c8215
3d074074
bf145aef
40124eec
bf8f4b4b
3d152b94
bef2ae37
bfab8faf
bfdd457a
3f98ffac
bfef276a
bf74f7c0
bea3289f
bf1c29fe
3f31f75e
bedfc995
40337117
3ef3cee7
3df9af7a
3fa32677
3f63ced4
40259f2f
be6e7b98
c0413dd1
be6e6d8c
bdb3d8a3
40173963
bfd4d5fc
3ef9974f
3fb9df0a
bf411c43
bd43cf52
bc436fa9
3e94b007
bfc98cd2
3efa340b
be50a752
3f895cef
bf8d7498
bfffd886
3ec695d3
bf6ad5db
3f9c83a9
bf2886b4
3dd59cf6
3f19935e
bfc7e305
beae51ad
bf36d223
3e8d2c9a
be1364c2
3f03bf3a
3f90f229
be2d48d1
3ee20801
3f31c657
3f846a38
be70cbf3
bf44b3c0
3f2d4068
3f8633e0
bf5a9a28
bf666137
3f131391
bf4a799e
3e827852
3fed9e57
3fc72559
3ed162b4
bfaf4720
3f937f37
be4f759e
bfd8c804
40092f97
3fd405af
bfb9b6ed
3f21f13b
bf764f39
3f4a4a0f
bfc3d1c8
3fa9e492
3ef9ac2c
be872be7
bf5a3933
bfc7397c
bf861d49
bf40f76d
3f35c0e3
3f9e5370
3fa0d7a7
3e314750
bfbae77f
3f9d4e9f
bf55670b
bf1f1723
3f2af330
bf72cebf
3f9f9ddd
bfeee73e
be5fddea
bf340e4b
3d74add9
3cdfa969
bf74ee31
c0083161
3effd176
bf80a71b
3fdaa6d2
3d10d35c
bf744bd8
bf85e8ff
c006395f
3fc12831
bef8a49f
3e7b11cc
3fded54c
bffeb4d6
bf725370
3f729bce
becd59cc
be7f8796
bf29f060
3eeedc88
bebfaad0
3fac9f57
3f57f5de
beb2cb28
bc12a980
bf0f6b6d
bf1e98be
3f979dfe
3f997828
bf3ee999
3f95a194
bf1ce5ec
3f611a15
bf360b7f
3fc8c4de
3f9d11ba
bef47c78
be2b906d
3f0895ae
be2621a2
3ef1a2ff
bd7520f6
3edd3ffa
beb9e17e
3f238cc1
3fe0650f
3f07ab7e
3fbca668
bef12b3f
bff279b1
bf82ccd9
bdf98ffd
3f712f10
3f7d4d3a
c0133931
be5b2b74
bfa317b4
3fbe1535
3f37379d
bf6d9d77
bde4d88d
3e2f4065
3e410766
bfc524d7
be81cdb7
3f2075de
bfdc64a7
bf939790
3f934489
bfd7329b
3f4d0856
3f3fc335
40222eec
bf9669f1
3f533f87
bf87daa7
3e8a6da9
3fcf5297
3e4af279
3ea5a202
bec49529
bf90585c
3e34c611
be4119e2
3f71306b
4013b409
bfb851a1
3f7ea62b
bdf54476
3f840951
3f66b187
3f87764a
be13bbdf
bf1c0651
3f2b9206
3f2a797b
bf4bad7d
be663318
bf2298e5
3eac8e1b
bf3c9340
bf03f937
3f66a029
bd86f880
bfb0adf7
3f705bb7
bf1274c0
3f861b92
be99bb21
beb83b8e
3f017e5e
bf3a452e
bf3a73f1
bfc00b67
bf1f4913
bf6bec08
bf2eb6b5
bfc536f3
bf0e6ed6
3f37dfa7
bf058ff5
bfac14b1
3fc0f90b
3ffb8fc2
beabb604
3dc2851d
3dec9a8e
be260d27
bef3f171
bea96ca0
3e0faa83
3f809f7b
3f698588
c0010fca
3ee505a4
3fbf20ca
3e604157
3f824a41
3f8ffa7e
bed4a2f3
3eff87ed
3eb21332
bed1c501
3de75847
3e6b483a
bf4b600a
3fbfea1c
3e918c92
3f7c75d1
bd7e07bb
be3568fd
be4e9744
bef4a516
3f675db6
c0201170
3f8be8fe
3eba480c
bf8921e6
bed0b947
bff898c9
bf453291
be4041fe
bf9ec76e
3ffca588
be660cf8
3f425062
bfaa829d
3e144b47
3dc9b04c
be978a7e
3f208d4d
3f44d0ea
bfab5f8f
bf693b6b
bdd8ef2c
be3d5b56
3e9378c8
bfb6a613
bfa5c28b
3ec636f4
bf0daf33
bfb798e1
bea1e337
3f8757fb
beca1d9f
bf5ee1c3
3fd18b9d
3d1712e3
be4e3340
3e6ddaa4
3ea834e9
3f7775e0
3f1fc2e9
3f03f29a
bf1d00dd
bfcb697a
3d2b33b3
3fc9d97b
bfc672da
bfd61401
bfc01675
3e0db85a
3e16f660
bf1be72e
bd835064
3da20281
3ef24c10
bf3a7036
3f719d6d
3f130e17
3f634599
3f823c8d
3eaefa9c
3e61e596
bca220f5
bf38cfd2
bede7d2a
bf02d974
bdc32614
be13ffaf
bf3330d1
3efde4e6
bfb0fd2e
bfa98582
3f59a200
be81290b
bed71bcb
3e8aaceb
bf8f94e3
3ecd728e
bca17f75
3f836e77
bf01bb3c
bef7ee6e
3f84732d
3f5b89c7
bec6ed29
bf970410
3fcfe2e0
3f26f6c2
bf8c68b7
bfb8a89c
3f2f3a35
3f17ecdd
bf509b7d
bd983e4a
3f17ed28
bf60dbe9
bf1f5b27
bf9cb49f
40047b70
3fa3d49d
bbffbd92
bfa71443
3e5f0fe6
bf9061ad
bddc4adc
bf819c9c
bfa15fc5
beceec5f
bf164c14
bf424537
be8f08d2
be877b73
3f3fa5bf
3ee84b1a
bf33f028
bf57f17a
bfb9955a
3f0b0f6b
3ea93dde
beae29dd
beb24d3b
3c8b7800
bf8eabe2
3da29e74
3f8196f4
bfb48cba
3e2ea20b
3dd7bcf2
3f9aeaec
bf84f196
3f814ee4
3f075615
bea41399
bf1b405c
beebe9f6
bd097226
bfc4b9b1
3d895266
3fde4d73
3ec8d07d
be6cb6f4
bf3e0fc1
3f780a72
3fb53219
bf588260
bdab6e5d
bf05a97a
3f161ef9
bf50dee3
40045383
3ebe693b
bf3de724
bf881390
be604674
3edc75e0
bf671244
bf33d92d
be719fb6
3ec662b3
bec6ed15
bfce96c6
3eabb156
bd5777ab
3fa9b859
bf3a0192
3f7e2da0
3dd703c4
bf1a4d7b
3f969d19
3e71534e
3d085403
401c25a7
400f22c0
3ff94d47
3c456f09
3f0957f1
bf3a5dea
3e53a571
3f4b20de
3d9b8f26
be63275e
3f3dce2b
3f55c065
3d9216d7
3f3d7a1c
3ea361ce
bf2fcb2d
3ee13c86
bf3742e9
3f42b110
be73f0e1
40300a3e
beb62445
40037a7f
3f0d9ff1
bf0321a6
3f0d572a
3e8a71ac
3e8db3c9
3fdcc4e4
bf2d0030
bf33a899
be569554
bf1fae6f
bf1a66eb
bd9a8883
3e913773
3ff8d70d
3fa7828e
3fc16111
3f37b419
bce9b2b8
be8b8b47
beae2f18
bd6c164c
bc018c1a
bf054377
bf2c4093
3f3a62a7
3e607f4b
3f2e218b
c0078890
be924a32
bf724d13
3eda2a30
3da02c30
be27beed
be5bb662
bfba6a3c
3f4b425c
3f03c155
3ff30222
bfa5fb12
bebfe7b5
3f2c4910
bec8191b
3fcaccb9
bf49ad14
3f7d967d
bf46e6ac
3d44cfab
3fc98b4a
3f85eade
bf892f17
3eb453ed
3faba992
bf3ac419
3d930660
3ec01c13
be40702e
c02d8126
beb1c4fe
bf524731
be1e06e8
bf8aef58
3ef9e7b1
3fcd0890
3eabd958
3f92569b
3fdd6567
3fd5e38a
be977717
3f176dfa
bfff3511
3f0a692f
3da4b184
c022de83
3f3fd91d
bf17ba17
beba2581
bf98d6d2
3fb37160
bf32d475
bf48e23e
bfc61478
3f06d65c
3f8c071f
3d850ea6
3e8151f5
bdbd413b
3cd11b7f
401032f8
bf08926b
be91afe3
bc702668
bfa26ecc
bf8edbad
402456f4
3f814c07
3e445b76
402ad1bc
3f02d0d3
3e90e31d
3fb36786
bf031407
bf0c3cae
3e0e8059
3f1a6306
bf91d565
3f26ca81
3fae1069
bf807c7a
bf62977f
3e969417
3ea6f10b
bf56a03f
3f4cdf68
3ed4aa8e
bff36fca
bfb953e5
bfadca34
3e82edcb
bd337a2a
3fafdc51
3fb38f5b
3f0d3c6c
3eb8b9d9
bfd2c6be
3f087856
3d441793
3f3c4011
bf8c357d
be7b2e8b
3ef4d2fd
be911206
bf9da97f
3d4e1d77
bf539c9b
3f9d5891
3e8c3852
bf7b3689
beeee85a
bf869de3
3f444b5a
be13db35
be5bbbf6
bea9cc32
3e460cf3
bf67de4a
bfdd7550
bf4e4609
3f92a482
3ee29674
3d6e27c1
bfae04db
3e779818
40055337
bf97c6b7
3f179428
bed475f1
3f505d62
3f8ef09c
3f05ebac
3fbae815
beb4fb8c
bed5caed
bdf758bf
bf1c3120
3fe166d0
be643cb1
bf8b4df8
be876ad8
bf365beb
bf937b06
bef2eafd
3f8c8595
3f1fb385
3e3e8db1
bff7ee3e
bf8cc9c8
3df0ce65
bef1a4c8
3e93c411
3bf384fa
3f4977b6
3f169f30
bf8ff0d0
3f0131a4
bea8dd9a
bf9a229c
be77fa2c
be28b7d4
bf668936
3ef6261f
3fa8b2ad
3f37bfb2
3ef642c3
bf6d7eaa
3e94064c
3eef8cf6
bfd5e6e4
3faa7870
bfb4066e
3f5642bf
3f3310fe
3f26b51e
c027032c
bdd70368
3f1a7e0b
bf436538
bf0ff876
3fccb693
bf4e6173
bfd54b49
3f4346db
3f45ff89
3fb2ec57
3f8d82bf
bf00c695
bff4199f
bfb67630
bcd4d281
3fbe8a5d
402ac193
3ec8c22c
3e29b36b
bcf5e00a
3f240633
be8fa40a
bdccf28e
3e3fa141
bff9a526
c000dd8e
3f9b3fc3
3f20d913
bf2dde10
be851119
c005cdb6
3fe71216
3ed186eb
bc78e533
3f8c57c6
401e762b
3f203361
3f97a919
bf75fa87
3efd5d2b
bf553b4a
be57c005
bee0fd39
bfba9264
bfb93b32
3e6522ea
3f16edb4
3fdb0bef
3f5f10c0
bf8d68a7
be1da13d
bf15106f
be3de2ce
bf233c3d
3f0dab8a
3ee1000d
3f74adbf
be4ef331
bf27266d
bed6a33a
3dfb52ad
bead8a96
bd2df93d
bde7a5d9
befc864d
3ea7302f
3e6544b0
bf6b3ce9
3eb133ff
bee3113e
bfeebd0e
3d38dfe9
3f0f62c7
3f64daa5
3f099a7c
3f091c7a
3f913cd0
bea5180a
bf09ea67
bf20f5e3
3f614105
3f849e40
3e030a0b
3eefaaed
bd41601f
be08e13e
bf99c9ec
3f588e92
bf108b80
3f8167b4
3e4d32e1
3f8f16be
befdd22f
3f338d0b
3f124789
3e0b641b
3f07ee60
3e353e53
bf4c4ceb
3febf43f
3fa4632f
3f4e894e
bf0c20f4
bd26cf56
3ed7158e
3f2659fb
3f7b7467
3f2f4a26
bed4e719
3e58e3e0
3dee03ce
be830a37
bf714476
bfc13b89
3f340ec5
be3cbe25
bfa5acf7
3efe62a6
3fd0295e
3f104d58
3f8d3008
bf66be3d
3e32bdfa
3f82893b
3eb02da0
3f77c9dd
bfbf866e
bf242e7d
3f2b7d55
3eb61bc8
bec786a0
3fb06fe3
bf0b6966
3eb21cba
3f9b3ce2
3f2c2b2a
bce8d83d
bf4d7574
bf239a08
3e6b21b9
bfc7e7a9
be5ea2cc
3eb28a19
3ef76b18
3f9bf87d
3e90547f
3e0700a4
bee83e04
bdc8bebd
3f5aa24d
3ecb3b7e
be08874f
3f59474b
be196c3f
3f32ccf4
be06a9e6
3eebb574
becc6528
bf36eb7f
bf9556da
3f72d30d
bf2686e0
3c98a178
bebf6c86
3e78a172
3fa1b7ba
bfc7abd6
3ed9bd1d
bf677a23
be9ccfa5
3e146172
3f1f307e
bc63d4d3
3fa0f3d1
bf47b58e
3f7922c7
3f76ba8b
4019d031
bf439740
3fe1ffbc
bf8a5451
3f332ae4
3df8dcf5
3f542116
3ea0d43d
c033331f
3ff5785f
bf69bbb4
bdde39e9
bf07f29f
bfb77c2c
3f5d5bfe
bf73fee0
3fcdea13
bbfc7bef
3ff68c2f
3f0cae52
bd75b608
bf597964
bed8215f
bf01238d
3fda15e2
3ea4f506
be58e35a
bf696d5f
3ff88c36
3cb3b11c
bfa8a2c8
3d3869ef
be7f4b21
3f58cd4a
3fbf93ab
bfc6e092
bf2db6ba
3fd3dec7
3f42bd66
be3327d0
3f2da67d
3ea7d1f0
3e1e4cc4
c00640d1
3eb1f702
3f10b654
bfade24f
3f73fb1c
3db356c0
be0a57e7
be862937
bfb82b07
3e3a5cec
bf85e811
bf28463e
3e8e465b
3eac9dfa
403f8499
3e77f49f
bf6e877c
3f7e6762
3ffb2bd1
3f234d22
3e89c99a
beac8fdb
3f173165
3f70c925
bb1ff97b
be863ad8
3eaa1c64
bf77077c
3fdef36e
bf32182e
befb4054
bf72c121
be7437d5
bf966ce5
3e355460
3e9db9ba
bdbd09cd
3e6741dd
bea2dd8f
3fd1d30a
bfb24d3b
401b24d0
bf508af5
3e9ee9bc
bd8effe8
3fb935bc
bea01d65
be0d8757
bff14fe2
be3aca81
bf87085b
bfdd4b60
bf0a9a4b
be0bad0e
bf2944d4
bf334190
be93e001
bf9cdf13
3ea02e46
bfa047da
bdd71744
3de38e32
3e9e95c3
3fc3e995
3e613ea0
bead2164
3e86005c
3fee2ebe
be864394
3ee46bf5
bf7dbfca
bf8c29aa
3e841b3c
3ef43b73
3e500cb9
bedcb312
bf4bae98
bfad0d78
be82679a
3fcdbd35
3f0e7d40
bd99c367
bd642262
400a56f5
bd5a9351
3f2f6bdb
bd197c3a
3e9f7086
4018a16c
3e26d007
bf62579e
bd64452b
3dc570fc
bebdbe4b
bf27360e
bf9819e5
3f92e4ad
3f3baeff
bf373abb
bf907d5c
bf8e6048
c01f0780
3ef317ed
bf3ff8f5
bfeb011d
bf6f88f7
bf12c63a
bfd8b3c5
3eeb1c40
bfc3c9c4
3ef95f11
bf675e41
bd1a92be
3f81160b
3e05a6eb
3f1609fb
bf797abc
bd43dd3f
bfe06965
3e082316
3eac4b40
3e8767a3
bf98fd5b
3efa385e
3fad1256
be8a71a6
3f650684
be798887
40039385
3e8cba81
bf78b4d2
bf91329f
40007c42
be0135e7
befc3c24
3f343a8b
be7b8dc8
3e8ef614
bf20f6df
3fc3eaa5
bf8bae45
bf1294ef
3ec07231
3e9dc990
bea5ea55
beee8041
3c0353ad
3eaebeb1
be108b10
3f6364ef
bf10bdc5
3e96898d
be9829b4
c02eba44
becef7d5
be1938b9
bed08f21
bf12c766
c012ada3
bfbb20f4
bfdabbf7
3f97f1dd
bec9587c
3fa14b89
3efecf2d
3dcbad95
be9bda44
beebc272
bf4239a6
3fd3d398
bf1fd7fd
bf38b5fe
3f9dfa68
bf5317b3
3f23f275
bf17cf69
bd109740
3f30cc9d
bf0367a7
bf40d067
3e596936
3f424acf
3e4fe643
3e3cbf41
bf0d1566
bedfadb7
3e64beb7
3e3b6df1
be049c19
3f9af65f
beb9cb7e
3fe3d4f1
bfc3b311
bfa3365c
bec37516
bfbcb09b
be26c3fd
3f6d4013
3dfb4aa0
3fee753f
3e72156d
3ec51187
3f246ba4
3f765594
40069977
3e967f65
3e7f8c83
3d70c2fe
bf893b29
3e837e76
bf0d4fff
be1efe5e
bf68d6ec
bf1e9e74
3f7e5614
3dd7cccc
bf27207e
3f40ce61
bc0e8ca6
bf884ae9
3fb11781
3eab20ff
be85ae6b
bf898158
3f19d187
3f42ff14
bf3b2608
3e9a6078
3f5aac5b
3f61c528
3f581b51
3f2edc50
3f18382e
3f6d715e
bfc07ed2
be4ed1a1
bf10a21e
3e4497e2
3fc3ea7b
bf939bb2
bf321140
bf10e9ac
3d99acf0
3f90c67c
bf1d9774
bfc7e439
3d8f4885
3d9af9c8
be34fece
3f921029
bf851c2e
bfddd48a
beade95a
3dfb1d18
3ee668a1
3f0b400c
3e78956b
bca98995
bf36d198
3e90f904
3e3f02ce
bef1c54b
be168111
3e9e227d
3f224e6c
be291a55
3e938e89
3f19b954
3f1d3ca6
3fb5198b
bfbf5c8c
3f340e99
3fb4d39c
3fb4f2e9
bf1c46a5
3e6b67a2
be4fc0e3
3eb5eddc
3e5ac69e
3f813471
3fc5aecb
bfac0417
bfd89f9a
bf52c243
bf8ebf9a
3f1e4e02
3f114ce0
3eb34a95
3b4b05b6
3e11dbce
be37023d
bf8bdc29
bf695af1
3f074d44
3e1f8a0d
3f18bb0e
bfcc4a2b
3f8ee266
c0074196
bf13ef05
3ee56ded
bf48fc3c
3f7e81a5
bf7a0976
3f0e923a
bef0a0ef
befb50d6
3f70852d
3e8ce84f
bf8bc048
bf0aa0df
bfdfe1f8
3f19e4d9
bfbb7b0d
3e5cbf54
3f767337
bf65ed90
be4475a7
3e8fd41e
bdb881d4
3e4073ae
3f1adca0
bfd2b7ae
3ffc757c
bea4f6ed
bf39fe9a
3f504310
3f53a5fa
bee5a41c
bf49008d
3d53b868
bf3d3b46
c002214c
40138b7e
3e92e44b
3f1c8e66
3d4cf00d
becdd82d
be2dab59
3f29265e
3f83f032
3f105353
3ed441ec
c02ef39f
3f9f951e
bcb9aff6
3f458c0d
c004ea0e
bf26e0c0
3fe2099a
bf4d79e5
3d49eda8
3fc6ce8c
be9441e3
3ea42343
bf9bfde0
bf72ff77
beba01a8
3fa09cfd
bec78e6a
400dfe72
3f6e6880
3f743015
3e0e3f5d
bed679e6
3fb1a0b6
3fa13a3e
3ec3b2d0
3ef8d568
3dcc58d6
40128996
3f5c1f1d
bf6c4e05
3f83796d
bfbd7225
bf4bf52a
3f814c27
3ea54126
bd42f9d7
bf08cf51
3f103897
bd1c2ee1
3f422f9d
bfec3437
3e9e261d
be9368d3
3e86ddf9
be50236e
3ecf4fee
3efd8640
bf12ac62
bd83d776
bf0ed3bc
bfa97b6b
4022a367
bf2dc03a
c000c607
bdc4f43b
3f46fcfc
c052feb1
3f75d90b
3e8658e1
bf9c3ada
bf7658be
bf497f27
bf1b6a8f
bea388db
3ef1f45d
bd9e5f26
bf592f8e
bcfe99cd
bf4f89a3
3f5db7a9
bf377e58
3f033439
3e8ca1c7
bfedddef
be1f5267
bfcff4de
3feb2d5f
bf61acf1
3f57f918
3fc96557
3e667d7d
be1be7c0
be35505d
be0ca299
bf53366a
3fa7216e
bf01318a
3fb793db
400a5daa
c0409879
3e821e22
3f5104a6
bf007a2b
3c9dd37d
3e558a8d
3f2f3dac
3f0bfd87
bfb62d62
3f01d7f0
bfaa3d62
beab5e32
bda78c8d
be94e84e
3efa4d88
3f7b0d95
3e941808
c0146f45
3f794b60
3fb20a03
3f232f39
3ea9c8fb
be46298d
be8298f3
bfbd8541
3f97a480
3fff5495
3eeb75ab
bf4f9afa
3f9ac2df
be12df67
3dd6e51f
bf17a84b
bf514ae6
bf0acc76
3fa8b7d8
4000a9f7
bf49c2d0
4029cfeb
3e6e3097
be3b646b
beaa6629
3f7c8a02
c00258a1
bf418943
bf272fdc
bdeb44e8
3ef4b395
3f564b22
bf0f7f9e
bfce3e1f
bf801df4
3f7e4547
bee3643e
3f54ca63
bea1936f
3d9cbfae
babdc2fd
bf1d8860
3ea5eb8d
3fb84eb3
bf5f2ec2
3ee92f3a
3fe12056
3d984a5b
bf4ed425
3ee9c072
bef37f00
bec5b411
bf51fb1c
3f06e53b
bf8a8802
be8aa37a
3ee6f891
3f33df47
bfd0b0c4
3ea9d750
bfd96e47
bfcc23ca
3f5069a0
bf287bb0
bf33abc6
bf979ae2
3fe5b7f3
be83ba34
bbd38585
3e8a79f7
bf8c6134
bfa29254
3fa2c27a
3fd38639
3c384b1d
be5092fa
3f57c95b
bd7cd075
c02af417
3f05ed84
bf18bd70
bfb1a2f0
3f9dd9fa
3e9db742
3d549aab
bfa6f161
3e86f67a
be7b19ac
3f0152d0
bfc61359
3f13ba73
bee55e42
bf5a1a0e
be9420e6
c000263e
bec0609b
bf3eaddb
3f2ec6fa
be52c08b
3f02d8ae
be180e01
3f7b88f2
be59e194
3ece537e
bf905930
c04f3cdb
c01f93f5
3f7ba808
bf6273b0
bef449ff
bf804a4f
3dc8b07b
bfd82b74
3fca58fa
be7e5495
bebcb18d
3efd9618
3ed8f4d2
bfe24b61
bd9a3e77
3dd884f0
bcbfc2df
3ecf5a6e
3f4fd965
3c3ad834
4064d032
3eb5709e
bb020d88
bf252782
3be125fd
3f85b84c
bf551ffe
3e75f12e
be6f5f34
3f9c3b08
bfb4a010
bfc9b02c
be21a6ff
3e9baeb1
bf60c1f8
3f60c00d
ba27f947
bef954b1
3f273cfa
bf375686
3e737ab3
bf5a653d
bdf0dabd
3e3fc29c
bd9843cc
be501373
bf886e10
3d80c481
3cd8137b
bfb0f4cd
bf5ef8eb
bf92ee5a
be9e7aa7
3ef3d2b7
bf8013d0
4000eb90
bf022f35
bfa55435
bf899bd7
3f1c8792
3f1d613d
3c82b133
bcd0f3ef
bf2ef04d
3f89158d
3f82a29d
beb155bb
3fafed2d
3f873a72
3ee153ee
3fe97485
bd51e360
bf46f6b1
3f66bed3
3f805708
be0f26e6
be36ac34
bf1d828b
bf872d07
bfd07000
3d90a967
3f6ae56a
bf8d53cb
3f3abf51
3bb4b1c9
3f766e48
be891adf
400e9a02
3f2aa00a
3eb56783
40354bac
3f4f610c
3ea03609
bf0fbf98
3f36173a
3f390ee0
401cd18b
3e93868c
bf819105
3fce9eba
bf920a13
bf4beac2
3ee22618
3f5fc2d4
3ee1e294
3e202b89
bf275345
be2bf89b
3f5de270
bcf6bc67
bf72663d
bf29c94d
3efe825a
3d9965ee
3f5e1341
bfb9748d
3f2638fc
3f14c45c
3eadbbd4
bf073ba5
bdc6c5ee
3e8c1841
4006746e
3e3ade4f
bfbe74e7
3f7955f6
bfb5d18a
3dbe6bde
3f93511d
bf2fcf96
bfeeaeca
beff81a3
befb5e77
3edb9e59
bf1f4aee
bee6e82e
3f0535a2
bf0fba82
3fcb09f3
3f3a9b55
bfa2dcbf
3f844cc7
bf6bb27e
3fc2d2ba
bfbacfab
bfbe5e41
bffe9bbf
bf534a3e
be83148e
bf0c94cd
bf77ce2a
3f28292e
bf3d219b
3f753247
4006136a
bf69aa83
bedb78f1
3d667437
beea7ab9
bfcdd747
3f4fe262
bf6e7c8c
3e7d35c5
3ec4ffae
3e60ddf6
bf4f63be
3f49fd81
3d9bc7f9
3f92701b
beea6b97
3e276fe7
bf54bbaf
3f831037
bf693767
be0c54ba
3cd4116c
bf8b56d8
c01ccb71
bce8a3b3
bf83f9e8
bf29d645
400d0bc6
bf8c1f22
3f9e583d
3ff63061
3fc94f88
bfb3e78e
bf46f6b0
3f4a34fd
3fb92a89
c00fdc57
3dd03ec5
3e52c1be
3f37f130
bf84ce43
3f1e9787
bf9cad2b
3e9a90ce
3edbd5ab
40102a61
bf28e3f3
3e9dcb2c
bf0c9c87
be99e49d
3fa87e77
3ea02162
3feb6230
3ef21ddb
3f1dd901
be7adf51
3f03ebb0
3eaeefdb
3fcfffd3
3eb4d184
3ee31f19
bf9ab2a2
bf577ef6
bf1ebc78
3e2c7e5a
bf0b0354
bef50b3f
3f55aa04
3f2ea499
bfa9291b
bf996113
403be24b
3d39d6c4
3ed052f4
3f993c1a
bd5378ac
bf7b789b
3e244d1a
bfa4457e
befd16d9
bef38e18
bdfab3d6
3f45f7c8
3de1e49e
3e047c50
c0191a80
bf841906
c00345f4
bf21492a
bed3d34f
3f8f60c8
3f305876
3fba3569
be94e640
3fa2484b
bed0d46b
4000f2b7
be263afa
3fa08982
bf8811a3
3f397c99
bfaca932
bf374ce6
bf3b1107
3ff25344
3f2bf80d
bf540c79
3ef4a85e
3e2fdc67
bf24fffa
3e3f3cfb
be69eb55
bfb4bd86
3f833365
bf931bd4
beadbce1
3e811d44
bf34a387
becb0f58
3c1470d0
be0486df
be175056
3f22ac57
3f9dd1b1
3f931c48
3f792828
3f225ee5
bf43dbb0
bfebe199
bf9335e9
3d40fee2
3f7e28af
3f74b587
bef7438f
bef2c95a
be483669
3f5bbac4
bf373e4a
3e2011c8
3f58ae0c
bc23047e
bfcf2af4
bed7558b
3d9f8d9a
bf056817
bf237ec0
3f8e73ff
bf8f766f
3df90842
bf39649a
bf03cb88
be9b591e
c00e0c41
3f24e30f
3cfb3113
3eb907ca
beeef7c2
3ec55b3a
bf949126
bcc8b7e1
3e8c622e
be791818
bff7f9e1
bf0ec09e
3fe186d1
3fb5e0fb
3eaea809
3e390859
3eb76988
3ef97aa7
3fbb80e6
3fa36371
3f84d01f
bf6a3b39
be97a498
bf00fb38
3fad91cd
bff5f2ac
3fa35df7
bf9bd6e9
bf9d2187
3f09c039
3f604b58
3e78b59e
3f871e74
3f226e9e
bf4f1971
3f96228f
3f5e3354
be950acf
bfa22f5d
3fb1c06c
bf990334
3f174e2b
3f124521
bfe47018
beeedffa
be86b2db
3f644303
3ef6a693
3f0f9625
3f155b37
3e2e2a53
bfbd1789
beb09483
bf2bcbc0
3e1794e7
3c85718b
bf3b5e3b
bf05653f
bfcdb942
3f83d321
3cfa3fa0
3dcc04f9
be71e706
3f1723f9
bfdc4fbb
be31dd3c
3e3e2126
3e503ae1
bf606b8b
3f6fd43e
3fd13a0d
bf4d570b
bf9617ae
3ea88406
3f8251ed
3f8e255b
3e7ff8bc
bff1131c
bee95ada
3f5015bb
3e77778b
be914407
3e9f4151
3f487198
bf561ee5
3eeb48e0
be5cf0b6
bdb0266b
bdaca50f
3de8f161
bda61863
bc0d4356
3f48173f
bf0f3ed6
bf2c976c
3c81d1ba
3df3fd13
400041b0
bfbb53f7
c01dcb70
bf824d83
bf23f624
bf2e2395
bfb85fa0
becb51cd
3f33d7f7
bf52b45c
3dbac545
bf0b740a
beacbc27
3ec5b0b4
bf52827e
3f860fc6
bf61efbd
4036db30
bf8ce352
3f4ecba7
3f3bdfa3
3f1111b7
bf247fd7
3e75b0f7
3fe7d50d
3f3b2b34
bfbb4c92
bf90d6b8
bfc0c283
3f3ed804
40124edf
bea3bdbe
bfb6d3b0
beef6bfc
bf542715
3e239f03
3d902c81
3f06fb21
bf01156c
3fd4cb15
bb3b5831
3d70b5ab
be0d7614
bfd2ad39
3e3e29f2
3fb8385a
be765b24
c00f0034
3fb1e16a
3f9a1702
bf8b4bf7
3fa63645
3fdd8e20
3f02fc5e
3fcacc74
3eeb1d45
3cea5bf4
bead1d1b
3fc56516
becdcadd
bf1ae930
bf0ea6a4
be73473b
bfa4bacc
3e8156f4
3f2b1b9f
bffe04d9
bf087c92
3f054d34
c00134f5
beb85664
bd33e436
3e21e151
bfa3a2b2
bfa73685
bf57354a
3e75af2d
bf1c9060
3e3187df
bd9256e8
bf5e88c3
bf8f2ee6
bf17ba3c
bde77570
3fb46b48
3f52e9ba
3f4d015f
bfa4820d
3eebeec1
3e53c047
bf73c561
404c6254
3e2def92
bf992b06
beb9357c
be1ed4ed
3fb2d3e4
3f9239e7
be995270
bf2c1165
bf056bed
3e9a97d1
3f97b23c
bf25455b
beb0a88e
3ef0db02
3f15a8ac
bf36e1a0
3f0cda9e
4001f089
bea98ebe
3fab3a0f
bf6c3918
3e345c7c
be0c483c
3ef6de31
bf962dd0
3f573dbe
3edf34f6
bf483d1f
bee4dbbf
bdbfee81
3cc69559
3f8ba609
be937067
bd747573
beadd09a
bf2f6f7c
3fc59ad9
3ed1c19c
3e5f2565
3fdd9f56
3f13a2b9
be5fefe9
3f281a54
bf71d17c
bf27d57c
bfc95e34
be8da193
bfb63a59
bf0b14ec
3e66eeb9
bf0c4c25
bf10083c
bf6d35ba
be8e57ca
bf8291a4
bfb57285
bf2b189a
bf2d59e7
bf5c0155
bef33852
3e88f03b
bf19ca82
bfd60148
3f6ff131
bf95ba26
3f03a9a9
bffa66f7
bc9d3ade
bf332d92
3fb7ca0b
bf727995
bf3af83e
be145b1e
3f2db53b
3f9b08f1
3e199952
3f99df01
3e85b34d
bf1707ec
bf1e741f
bf50c76d
3f4534b2
bd032ef2
3fd0259d
3f1fa90d
be03b0d1
bf594021
bdf8afce
3f9c6e0e
c01ee3b4
be41af89
3f7d62c1
bf0f475d
bf4c021a
bf2355bc
bf843e10
3fa84d1c
3f8689b0
be92c4af
3e6f32be
3e128929
3dffef00
3ea68a85
c00fdf9a
beff14be
bf0e7da8
40006d33
3eab5e7a
3f49fe1f
bf416f59
3f1f8404
3ef00afa
bf913630
c002346d
3fc06f7b
bdf3ff0f
3e38cbc7
3ea43085
bf006406
3eb280e1
3fd51a2d
c0083761
3fa32eed
bf82f4ae
3f277a65
3d18dcf6
40157446
40071fd7
3f2e7ac0
be79c9a2
3f50f1ca
bf1fd542
bf5219d6
3fa1393b
bfab7a45
c00c0a17
bf33e9ce
3ef42335
beb4d24b
3fb6e91a
3eeba117
3f9bbc81
bfebdb79
bf1f1877
3fab08ff
bf9a233e
bfecd948
bf8e14d3
3e62700f
3ed9a4e5
becb442f
3e3b8f86
3ed4d6fd
bf8e283d
3f86193d
bfa60bcd
3fbae4c0
401bcedd
3e12d47d
bef36841
3ed28eb8
3fb83975
bf326b1b
bf9f1bd6
bf8121f9
bf8d5031
bf92547b
402e162b
3ed7826f
beb1cd1d
bec0404f
3cf7d82c
be8af059
bf7f5c10
3eb15367
3f029ea3
3f865633
be69be4a
3e5c8b98
bee360f3
3fe5f318
3e5b514f
3fb25f65
3f1d83c1
3faa4568
bf338eb0
3eafd8db
c06892d9
3f93af05
bf06dd46
be21ec46
3f921126
3f5cb8e2
3f9193b2
3fbe684b
bf286998
3f563b0a
bdbab037
be8cf0f3
3e8a1bad
bf846456
be5c7f9c
bffea793
bf8e859b
bf1f154c
3f17a0b9
3eb61b7b
be9e8df2
bebd253d
3f30afde
3e029eb6
bff97273
bf2feb4c
3f9f8c48
c00a0172
3ebe9609
beb6df61
3f3c57d1
bfb41c8b
bd03dbd1
3e8088a5
be4f03e2
3f3e3d2e
3f1ede96
3f91f5cc
3f868bb0
bf545f26
3db6447e
3f062189
3fa5c787
bf915249
be01e700
bf995702
beed126f
bf7bedc0
be7e101e
bec07138
bfae712b
bf33761d
bf338910
3dfca7b2
bf8618e6
3f5cb3eb
bf5f5756
bf081550
bfa3372a
bdac08a1
3d63220d
bf51a05e
3fc3184a
bf95acbc
bf24b598
3fffeb3c
be89de0f
3f62beb0
4019ff86
be6e514f
bf8dc2e6
3f2cc082
bf8fa898
3e00d207
bee9fb04
3f3b78d2
38bfa04f
bea8431e
3fa8ecc2
bf212a89
bec910ed
3f61001e
bdbe7540
be7178e3
3fdf08cb
bf00b330
3e68ddf7
3e6e55f3
3ea5ffe8
bf43fbb4
be45a4af
bf736b0e
bfd39599
3dfff0dd
c0134592
bf791480
bf72f28a
3efe1bf8
bf87734b
3f880685
bfd3cd85
bee7ba02
3ece47d6
3e9c44bc
3eab34a1
3fb73dfb
bcff0e0f
3e771cd3
3f5ff685
bfe53fe4
3f2ce0b4
be749e6c
3e9337ca
bf4e105f
3f4f15eb
3ed78063
4017fcbd
3fcc9051
3ee7b786
3f90b1c5
bdbb539b
3f1d4477
3f93a222
3f041880
3fc23100
bf9fc25a
3f8b73c2
3e45f6a6
bfb3ba48
bf516aaa
3ea8085f
3e24d799
3f256507
bf105f82
3f154d30
40157f14
3e8bf5e6
3e8e0591
3fc7dcf4
3e96a441
3ee6f42d
3f9ba5c5
be387a51
c01a19e1
bf661225
4031a587
3ef0f932
bf5d63ec
bf39e6f8
3f291214
bf660409
3fe3c3cb
bfccd4ec
3f2e4ebd
be859ff5
3f2dc958
bef9be30
3f94c461
3dec5556
3f4e250b
bef0dc34
bf204334
be5883a6
c009a473
3f07359c
bf8cf2c4
3f3c0bdc
3fdc6733
bf52cd5b
3f832a94
3f840bd5
3ea8169f
bf4f60e7
beb34a73
3f7322bb
be25b2b5
bf2180de
bd8012b3
bf10b122
bee92035
3f4c1625
bf992958
3f90d4c1
3f04ed1e
bf526b5d
3f88c422
3eda41ee
3feafb43
bf86cbca
bf30775d
bf707717
3f56584f
bf316f78
3dfd6e5f
3e2750dd
3f7bcecd
3f22de18
bdbbed42
3ef389e0
bfb0e8c5
3db5b74c
3ea3e7dc
3f84ef7a
bf117eee
3ec75dc5
bd8c38d8
3ee7d11d
3f8cdca2
3fce9ca3
bf6c6f07
bebf810d
bf040285
3f8d6f29
3fc40b1a
bfb42638
3fac67c9
bf3a8009
bf225818
3f9cc316
bf7a688c
be441308
be6de336
be38fcf3
3fafd7cb
bd8da131
bf887298
3ec17e97
bf0f803f
bf399af4
bf9b9d30
3faed875
bf220b43
400d5941
be311a85
bfa848f4
bfcfd24f
beb3dc86
bfd265bd
3f4c666b
bf77ef8f
bf82e777
3f3a2e36
3e706c42
bf99166f
be82b612
bec6f247
bfce7eb0
3e54416a
3f9ad5ae
be9099de
be5ad00f
3dc7bb80
3df825c3
3f68df13
c0003f72
3ea016cd
bea53e34
beff9b1b
3e084237
bf2a5a8f
3f9f6e8d
bd05c880
3f92baf8
3fcb559c
bf21c118
3d88d02d
3f89c329
3e89db28
bfd0bbef
3eabc9fd
bf882c73
3f3226f3
3f8fe06f
bf9c59d5
3fd9c39a
bf5bebdb
be4d7241
3e6fcf2a
be960072
3eeacec6
be129b7c
beb0de33
bf4755ce
400f7d50
3f19d1f9
bed8f0e0
3d76b0fd
3eb016f8
bd486405
be59ebe7
3f740459
bf6cfeb0
3fd4149a
bf159489
be919798
bf7e586c
bfa1918d
3f7ddb5a
bd7dffa4
3ef9bcb1
3f962ccd
bcb83674
bfe197c0
3d8df020
4015d073
bf8f1875
3eda685e
3f408745
3e93ae61
3f1d98c3
bcd5350b
3f86299c
3e195ca8
3ee99f73
bec1df86
40087082
bed412c0
3ef19076
bf087876
be9d4292
bfb01735
3fd04ac6
3edcd6af
bdc34816
bde4c9ee
3ead8af9
c0284584
3c2240e5
3fb145ba
3ebc9409
3f9daa95
bfc94275
3f88e57b
3f7b3e71
3f660344
40274dd7
bf00a8ff
3f8c4aee
bf131d66
3f86e139
bf3ef640
3e545a4e
bfd38c85
3de4054e
3f8a6ff6
3fae0709
bf493207
3d1d30c3
be2ddbc5
beb1e016
3f470839
be82035a
bf4cb80b
c001553d
3e150a69
bf2a9ef7
3e1b80de
bf8c54e4
be95bf1b
3f0283c9
3d81c357
bf0542b1
3eb93aad
c02546a6
3dc2d45f
3fefa79f
bfa63344
3f08b644
3e6e083d
bf6d5fda
bf861d0e
c019f80c
3f67a301
3f9a7a4e
3eb35ab3
3f311eff
3e95ebd5
bf3522f5
bdc32eb9
3ea1203b
400aa603
3f8527f1
3fa24163
bec88b52
3f0b1fd4
bf8b18ca
3eba5139
c018e821
3fcaa64e
bfa8c2ce
3e49ec4d
3f252352
be1da573
3e704965
bfddae50
bf811445
3eb8954b
3e9dacdd
bea6ee72
bfece3b3
bfd7ddac
bfc73c71
3fc44ffe
beb986f8
be5f1194
401256e6
be913799
be60fa3c
bd701630
bd960902
be5a8cc2
3edf746e
bf78c852
bb28258d
be274919
bea9a8d0
3ef1ecab
bf220279
3f11d0cd
3ffca555
3f779e3e
bd6d6de8
3ead29ea
c016d410
bef1a472
bea8cbb5
c012ad25
bf6d29bb
bf41a89a
befc276d
bfa8e10c
bfb2e8e9
3f14039d
be96fe35
bf699f33
bc42d388
3f08bff2
bfa12d18
3f56388f
3f97cf65
3f8f9d45
3f4173ac
3f8f6b74
bed1fdce
3f09c548
3ef70c76
bd05275e
3c68f143
c00baf4e
bf3a26a9
40688ec4
3fe0ef2d
bf88d972
bc98a4ef
3ea03204
be8960b8
be4d6263
bf00499b
bfb9c7d8
bf159f83
3f2c18eb
bf842cce
3eada866
3f9d3a8e
3ea32faf
c0166641
3eecfc00
bdb712be
bc1836c6
3e7861e9
3e29b44c
3eb5d5da
3fc01a2e
3f0ffad9
c022c850
3f31ee0a
bf3f81c6
bede345f
bfd6f527
3f10cc20
3ef1c0f9
3d822646
3fa348fb
3e04fa18
40051489
bec5b6a0
befa31b3
3e22c0d5
bec6cff0
bf9275bd
3f40e199
3f7da837
3c2902e1
3f8617c6
3ef5e9e9
bfefdf54
3f4bff93
bddb758e
bf46a6fc
3f8c4f75
3fba69c8
3eb90ca8
beff9f4a
bf7f350f
bf9ce5fd
bfa9454a
bed4b7c2
3f4f7075
bf97b35e
3f7f7ac6
be88dc1c
be350582
3fbaee1d
beb9eea0
3f1f9d23
3f34f110
bdd3fa14
be2438db
bece0968
3d61796b
3fca452b
bf0841dd
bff64575
bfaddf85
3e731483
bf9ba01e
bec54542
bfb2df08
3f027627
4005ec83
bf90e4b6
beefcc04
400b191a
be9edce5
3f8052b6
3f9ab6cf
bfad03e8
3f3624b5
bf4c68ae
bfc35640
bf7a4f02
bf059338
3f6cdabd
3fab48a8
3e546186
be8ad401
3eb6640e
bed8bae8
be8d7d90
3eed741e
bf822c24
c01af473
3fb8187a
c04ba392
bf403cd4
3e432014
3bca5e93
3e04ccff
bf952f34
3f53f3c6
be176bbe
3ddb3743
bf350504
3f13461f
bf18d5e0
bfd4969e
3f832f6b
3ea92423
bc66c656
3f0f880e
c004d791
be12b371
bee6d096
bf866a0c
be8f28d3
bea26983
bfa836c5
3f9ff1f8
bef587cd
be4acbe6
bfad7e7a
3ef6c6e8
bea72b51
bec1a60c
be68bf5e
bf89b1f5
3a7822cc
3f01ace9
3ee2284b
3f95db36
bfaa66fc
3eb54367
bdc02c2a
be8474ff
3fb86145
beac4ec0
be84a9cd
c015a261
bf822f75
bcd52910
3ca09758
bf15b944
bee278d7
3f1c6801
400521a2
3ebe31fc
3fc89673
3ddda09e
3effa059
3ec3e3c3
bf8cac7d
3fdcc02e
be6fb28c
3f386fd5
bf3fe066
3f0138e4
3e38597f
3f46c636
bd4dd805
3f5737bb
3f844710
be95475a
bff68a35
c00a3b82
beeb61c5
3f038a09
3f35d30e
4027f65b
c012453c
bdfa174c
3ec7c3e4
400d1e87
3ed816d0
3f8b0e75
40033951
c0624c5d
3f15ba37
3ec53cfd
bf8ff1a1
bf8a0334
3d9f7416
bebf4d18
3e47bff0
bed3d64f
3e2e777e
3ecb6286
bf976141
4023dfab
be18e61f
3e67234a
be87709c
bed76469
3f2b91fc
bfd601c4
bcde2115
3ef73e3d
3fb06234
be90ef75
c012836b
3f6f3535
3f1e4dd6
3fa20eb3
3d5320ec
bf86c416
bf03c643
3e765f50
bf4cafa1
bf5dc66b
bfe35388
3de36d21
3ef10970
be252246
bf2168d2
bed393df
bfc57627
bda1f22f
3f636c62
3f599706
3f8f67b5
bf855d80
bfba5167
3d9a73fe
3f8bdeb8
bfc6a13a
bf95f1ca
3f142f4d
3e477c23
bf4cce88
bfb092c4
bf6863e0
bf5cbd10
3d9a190a
3e9d0e48
3fc57a78
3f0abc7b
3e48b245
3e91b87d
bf9ec930
3e71b93c
bfc156ad
c00d3262
be5dd7ae
bdced37b
bf99f142
bf5c839a
3e971917
3ca47313
c010457b
bf043f2d
3f9ac6df
bf6a25fa
c00e383f
3fd43e4e
3fc0f253
3f5b1e39
3fd591e5
3f0765ab
bf1f44f7
bfdbc2b0
bfa7144a
3f810230
3e3f5309
3e9bb7e5
3f93261c
3f17d9c0
bf50b815
bfc9eeac
3e5fe0c5
bd9bae2b
3f52cc30
3fa49ff8
3edf056a
bd83cba8
bfc6fe57
3c1f4d32
bed15b6c
bf251235
3fb707ce
bfd6d193
3ec3586c
3cc456b8
3d5cc2e4
3dc0a0d4
bfba8ff7
3f9f3555
bb3c4613
3ea5fb92
bf93c249
be9bf71c
bfe9c16d
bef30e7e
bf440bce
3ca3772d
3fbbfbef
3e5c9e87
3efe0b86
3f94e8cf
3fc32eee
3f85d887
bea22ad3
bf830103
3f8b34cc
3f0f262b
bf8f7d8a
3f1881b5
3f1db075
3f2205ee
3be7075c
3fb6e3c7
bf037dfd
bf75961a
3d57aecc
3f4b0c55
bf8f59c5
3f25355d
bef70d82
be1d15a6
bf874073
3f980b32
be93bfd4
be8300fb
bf0193a8
be96895c
be1a9d66
bfc12971
bfb0d8a5
3df1b0ba
3fcc40df
3f17808c
4005d1f5
bd17910d
3f91f981
3f5599bc
3d112e67
bf8dd333
3e9540d5
bd100bcf
3e1717fc
c0280343
3d861044
3f497db5
3f03a5a6
3f39c97a
c00cee63
be892ee6
bea6088c
be32acac
bfd592fb
bffe26cb
bec56827
3e0251ad
3f6015c0
c00ea743
c02eea6c
3fd03495
3f50d16a
c010b23e
bed4aae9
3fdb1651
3fbed0c0
bf91981f
bfa85e01
bdf482ba
3f947cb7
be9a5653
be8416ff
3f7ca8ca
3e19614f
bf4d67e4
bf33f2b3
3f8802f3
3f8df755
bf2ebd47
3e652de5
3f3b23d8
3ef01b0e
3ef9b709
bfd8cdcf
3f9e1fa8
3f96689a
3fe6118d
bf973777
3ea8bbc5
3fc739fc
3daeefc3
be2856c6
c017a53a
3e60cbf8
3fd5aca0
be5e35d3
3f7312be
bff3aa23
bf261d9e
3e51865a
3f29a5c9
bf74b6cd
3eba6286
3e65ae23
c01e5000
3fef4e02
bf13b6e9
bf59bf27
3f2af46f
bf8d4839
bea9ddfc
3ea05e03
bdbaf86b
3f552380
3ee8eb9c
bef21c93
bd406bae
bf9cfc0a
3fa52ea6
bf344f41
3e10480a
be973cff
beb64ab3
3f890903
3efe4bf9
bf9dbee1
bf15385d
bf927f12
3eab1fc2
3e0a240c
bf7c3b75
bf7e5526
bf905163
3e340cef
bf1eaf5d
be5ce75c
bfd9fa2b
bef35174
3ef6a3a8
bff2810a
bfd8d251
bf22964b
3f0ed95a
3f5ab34c
3ee221d2
bd5632f7
bf3f13cb
3e86ca07
bf9f2d42
bfa663df
3e95e9e2
bff1e442
be6154c6
3c7180c7
3f4e537b
be26c91c
3f0fc7d4
3dbafaf8
3ae83109
3f403b9a
3dd24357
bf26f1f1
3e5c6172
3f8c20ad
3f47d995
bf35c8e9
bfa02309
bf56dd8f
3f46f39c
3ed7902e
bf4a710e
bf96e982
3e13ae82
3eb76e60
3f7e42ca
3f4f6cfd
bdce0cad
3fd11066
3f4ab8c9
3e811a1c
bf873137
3f95b033
bef471dd
3ef4f170
bf1fcbc5
be455d45
3fd8876a
3fe3d5ad
bf7d5372
bf87c4ee
3f81a4cc
bbb66d96
c0100ec7
bec81b5c
bf529b8c
3f22a5d8
3f2d2b11
bf283a04
bf27c4cf
bf13d31b
befa1852
3f20ea79
3f6ebf75
3eb49f8d
be5dca25
bf620cb4
3f59b9c5
3de344fe
3e7099b9
3f905b09
3f277623
bf21d59d
3c92c7c1
bf3dbdd7
3f8354ed
bf2a093f
3df7e4de
bf841039
3f3c4bdb
be8f09b8
bdabe55f
bfa6691c
bcb335fd
3f349d6f
beab3edb
3e799d17
3fcc2cca
bf906582
3ee171f9
3e860261
bdcf6e76
3f785802
3f8df217
bfc30a7a
3f28d353
3e758ad7
3f956cf2
3f272d6c
bedea253
bfe2d669
3fb3899b
be774b71
3f4e9891
3fa4b825
3f073b54
3e91e61c
3f6d59e0
bf49eb7f
bfbc0e79
bf6fad35
3e566b8c
3fdc7200
be4ec918
3f92f38f
bfcc2a86
3f452a9e
bf5644a9
3dd215f3
be66e2ea
3e9b7474
be80ce89
c0002b73
be822767
bef35e71
bfbadc19
400c1f10
bb5bcddb
3e67e3ab
3f8d6dc9
3cef3c7e
400d9efc
3f2b3094
3f04c8df
3e02fbfd
402c2429
3e13a541
3f7f839d
c0018f8e
3ccc679e
bed60872
bfdd7e01
bf7e05ef
3fbf06eb
3ef14c1a
bff6a9b0
3dbff242
beec5f2a
be6dd32c
3f98932e
3ff42271
bef08f23
3f24d1bc
c00d425d
bfa18222
bfa056e4
3fe15d9d
3e49e5ab
3f6deaff
3f709ba0
3f459e2e
3e26082a
bf6ba32c
3e8837c9
3fd47019
bf40b18d
bf87fb98
3f0854b5
3f42007d
bfeb915a
bdf05b6a
bef239ac
3f79464e
bec222d0
3eb057fb
bf9cd00e
bf4c1ba6
3e9042fe
3cc2c7f6
3eddcc0c
c0160ca2
3f4b09cb
bda02ee4
bfc69377
3f21e5c4
3f1f1343
bf5af1ff
bffd810a
3f90e061
3f0fc06f
3dc061b3
3ed9f80b
3fcee681
bf284431
3f04588f
3f78d3f9
bfa9c5d1
bf337471
3f2d110e
bf129824
bf0f3928
3f704e15
bfd7fcbe
bfc80f50
3ddf366e
bf92b1d2
3c8ff709
3ebbf7d0
3e8bd2ec
3f16be1b
3f078bcc
3fbd5377
3f0eae51
3f6c6343
3f38e42a
3f55bc2d
bf7f2323
3ef7d184
3fc309a4
3fcd592b
be78018b
3ec767c4
3e69007f
3ff411c0
3f880d41
be0c4a53
be71b775
3f5f0e2f
401627d3
bf7239e9
3f54d42d
3fb2175a
3c14446f
bfa3cd07
3fbeb7d5
bf33da2f
3f223b70
3e0b3b0d
3face4ec
3eb87836
3f320972
3f81a649
3ff72926
3f05a22e
3fb9517b
be1fbeea
3fc3f9d5
bcb97798
bf9055b4
3f78daef
bf798928
bf6b1ea8
3e12ec2e
3fb9f607
beeb2ffe
bfda651c
3e0ab137
bc89c916
be00a1aa
beb78489
bf2b2e99
bcef4e09
3fa9733a
be0b9ffc
3fa26a9b
3faf4e4a
3b6a74ad
3f22ed1f
3face146
bec2cb08
bdaa44a5
3f70a50c
bea6cab6
3f4c884e
bfa40e18
bf447ef2
3d8103a7
3fc638d8
3e9192f5
3e22d66b
3ca22937
bfbea283
bf67fda5
3e928fec
3e2a6602
bee90e92
bed99a89
bdba1c0c
bee1e9ab
3f61b51d
becb93d7
3e089287
3f63e534
be95d497
3e89bc05
bf526401
3e94e383
3f27c461
3ec1233d
3df617ed
bdcce0e3
beb4dc1a
bed3325b
3f8d6175
bfb2ac56
3dc1485b
bffe5dc2
bef7c101
bf0d69ed
bf1612b8
3f12ccc2
3ff0e5d6
3fbcffa4
bf355ec4
bf1d3c60
bee5ceb5
3eb3ae68
bf2bcae8
bf0c39c6
bea0300a
3f684002
bfb1dd7c
3fee4894
bf2f0291
3e3ae970
3fdeffb1
bfcb583a
3e651eb4
bf9d37cb
3fafda7b
3ecbd1e4
bf390dcc
3f00e14d
3ee2d3fe
bf496be8
bddd5c21
c00f7de1
3f140d4a
3f7b0d76
3e1bdc16
bd97e054
40027643
3fed9b0c
3f127d7f
3e339f31
bee864d6
bfbeb42e
bda01682
3ff1069c
c0081451
3ec30772
3f940222
bf7970a9
3fd70cdb
bfa4551c
bead300f
3ebe0613
3f54b970
3ea76147
3e1bec39
be168863
404508c1
3fb21896
3f3c1a65
bea62e23
4020ed40
bf1148e5
be28ddb5
3fa3b961
3fad6995
bf4841a4
bf7c61b5
bc602664
bfabaf74
bf248421
be0ec275
3eed0259
3f98dd4a
3e901e62
3eb0da2e
c01c1636
bf30dc1d
3ff7e6db
3fc18612
3fde6c17
bdc5c498
3f9c4e6c
3fc39540
3fb49f52
bea4c4da
bf9d0c8a
becb3322
be0eb675
3f5eb17a
bee3e7b7
bfd0ecdb
3f4212ce
3f16967b
3f30709f
3ea2e98c
3e7ea4bd
3ecd4b7d
be83f833
bf2e15c9
3f5c7464
3f08e489
3ec3affd
3fd2b6f5
3e8ff57a
3e99b6c0
bf79bea6
3f872401
3baadd9d
be72d3d0
be0dd242
3f349788
3e89e109
bf086d03
bef0a9d2
3f2d2240
bfb82846
3dfc95f8
bf954dc7
bf65a9cf
3f823f5f
be835d8e
bfc97081
3f261a8b
3f68e319
bf649b99
bf35dbb2
3e3d63c0
3ef74635
beee0171
3f552348
c0030475
3f2750eb
be0680d3
bff956d0
3e204fda
bf148ace
3ddc31dc
3e174eee
beaf76f1
bf65d166
3f76ef07
bb4db750
3fe63f62
3eedd2ee
3f6f0370
bdb191fc
3faae1ca
bec33224
bf087b55
be652fe6
3d5965a5
3fa13db0
befe50e8
3fefb6c6
3e4a78bb
3f071f7a
3eb379ee
3e6f1c2d
beb01199
3f8343ee
bcaeeadb
ba3ca8fe
bfa4d6f3
3f8f70c1
bfe5c6ce
3f58628a
3f183231
3ec6ff28
bf100445
be7658dd
bfb8cf92
be1c32a1
bf733418
3c8e05ca
be82ef1f
3f8ad18b
3f831108
bd45280f
3e957a3c
3c815b0c
3f87f4ff
be22b0d5
3f4ab9a5
bf86ee01
bf155111
bf706dcb
3fe33042
3f8ef622
bf779420
40123fa2
3db9047f
bf60e9ed
3ff7a7dc
3ea4d135
3be8be28
c06b9be2
3f25ebe2
3f258e7f
3eb0c9d4
3f582e53
bf298aaf
bf189862
3e9e4af7
3ee41982
3ec74dad
be16e050
3f2c09f7
bedef638
be44d7ca
bf8ec7b8
3e6f5f79
3e75bf05
3f6e0b4a
3fccba5d
40036da6
3c9d3c7a
3faca8d1
bf3cff43
bfb7083e
3e60c86d
3d4b45dd
3ed24455
be589b36
3f7455b2
bf927184
3f6414da
bfbc11b3
3f8e9b47
3f9f21dd
3f3d910f
bf5db925
3e2dd9a9
bfa19b95
bffcee92
3f2d6102
3fbc17b7
3fcd4451
bfb32180
3f29536f
bf6db104
bf566f72
bff2bcde
be200a45
401d61c5
bea0f234
bd9f2b79
3eed5a6e
3f43e91c
bf2e51bc
3fe9c5fb
c011f4a7
bf2d6c5c
bfaba8c8
3f3cf7f1
3f69fd32
bf862722
3f0376f3
3e078bae
3f80d35a
beab6b1b
beb87ef2
c00bac64
be5ea5c3
bc9aa09b
bf1060e2
3e913332
bf945ed6
3f85c88a
bff3ca02
bf2ce071
3f7c5375
bfbb77a1
3f9e9e13
3f5a6c7e
3eeade78
be85ef86
bf81f6c4
bf68787b
3ff6c5e6
3f90db0b
be8328f8
bfbdc91e
bd82b0b4
bf2219a0
bdf7d68c
bfd35cc0
bfd42474
3e75aa06
bf14badb
bdc5ad51
3ec52483
4017c7cc
3d8f7740
bed93e14
3ed4acfb
3e64be2a
bfb1049c
bec453b2
beb6c44b
bfa1233c
be1cfaac
3f86964d
bf2ce5fe
bad735ce
be445d54
3f89f367
bec63242
3d2facc2
bf8221f7
3e9a4ffd
3f3d994d
bd9feced
3f9969b3
3f7706e3
3f07af24
3f96a6b1
3f4ab88f
3f10ede6
3f358889
bf43605e
becf3ba4
3f6b304e
bf514550
3f5b8dc7
3fc05546
bf711162
3fdeac13
bf968ec3
3e9c03cf
3f8749f7
bf4aaa22
bf3a982f
bf0176c2
bf06987c
befd6aca
bf732f68
bf5676b1
3f030bfa
bf8c4ca9
bf730427
bf7c9b65
3f634919
bf2145ca
3ed1cee3
bfaf9aa9
4010b488
bf4a8bfb
3fc6ed1e
3e8c018a
4005d81a
bf2803d6
bd85552c
bee9ffc2
bedd02f3
bf87e07f
3f8003dc
3ef8489f
bf33b609
3f58d996
bf593fee
bf6991d9
bf57c84e
3f24bb82
3f22c0a6
bff8511c
bf7d8fc2
bf4477b3
3f865765
3e050320
3f866210
3f8ea4a9
be6a2138
3def6478
bf27178e
bf907f4d
3d1d3782
3f967cda
3fc9de9d
3fb66c77
bf61567d
bf8fa8be
bf17eed5
3f265367
3e89a776
3fc88e5b
3f4fea09
3dfc798e
bfa40606
3fd83afb
bf043bb1
bf9bfbe4
be5feb48
bf11f449
bf0595ce
be6f5189
bf94d994
bfad266f
beae26f5
3f62d096
be2aef7e
bf7a8c5f
3eb033d9
40008537
bf6af4da
3ec71b8a
bf7afcc3
bccae0af
bee2fbe2
bef0bac2
bfbfc7e2
3fb4474f
40056529
3ea5691e
4058fa40
bf421b06
3ea840f2
3df9ae7d
3f607963
bf77a5bb
3f4513ee
3f063266
bff0584a
beb6b88f
bf966a31
3e9bca1f
3e235090
3e2daa74
3fda4345
bfd3a1f9
3e6f9c5f
3ef902bf
bfb51b27
bf791d3e
3fabbeb5
3e80e493
3f4a1a06
3f186ea2
3eb40a94
3e503414
bf02ecd5
3f2ee9e5
bf5bb3cb
3ef8903b
3e412dc5
3e84d809
3f5154f0
bfecc019
bdc197d6
3ea203e1
bec2db83
3f8931ad
bf102cea
bfc561ab
bfefe6de
be3de722
bf7459e3
3bc677d6
bf08571d
bf0878aa
3f49e9fa
3e9fce88
be6048f9
3d35e24d
be704ec6
3f5b740e
3efadf4b
3f1f5d69
bf6a3741
3fc880d9
bf00b32a
bf62882e
bf4b95cc
3fa9cdaa
3e490d16
3f2c483b
4027e4ab
3f9bb17c
bfdf9253
bf2fc343
3e2b99fb
3eb7b7ca
3da71f24
bfaa5c0d
3de5ccc7
c0043e6f
3f2ebc35
bf985196
400596b8
3cfaa788
bfa73d51
3c38d1cd
bf97e438
3ef18c74
4036de59
3fbbed95
3f06b321
3f5e8dfe
bea35375
3e9a1b58
3f13cf7d
3f7716ee
beb8ad03
3fedf1e7
bf4b593a
3e36fdcc
bee428b5
beed1f5c
3e913587
3def364f
bf574848
bfdee5b1
3f281fca
bc8018cc
bf50ec6c
3efa36d7
3fad883a
bf87a2c6
3f58724e
3fea3d88
bfdf41cf
3f110a9e
3e04b280
bed8e0fa
bf5bad20
beac6498
bda50351
bfae1421
3f334604
3ee060c6
bf85ab59
bede54ab
3e4f3dd1
bc9cdd9a
bfd8e8df
3f6b3d0b
3fffc3c8
bfb51f4d
be01e9ce
be1388ce
bf5a94a1
be4f861f
3f92872b
bf169cb9
be87031f
3fcf3040
be0c5c1b
bf9606aa
3f41729e
3e56ce31
bfadc3d6
bf0e1b0b
bf36b129
bf383989
bf3dfea7
3ecc4e7d
bf9c1859
3e5cc0ce
3e8760c4
be607ffe
3f817356
bfea0ada
be38e834
3d2d8e72
bfa9d3e2
3fe8b59a
3ebf9bcf
3ed9e83b
3e094858
bfcd33cf
bfbdbd13
bf673d8d
bf87c882
bf9ea8fe
3be140de
3ebd151e
3eb56a02
3fe4d3c9
3f27033c
becc0855
3fb27cd2
bf740ac6
3faeed83
bf1131d7
bf4225b9
3ea91a2c
bedeaef9
bfb61f1c
3f973382
3f21aac0
beb92e7f
bfe26bb3
bf50c86c
3ea2e785
bca26fae
3fa38d51
bee645bb
bf62362b
c0006a6b
be12bcbd
3b904f61
3b3b0183
3fef4eb6
3f9b0f65
bedc2483
beb53d28
3f011489
bef66c54
3eb21452
be9475a9
bd871157
3fd79072
3f9c399d
be229c27
3ec57873
3f617f80
bf0d7122
bd11ee41
bcf9ac4c
3e3dffed
3f545e19
bf4dcadf
3ec48b66
3f39d490
bfc6dc88
bfabaf2a
3f856c87
3c6b97b5
c010b451
3ff620cc
3e0e6d2a
bf2bfc00
3fe1b66d
bd80369f
3dee7b6f
3e4e28fc
bfa8dc0e
3f9725fc
3d91607b
3fa7de51
be0b5ec6
bdda16cd
bf51671c
bef00b85
3f8fad6a
bf3822b1
3dce777c
3f011d35
bb801779
bec7447e
3f99952f
3e62c0ca
bcda546e
bf8a6e9f
bf5db89b
c008b60e
bfd1434a
3f3af8a4
c01efb95
3fc52a54
bfc7bdb2
c00705a8
3f921f74
3ef2300f
bf297386
3fc23037
bf32f64c
3e9d2847
bf897972
bfbfff86
bf15bc40
3e658ad6
bf1aca6a
3fbb5ced
3f718771
beb46b90
be6fcece
3f3d1cbe
3f2f63e6
bf7fa75e
4008a533
be79f363
3f21033f
3ea59b94
bf71f45c
3eb15c36
be2b9430
3e4ca062
3dd8a66d
beb4b287
bf718263
3f992fbd
bf959077
bdd33a21
bf4c506b
bfa03587
3f1a92e4
bed17943
bf22db2f
3cf8752f
bf29918f
3fafec71
3dcf01a6
3f02c0e3
3f726a27
3ebf7b47
3f6563e0
bff2b66e
3db016ba
3f32c31c
beb643b0
bf5efe7a
be948a5d
bff681a5
3f8f07cc
bd8db471
bd877409
bf71b68b
bf52214c
bf5078a2
3f044659
bd17c3bf
3fc4917e
3f5a917c
bf15b1ab
3ea5a6c5
3fcb01aa
40067cec
3fbeb55a
bf50e733
3f5081b0
bf53dc6b
bf82b717
3fb9d05b
3f04c89f
bf46f113
bfc4a388
3f2e59eb
3fae83f5
bf9dc127
bf7662ce
401a748d
bf98acda
bfe381be
bf806bc3
3d625e2c
3f991942
3f27f342
be855adc
3f8dbc71
3eeca75f
3e0d729f
3f6c7ee3
3dbf9184
bc226128
bfa352d1
be9b899b
bf92be7a
3efd2eae
3e4d7036
3fae196d
bfb098e5
3f0dd61e
bf80714d
bf3f4855
401ee632
bf965276
bff20fc8
bfa33407
3fdf41d0
bfc1d96c
beff0cd4
bf254bdb
be0f9500
3f483e01
3f02be5b
bf5ae856
bf9135a4
bf29948d
3f5e641b
3df94ee5
3ebe1ba8
bf051952
3f862e1b
3fa4c50f
3e23eb4f
bee8b79c
3e9d5f8a
3e3e7d96
be40f3ea
be4a71b1
3f9cfa85
3e792248
bdf72053
be930329
3d5805a0
bf21270c
3fb6cc8f
3fb98903
3fb00cbc
3d985cc4
3f077ad1
be9ce196
bf9a7ecb
bf329987
3f3b2254
bef432c9
bf94d8da
bf0a7cad
3fc9b867
bfa134dd
be57fb50
bdf15c16
bfd4458a
405bb9db
be98ae0c
3f87582e
bf80e96c
3f57a779
c0003ad5
be7aaca0
bfa39089
401a2be5
3f5cfc73
3f2822f1
3f0aaa22
bee46ca4
c00e1fba
bfe49ee2
bf643d37
be6c650d
be9cc854
be82ce95
bf7df8ed
3e1381ba
bdae3ae2
bf9120b1
bf45c5fb
3f6c8d2a
be563777
3ee1bb6d
3dd6d89e
3ca39cb0
bf7e012d
3f4b9e22
3d0482fd
beafd6cd
bf3e3073
c008b547
bf16a37f
3f180d71
be12ed6b
bf62762e
bd91b05a
3effc043
bf3faff0
c02c9388
3eb0e9a0
3ebd04c4
bdcb70f5
bf701234
bf000849
3fee6be0
40036230
bd160c5f
be5b9a91
3ce628cc
bf808a36
3eaffb72
3f528a97
3f7cce3b
3eefc6a1
3ec7de12
be6e776b
3f649e9a
bf4270c6
3fb41b63
3fa44604
c01f736a
bfa2caab
3fbd903c
3f15467b
3e9a5b09
bbf9aeca
3fa23089
bfdb000d
3ff4c1be
bf96ab65
3f2ed4df
3e2b7f91
bf83070f
3f232055
bef91847
3dc9ea8c
bb880754
be26b1e7
becb1443
c006bf41
3f91b388
3da12b11
3e1a94aa
bf822318
bf769d33
be2c59f8
3eff61f3
bfb70acc
3f7bfa33
bf117db9
3eddc4dd
3f37dd25
3ee9920a
c036b3df
bfeeffc8
3ffb8f39
bf1dbcfc
bf151c98
3e9932b4
be0453d2
bf56f546
bf5d92f6
bfaffb27
3efc2ab7
bfbdaa34
becf1221
3ebe9593
3d6ce9c5
bf084ac2
bf5642e0
3eaee276
bf9ac3af
3f6cffcb
3d915343
bf0bf2be
3ed175f8
bfc0fd7a
bf2d9c68
3f5eeeb4
bf7b6991
3f4bda86
bee9f2c8
3f15d6f3
bdfecf1d
bff0c07d
bec478c2
bfd58d5e
3ef88e87
bf054efe
3fc66d42
3ea0599b
bd9d8d6c
bef35411
3d288a97
bfd2e580
bdc7a4b0
bfab2141
bfd0788c
bfa0944d
3f82d67a
bf61d8d3
bec48299
beadf0d0
bfec39aa
3f6f96fc
3f5a9b46
bfbfe28c
3fbae58a
be619c3e
3f3fec1e
3fdf4920
bf016f12
3ec7214b
3e0fc917
3dbe1066
3ff53f6a
bf2d2558
bf59fbe9
bf3fac3c
bf8c1067
beaacb35
bef57a05
bf1da601
bf3c17e7
3d643bce
3f98d026
3f8e34cc
3f2f06d5
3d647e92
3c5fecfb
bfe3bd99
3f115c62
3f5a34c9
3f6d6fae
bf10e5d4
be26530c
3f90c5b8
bf33bd20
be218a48
bf98d6de
bf891a06
bfb45c6e
bd9cca2d
bf78e7c8
be34fe16
3f5d31a1
3e6c9a4a
bf0f16ae
3f017a94
bfab56a3
3dd405a7
bf914427
bf586efb
bee08a9f
be1b7fd8
beb0d98b
bf2bce85
40087c4e
3fb52575
3f2795f9
3f49f808
bfbcd4fd
bfb89ba9
3e82cfeb
3f9a4471
bee93f2b
be96fd81
bf428728
bee82bbc
bece6820
bf9ac7c9
bfe296ec
3eccbab7
3d6c8743
3ee1c78c
3e834b49
bf65f8a1
bfaa7da0
bf8e44dc
3ea98f84
3fe61a01
3e2a57e5
bfaa67bb
3ede37c8
3f2e6448
3e0e7fac
3fb05218
3f03fc1b
c0027d3e
bfee24b9
bfb83a34
3f48398a
3f1d4b88
3f80bff9
3e49c315
bef7793a
bed02de6
bdf639b0
3fd61ed9
bf0db789
be600823
3c400040
3e2bdab7
3d5f5628
3fe4f403
bf8e055f
3f7cf48e
3e45cc08
be669fb6
3f429bbe
bfad385c
be1aa7c0
bee5169e
3eb825f0
3ffa8c43
bee070b7
bfce2dd7
beeb3178
bea722fd
3f0bbf74
bff8d3fc
3fa28d3b
be080dba
3f5a9e4e
bf4fa719
bf0c50d9
bf216d33
3f88da4d
bfe29e76
3d47af51
3f6e0d66
bfa02f0b
bee5a74f
bdd83078
bf42fde4
3f54583a
3dbea9b2
bdddf89b
bf804656
bee5889b
3e185e16
3f64f88b
3fb23e9d
3d5e8024
3e99e049
bf0169f6
be199994
be2b9cef
be6883d2
3fad84da
bf8f4e7f
bcf72526
3edd74b2
bf2344f2
3faad247
3f7b070b
bed8c321
bc2c0c84
bf166e40
3f370e14
be9073db
bf4f5271
3f1d47e1
3f24c140
3e6bdd9a
3eab40f5
3fb00411
3ea35ab8
3d8d53cc
bd82ce8e
3f26d34f
40054c51
3e4326b0
3f8b486c
3fbd8f8c
bf5b785c
bf2d5295
bd9b5eb7
bed5b69f
3f843f91
3eeff8b6
bf287bfa
3f3d58a0
beb9f345
bf951127
bfaff444
be8f30c2
3ea3b436
3fc3170c
3f58e6a7
bf8e4d7a
3f8ee0c4
be072b87
be8fc421
3ec08d5b
3fa3b58a
3f063b6b
3eaed9dc
bde9d891
bf8772d1
be05058c
3f6c9bed
bd45e3d4
bdf73295
bf84d5d6
be9224f0
3f0cd8d7
3f8ec61f
bfe1f21f
bec13e8c
bff7e289
bfd6c5ec
c0030ce7
c020a330
bf9158ab
3f9a116b
bf353549
bdf96d92
3f8e8ac2
3db779bf
3f351829
be494960
bf09bb8a
bf0782b9
c0155be7
bd811dd2
c08672ce
bebc89b9
bf9ae45d
bef1baea
bfd26c76
3e3c931a
3d8bcab1
bfa166e6
3f9ce10d
3f8aa179
be0ae148
bef4b2ba
bfaade1b
bf633787
bea0b50d
bfe3963e
c0051367
3feb3c3d
c06a7f9d
3f87b634
bf41546c
bf588f6c
bfdc13ad
bc773b8b
bd8070c4
3f2f20f6
3f15f449
bf63cbc2
3ee90394
c0036d4a
3faa5783
bdae5446
3fd820e0
bb139e87
bebc5357
beff5d7f
3fbe0189
3f8de5c3
3f41a9de
bf11d21b
3fc9df00
bf06d0cb
3f82f3cd
bf31a97b
3f90497e
bdf65fa5
be7d9255
3f31933f
3ed4ac52
3f1ce95e
bfa2484e
bfa6d2b0
bfda2019
bf806de4
40163400
bf8143cf
c00d1998
3edfcc57
be941864
bd67eac4
bdba1fe8
be8595e4
bfb2047c
3e99050f
bf417269
bfbc4ed7
bf92c6ea
be6b5b02
3faade69
bee1d22c
bed1a0a5
3eb2fc53
bf71e497
3fd66943
3e9a00d7
be8568b1
3dcb5405
3f93c70a
3f8a3857
bf2c1848
3f70f6a3
bf919d6d
3e6ba925
3ddfb531
3f89789b
be25149c
3ec5abb8
3fd6dd32
bf81281b
3f820d8f
bfc3f8e2
3f20b772
3fa8b52b
bf8c143d
bf7474d6
be9c777d
bd278f1c
be4d8111
bf289bc6
3df9ab19
be48c724
3edf203a
3f26a981
bf3583f0
be9ca1c4
bf3b673e
3ecd8426
3d989ae1
bf15a963
bf044d5c
bf91e0b6
3f12ff21
bee3e298
bef04fe6
bf5b340e
4020f5d5
3e6521e8
3f15d39f
be2bfd82
bef3228a
bf512549
3fb9feb0
bf7a58ca
be4219a5
3f333562
3f2a6684
bf14ed46
bfdcb909
bd6e75b9
3e178f47
bf7a18c1
3fd8db5a
3ebd5aab
3eaa7b43
bf8f0a9a
3e95d205
3fcb9e37
3f5b4e88
bf4dbc8c
3f9d538b
3eb37a23
3fa522b2
bfae5033
bfb380a8
3e13a937
3ec41e75
bdcb9130
3f282db1
bf878011
3feb5a64
401bdd67
3ea4f8e7
bf907fb1
3eb6d75a
3f390e41
bfb17230
be442f67
bff3cc53
bff23e7d
bf335b82
bec143f6
bf97cfbd
bf220ce3
bef692b7
bf3af539
3ee94939
3fac867a
bf0ce488
3f8e9e6b
3f80b825
3fcde86e
bea11b29
bfa49738
bd88362a
3ec6258f
3f1059fe
bdf6301c
be4ee50b
3ddf3b28
bf37088a
bfdad52e
3ea8e4b8
bfc4a3fb
3ee7efca
bdef5709
3fa3e8f1
bfb8d22b
bf87bb61
bfae2c64
bf7beb8c
be683c31
bf202b3c
3fa7af83
3ebf374c
3f90ca09
3ef062b7
3f15a8fd
3f0b1445
3f652a8a
3eaa192d
beca5bd6
3f63e622
3e8c3e07
be4c7a6a
be8ddda0
bfc6fc2a
bef86f59
bfb2c7f2
bf7b89c3
be519187
bf6800e3
3f8bad67
3f4b854e
3eda4467
3f3bdf12
3f2cb0bb
3f235b8f
bfbf3a7c
bfb7a926
3f2115c0
bf693304
bff0e8ce
3f2c6161
3eed4029
bf87ea2b
3eda324b
bcc1e91e
bf197bcb
3fbc6d58
bde66e14
3e81d860
bf98ddc3
3f96fcfc
3f02f11d
bf8d3b6c
3f470dc4
3f1d6014
bfcecc7b
3f1152ef
bf2a55c4
bef90c62
bdf8e66c
bd8baa5d
c0027655
bf3632ca
3f259b0f
3ef998b2
bf7abfea
bf324edb
bfae95ea
bf6692b1
3dc8f953
3f72c6af
3f139c11
bd58ba0b
bf910330
bf68815e
bea8647c
3ed83199
bf0faab8
3f2440d1
bf5e968c
3f8b2eb2
3e66f4c7
bf461e48
bf6d5b3d
3ed1371a
bf594405
be244ba7
be8021e6
c01372a2
3d9470ad
be473142
3ff37eda
3f4a2d68
beb0d40c
3f9560ea
3fbd3897
c0479a9c
beaddcfa
bf0329fc
3f88a8a4
3f0dca8a
3fab65fb
bf0963c5
bec47cbc
3f3e3c6a
bf92bfc1
bea96cf9
3f4929a2
3ee95857
3ebd5638
3f485f0a
bf32527e
bfee68a0
bf8cdbd3
3e04d4b9
3f42690a
bf91c921
3d965d6d
400bc02d
3d5fc6c4
bf438f07
becf1055
bfac84c2
bf4e616f
3fee61ac
bf0fe07e
bf00daa1
3f40d655
bf250d2e
bfb8891f
3fd9ce0f
bed74f82
3ea6952f
befb427f
3ee4284d
bff91669
bf624364
be89dffa
c0335907
bfd772e5
3f3bc65a
3f9d4d19
beb4218f
3e9beead
bf8c46aa
3fdba628
3f11e748
be96503a
3fc6a4d8
bf76c974
3e3574c2
3f3be7a2
3eaa0c6f
3f78c568
bdb38f50
bfc55bcf
3f9be35d
bd4d2560
3f09e550
bfadc9ee
bf39d12d
3c1cc11d
3fc8e9f3
3e6107f6
3f5b6413
3e3ed972
bf54bcf8
bfd73413
3fbb37ff
3ed53431
3dae0640
bf20a16e
bf60973e
be5994e7
4012af13
3f07940f
bea9ac8f
3fc32219
bfd295f3
be6cd68b
3e939178
be80f912
3ea79ea2
bf110f9d
bef59619
3e612aac
3f899447
bf05227f
3fa39092
3f7dfc96
3cc3b88f
3e367654
3fb80f63
3fdc261e
bfcc4017
bd40c8e1
bfb13044
bf7fb75d
3e57eeec
bfd78b26
3fa67960
beee323f
3ede2e84
bfb852a3
bfb89e33
bf5459b1
bfd56591
3f8d2281
3ede3f6a
40029710
be8a5cc3
3fc5a252
bfacde05
3ca52dd3
bf23c9b8
bf06111c
3f169d2c
bf5299e3
3ef2603a
3fdef08b
3fa8edd4
3ff9f935
3f5d651e
bfd60c41
bfaa934d
3f5be6d5
3f14e28c
be269103
3f826189
3f03d7d2
bfc687a1
be9c23c0
bebab383
3f9da058
3feaf74a
beb64aeb
3ea45d1e
3eff33fa
be33ca29
bf79eef8
3f17158b
be94cc31
3ea58499
3e1db82b
3f194bfc
3f87b10e
bdf5d9a4
beb921a8
bfd0bbd4
3fa57a58
3f050f10
beb707f8
3d933394
be78e59f
3da65ee9
3f9dc233
3cba99b3
bf06f995
3e9b4a4d
3f879eb6
3e919b74
3f8070a9
bf31b1c5
bf53daee
3f8d36cc
bfb19a60
3f9e287a
bea17c1a
3e3331ca
bdd9467e
be954084
3f8ba46d
befc6013
bdd9a1cb
3eaa8a90
3d20405b
3f0e1ec8
bf06f571
bf8f31d4
3d99b36e
bf4511f6
bfb2b099
be67d32f
be53e916
3f2b3a5a
be563a99
bf0dd757
bf95966a
bff9c466
3e097ebf
3f961573
bf1dd041
3e0c9256
3ee4da7b
c0374358
3fb4a801
3f09a842
bf868b12
3e39219f
3f05b572
bfe060d0
3efd378b
bda0e933
3eb2f07c
3fba4dce
3f882175
3f95af0d
bf8b136d
3f03633e
3f91f0ea
4002cf3c
bff52c35
bfdd05a3
bf0e3da8
bea79a66
bf6684d7
3f2a3acd
3eac44eb
bf50e18c
bed68a73
bc9ee352
3f8f0b7f
3f89d28d
3ef9464b
bced7eee
befb4d80
3ec90f42
bf95874a
3fd98a09
3eaf1d21
bf4330f3
bfbd467f
bf84339c
bd0bae62
3f5a9c05
3d32a4fd
3fcd29c3
3ef5b592
bd9018ec
3e7e0845
bd64cf4c
403d544c
3c6284dd
3fcd7c2d
4010b0a5
3f1ba43f
bbb413e4
bd2d8824
3f50cf21
bf950515
bea6c9bd
3f0de568
bf13f5fc
bfce38a5
bf3eb46c
3ef80d48
3f69bcb5
bb4b572b
bf6e1f07
3d9604f2
3f362998
3f894f0c
3fb8b2ae
becca4df
bc07e110
3ed77c46
be8bc46a
3faaf078
3f2ec83b
bfa38dd6
bff295c3
be85911c
3f981a1e
bfde9c72
bf645f0e
3e0c4be9
3f512b87
bff1f7e4
bfac2874
bea316b6
bf0df277
bf80f698
bf90a380
bf175b8c
bf283a41
bf1a68d4
3d59999d
bf875b22
bf31f7d1
3f67b4a5
3f179a15
3de2a590
3f8de2a1
be93cc21
3f8f3718
40313d0d
be2381c2
3e84bd4a
3f98cd78
3f82d82f
3fe4199b
bf3a47e3
bf0a4587
3fc5bf92
3ee0e267
bdf68225
bf201935
3f1aa6ac
3f9ddb38
3e28ee54
3d01b62b
bf8f9a26
3f5a6b06
4000282b
3de5f8d4
400c9fa1
3be1369c
401386d7
bf9491ec
3edbf53d
3e92a6b0
3e747e75
bedf38f2
3e9f0ff3
3f3819aa
bfe30e2c
c01b4b15
bf7d61c8
3f32e8b7
bf234e4e
3f9a8ccf
be64d0fa
3f583ebc
be84cd94
3f0a45a1
bf3871d4
c0217067
bf8a3f2f
bfa9522b
3e70dbaf
bf313121
bf1d3bc6
3e81121b
bf260412
3f731ee2
3d1250ef
401ff9cc
bd8361ef
bd150ee4
3f39bc09
3ee10a75
bf7701c1
bfc13aa2
be040919
3fa4d011
bf176f31
3f9b3f9a
3eb43cf0
3ea320c6
3e5f982a
bf44b797
3ec6c84b
3f550b5b
be6b767b
bf6c648f
bf108a58
3f71e932
bfcbdcbe
bf097c5f
be31cac0
bf11868f
bf64386f
bf02c2e1
3c0dbae4
bf40478a
bf809b9e
3fd35798
bf6b4055
3f92de81
bf287977
be327d75
3ee2df3a
4015c6bc
bf87d525
bf219a72
3fa74ec5
3f839a78
3de03d6e
3e191607
3f083521
bf2cb51a
bfa95c79
3f4f0c51
3e4397fe
bea99763
3fe7581a
3f9c2895
bf38d801
3f336b75
bf81ebe1
bf5cc191
bfb31657
3f0b1b3f
3fb5997d
3f80a26d
bf028e86
3d62d57d
bfe2bfe7
be346bc4
bfcc903b
3f128efd
3d14f2fe
bf0bfe9d
3fc851f8
3f926c06
3f80120b
3f00aebc
3e96ffe1
3fe026aa
3f00dd6e
be662363
bf43db93
bf308f01
c001d483
3ee34e00
3f45a58c
be7a84ea
3f64eb22
bebe0404
bf808eda
bf8d78ac
bf01e06c
3e471231
3f4a0a0e
bf5c5977
3f2f1664
bf052972
3e0644a5
c015fdf6
3e6bf151
bea3bdd6
3f72ff61
c001e309
bc2f0402
3f839bc7
bea071ae
3fa36ba1
3e536207
befb7347
bf715b83
3e8b315a
3f203020
3f70f2bd
c001ebe1
3e25703e
3e49a8fc
bdfb9bdb
bf8b3be1
bd3ccf7e
3e808824
bec01dde
3f6a5711
3f19ea7c
bebdbdda
3f74b05a
bf558ba5
bf726946
bfa34768
3f3cc5dc
3f556978
bf7e6923
be0978c2
be88701b
3cb30e7c
c03929e3
3f95293f
3fe448d9
beadbf69
c014e4cb
bdf45df4
3e4bd803
be055b92
be340af7
beaf9a70
bfab9ca2
bf647082
bfb99b01
3ee8ce1e
c00c14ca
40491038
3fc4e5d5
be6c0f50
bd473b61
3f4188c2
bf83547c
bf44af58
bf95aac1
3f48b160
becd97eb
3fb7b035
bfaea279
3dd678a2
bf5e1bd0
3e306c62
3eca16c1
be4760f4
bf28f9c7
3f6753e7
be8d1425
3fba0a19
bd6eeb37
bf094cde
bf641252
3ed5e617
3f03f3d8
3e0ab525
3f1cf5ea
3f20efe0
3d9193cb
3f6737e5
3ec4a567
bf2385b4
bf6a1be1
3f04d628
bf936991
be97ca6b
bf86d372
3d0439b4
bf4f0754
bd6e3ef2
3f68864b
3df7d44f
bf9a4395
3ec43fa5
bf55e865
be15b059
3ff968cd
bd6727e4
3cf67c5d
bfb19d30
3fec9a33
3ed79ea4
bee918b5
bf935f22
bfe6729d
3e0d83f9
c033c15e
bf7b8ef0
befdbf80
402d34ff
be827c16
3fe4841a
3fb05b7d
3db92b89
bedf6850
bf9f16e0
3e5ad174
bfb75bec
3f771141
3ecee8a1
bf0962db
befd33b8
3ef738e7
bf972a93
bf376487
4011d3bf
bf08267e
3ebc4f60
3f00d600
3f5ee6a9
3eea12b4
3f66dc46
bf4562d6
3fc1b4b4
bfdac971
bfdaa08e
be71ec74
bfedffe1
bf022849
3f612e42
bfad67e8
3ea86a00
3f4d02aa
bf99e1e4
3f086f73
3e3ce821
bf91cdc0
be4e2469
bf5a7f69
3d5bfd64
c0232371
bf0b1090
3f8b6d8e
3f6739dd
3f6ef253
bdedc3c9
3f09a686
3ef54d68
3f03c03c
bfa1ac45
bc49d0dd
bf2617b4
bd68c819
3f154d7a
bf97c10e
c00a9dbf
bdc24993
3ecc5fc3
bda71e03
be590fec
bf7007d1
bf57e5c4
be3b15c9
3facfb8f
3d856e5f
3cb1948b
3ec3243d
bea786ba
3ebb7d41
3e287426
bf15feaf
3f2317a0
bf809bfa
3f3a73d2
3e62ddbd
be93a947
3efa09d8
bf38db9c
3fd6e2be
bdbbd942
bf8c1b08
3feea0f9
3e93c01d
be56bb17
bf5b64d5
be260151
bf4607d7
be380f05
bf50dc28
bf6ae5f3
bfabb701
3f20b023
be7a3fe2
3ff26012
3faab98d
3fc37fa0
3f4764bb
beb7d0ec
3f638827
3ebecc15
bc4a249d
3f3a438d
3e93bafc
3c8fdb63
bf53598e
bed9c9bc
3e228499
3d03d1e7
bf2a0876
3ea54d24
3f97b531
3e4c9f3f
3f850c19
3f2717e8
bf1b6504
3ee0e8a1
4019fffb
bf1b96aa
bf49cdc7
bf719dd6
3e8fa491
bf8ddb2a
bf1ebc1d
bfc877e3
3dae1399
bf8305b3
bfc4efe5
beb58bd2
bf919067
bfb1a468
3f82c6f2
be85a948
bf07a14f
3f611365
bfbe27ab
3ffecfd7
3e33d3b3
bed83a77
bf4f06fe
bfb27723
bea15d2d
3f6004b6
bfbba2e3
bee66e82
3fc1dcf9
be6a92f6
3f85ff98
bffe1778
3f85d0ca
3f6da276
bdd8bb92
3f023d6b
3e7b11e2
bf9e1f7a
3f9f7391
bf466171
3ee7a9e6
3edb69ed
3f0c2da6
bf130443
3f94aeca
3ec71992
3e848908
3f776068
bf8438c8
bee37b27
3e87e8e3
3ff1c4d5
bf4b4f40
3f632862
3e8d3f49
3f5f1f2e
bfd1f84f
3fc45b3f
3eb84e81
3d800224
bfe56979
3edf02bc
bf9555ec
400c8903
bfae8ff6
3f3e16d4
bfbd83df
3f1d2820
3f8908dc
bfcbcd07
3ee64fd3
bdf8e468
3f27d7df
3f2500bb
bf385cef
bf76fb11
beeaff69
3efdda66
bf7216d8
3f6a4d6e
bf60163f
3f823cc6
bf2bcfaa
3f1ba382
c0165766
bdbd14fe
3e3844c5
3e406595
3fb834f7
bf9c24f2
3d089672
bf8c6d13
3dd8beb3
3fae515b
3ebf003e
40034058
3f9dcd47
3f8a1582
3f74bfc6
3ed4a2d5
be55d9ac
3e27e89e
3f944523
bfd7e747
3fde14d9
3f520807
3f90b485
bdc7c8bc
3f2ff073
bf1be1c7
c00f9610
3fc1b977
3e9a80b0
bf899f14
3f098597
3f8720a1
bebe7bd0
3e977740
bd651824
3e9fc1a8
bdcd8568
bf1a5d36
3f3258cc
3fe93313
3f5b36d2
3f14f2ed
bdab5d7e
be67c938
3f698b44
bf7591da
bffd96c1
3f4a77c4
be888600
3f9516a5
bf4bf4c7
bfd4fdf7
3fcb2970
bf203269
3ee7718a
bdf3b6fb
bf196d22
bc156daa
c0021a04
3f9d7b3a
be1a9f2a
be3b49cd
3f8c4d09
3f809547
3e1f0ba6
4016fd16
3f05d302
bef5cf9a
bfb33de5
3e16bfa1
3f07dc02
be12fe3c
3f37d605
3e7525b4
befead87
3f472f67
be198443
3f1d7365
bf70ab30
bb95cfed
be8feac9
3f42c5c1
bfae46d4
3f8c48a7
3fbdd905
bf408fd3
3f138739
bf97c96f
bf3bc28f
bf37bc38
3f1dde75
be28cb62
beda4262
bf490b03
3f458e97
bf8a3f0f
bf497cc4
bf15bf0c
3f0347e7
bfb40614
bebccceb
3fe44c89
3ea79c17
3e91beb8
3eadb79c
3ec0fa07
c022b34b
be5ab68a
bf15a846
bf1e8266
beecf111
3e0bec3b
3f288fc8
bf4752d7
be8f0731
bde6e2d4
bedf3db8
3ec04574
3ee3c116
3f24b488
3fc446e1
3fa979a6
3e9c40b6
3f5cd26f
bf9cd114
beb93b11
3d312484
bed0020f
bf2b83d0
bfbe1033
c0238872
3e6da170
3f4c6caa
be804e21
3f4a616b
be95b7cb
3f854faa
bf9fdd5d
3b8a7d16
3eecbf02
beafdeab
bec73835
be8dae86
3f68a696
bf11ac87
3ee294c3
be3f215f
bfe44893
be2737ba
3fb4e40f
bfc830b2
b9c35fdb
3f263062
3f72950f
3e9953b3
3eb2e116
bf138a5e
bf94a459
bf5af4f3
bf11ca65
bfb3a023
be773aed
3e6991b8
bf079806
3fe3b80f
bf9c1fb9
3f37e521
3f820cfa
3f1a0a2b
3fdc2755
3f04af02
3fe8f804
3e72fc40
bf9a17d5
3eedef3b
bf10c468
bfbe3652
3e1ac6a0
3f61ef9e
3dedc05f
c00ff6d7
3f552899
bd1dbf38
3ecabae7
beaba104
40090cbf
bf82a15a
3f538f1c
3ef2a942
3f9abdb6
bf38843c
bf5a04f5
3fccc85a
3fd057dc
3f93a660
3f8bb64e
bf086f77
bc1c0850
bea04cc0
c01c18ab
bf91c37f
3f2b1d77
bf1aebfa
3ece6cb7
3f53e039
bf71fccd
3eebec14
3ef07b81
bf1c18db
3cb09f88
3f729e22
3f0bcc37
3f18c7b4
bfb2630a
bf4cd8dc
bf4b31f7
3f9da1cd
4006db00
be0738e6
bff93f24
3f8c1058
3e10f072
bd9e0c54
bfe0c9ef
3d95f7a0
3fcc5b2d
be09523e
bf6a8207
3e0e4a6b
3fa1c957
3e8fd2c4
bfe37cb2
bf5d7bd9
bf0d4610
be282536
bea94e21
bfb42b19
bf772aa9
3ed1400d
bf355ed2
bd6c595f
bf8adf95
3f54f982
bf4208a1
3ea209d1
3e1044d4
be84be49
3f2eb58a
bf60a2e6
bf1590a1
bf79cfa8
be96837e
3fc0898f
3d0fab81
3e5331c1
3d3c7125
3e9f6e0c
c0097fef
bc428309
3f968bce
3e3242b5
3eb4e45a
3ed6af4e
3eaf8ffa
3dcb58ee
be3c93c1
3f42b6fb
3ec45052
3cfa1859
bf080e35
3d200768
bf5c1cd7
be7857de
3d933336
bf2f619c
3fc96a58
3df0f905
bf2c8eaa
bf0cf770
bc16670e
3e16d72c
bf61c2ed
bf8f6aec
3f46602b
3f6349ae
bed6321a
bd7fda55
bcb08efb
3f4e7c0a
3f4c8e5a
3de4d8d0
bf93560e
3f0efac9
3f0568b9
be56ba03
be07d035
3f8c69d5
3e876849
3f5e0443
3ca628f8
3f7ad125
3edea259
bffaf7f3
bf9f6fc5
3f8fa535
bedd0d7d
bea34ceb
c030f9af
bf072408
bf920e4a
403f547c
beecd737
bfaf9ca5
3ea5f173
3eaae290
bf9f538d
bf9220e6
3f13e9e1
3f98aae3
3e680eb2
bf8cd7d8
bead47f1
bec73f98
3e9d7e35
be7c0c63
3feffe47
3f6de94f
3fcabe03
be83410f
3f411525
3f89fd49
bf9d6b55
bee57447
3ffb7c22
3e6f649e
3f74f1d1
bf78d089
c0136159
3e1e78aa
3d972028
3fc18ba9
bd99e902
3fc35106
c02c6ed2
3e8aef92
3ec24ff6
3f2f2225
bfd5c760
be57d0ee
3f0bc06b
bf26a115
3f0746f0
bea80bf9
3faf1894
bd626dbc
be8bc123
3f5f541f
bf2cf177
bfb628b4
bfa04d07
3eeb7180
be6f293f
3f05726c
3ecf474a
3f148654
be505fbd
bd6dc8d2
3ef43d75
bf0f92de
3f7538dd
3f9a538c
3e54a41a
bd50a9ae
bddc82c9
3fec3933
3f1dd7e9
bf40672a
3f2cb739
3fc253a8
bfb02199
bdbecc47
be94d5a3
bf386972
3f85dd4e
bf108b83
bfdf1f93
be8092a8
bf2457be
bf2a11fc
3e839225
bfb7c5e8
3f90d386
bdc5f488
bf7c8dea
3d5d195f
3f26a9ca
3f7c07b0
3f6bf520
3ffed322
3fc82399
3f43044f
3e91964d
c0097a9a
3ed69ffc
3f3caf89
3e223d32
bf9e59f2
bfcedccd
3fb18936
bf853570
40152f34
beb897b3
bf45d2b8
3f6362da
3e876897
3fb7dea8
400a40eb
3eaedea6
3e60cb39
3fb65afa
4000dbda
3f02eda7
3fe1142f
c005c17d
3f6e5613
be1b298e
bf85b900
3f379583
3faffe2a
3fa1be2f
bfac8b80
3ec1e892
3f980050
bf152319
bf553703
c009b71e
bd91bef9
3fc030b6
3dd87758
be1876c4
3f9c47c5
c01694c4
be771c50
bfad2232
3f72d9e8
3f84af06
bf9ee8ec
be0321f1
3f721168
3f4275d0
3e65d730
3ee19571
bef46908
c00f325c
bfb20d4d
3f22ba7e
3e92920b
bfc1c8b9
bfa8408c
3f824346
bfde2b20
bf5478d5
be30ba36
3f9f991a
bfcd0769
3f5ccd98
be1d7f12
bf4f2427
bc15a5d9
bfa1500b
3fbb7e1e
c000a67f
bd82a307
bf9d4035
3ee5460a
bfcf99d0
3df536cb
bfc6c8ca
bfb1a051
bf4f86d7
bfa24081
bfa2e5b2
be3e9196
bfa0daea
bdad6b53
400e9d05
bdac86a7
bee7f898
bf41438f
be814fd3
40108f4e
3f3dd531
be3526af
3fd9b97f
be2a4834
bf9d9136
3f12f072
bf07ab12
bf31df93
3f5cbc2f
3f1ec264
bf43ceef
3f3b9a4b
3e2ff213
3f619b86
be2865e9
bf9f8273
3f000d12
bedb449a
3f0b9481
bf61694a
be994e45
3f54c56c
bf95cd69
3fd497db
3f2986bc
3f643e1e
bfc46f63
3f9e8226
3f700158
bf9c16bd
beaca29d
bfd50bf7
3f79c1bb
3f2aa947
ba1276fe
3e647a9c
3de80622
3f212088
bf53a58c
bfc64af2
bf537c78
bf6bdf31
3ef36984
3c190cf9
bf589296
3e9cd44b
401a6604
3fd08b5a
bfb8c913
3ea70a82
beaff083
3fc02b16
3ed10e16
bf22c84f
bf418ff3
3e081c73
bf4626a0
3d0a293f
bfb9c8c1
bf1f10e5
3eb2363c
3e35fbc1
3f588ed4
3fd2d30e
3f833db8
3fa13d8b
3f8e7b4d
bf432a4e
3ef07f46
3f2d5044
3f1329b3
be56fd78
3e86d05a
3ea0de1d
3e3e0c50
3f60057c
ba9a6eac
bcbf07cb
bfe1acd8
3fac2818
3e01f127
3f0e1044
bd5953b9
bf8d6120
3e587a20
3f489e5c
bea8922d
be34dac7
bf403ccb
be860153
bf8b147c
bf8bbe9a
bed22588
bfc6d79f
3fd49b94
3bd59113
3e4fa016
c03b6142
bf2bb0b6
402fc3cb
3f2bcd53
3e3aa48f
3e4507ec
3cb67883
3f033bbe
be7ff788
c00ebe03
bdd0e523
be178b96
3f3673e2
bf9068d4
3f3ebdfc
3d0e99e9
3ee47ca8
bfdd653c
bf891c9b
3f2fd507
bd80f78d
bf751325
bf35b633
be166fa7
3fd55c36
3f31c992
bf36700d
bfca9327
3e982001
3cf28a67
bfcb4ee5
bdf83bce
3f44b9f8
40054748
be944f80
3dd77742
be30607c
3d9fec80
3f99c680
3edf31ba
bf30bbe5
bf8cbf9f
be7fb810
3f9e2b7e
3f92a1bf
beda2ae4
3f85e2f8
bf725e81
bf682ecd
beb942f0
3f2904c7
3ff27876
3eb8f8b9
3fdeaefe
bf48b554
3ef9b21c
bea1d6e8
bf633286
3e1bdfc0
3eaea8d1
c00064db
3f07278f
3e094858
3ebd5b69
4020d11b
bf037497
bf561ae8
bf316175
bc5a78f4
bfa92e04
3e8f92dd
3fb24960
3ff8c2ef
bfd50e97
bff4dbc7
bf14c808
3f23152a
3f1ed13c
3f918381
bf4995f1
3ec816c4
bce3ad02
3f820bff
bf86a2da
3e677bec
bd879ada
bf7ea37e
3f394e9a
bfcb577d
3e8421e4
bfbc1b0a
bf1d9fbe
3e5ae98c
bfcc0bcb
befab294
bfd05dac
be45a4dd
bfc41ad3
bf973325
3f0e45d2
bfea97d5
bffa80c1
bfeca20a
3f775ca9
3f35bed9
3f2c1475
bef46558
bf30eacf
bfb803f6
3f80294f
3f421808
bebca718
bf7d5dd5
be67dbb7
be9fb4dc
bf6c47ef
3f1c0435
bf827277
bd90b676
3febabdc
3c9abcca
3f388129
3f47b0cc
3f87d191
3f2616e0
bed38655
3f3668b2
3eb5a1bf
3e715b29
bdfa5906
3e0bb6bd
bea18761
3eca84f6
3fddc762
3f2080b2
3e3c9e71
3f68473d
3f1f93d4
bf4a5259
3f6c477d
3f267f9b
bed6d686
3f8a990c
bf918484
bf481896
3fb9a8c0
bf751c8f
bea71beb
3f41b9d5
3e7667da
bf991e97
bfbd0880
c0589fe4
be8f2e79
3f75f646
bea9c373
be8305de
be4c31e2
400c1bc4
bf922238
3f9068db
3f3b8c1d
3e22b2e1
bf03457f
3f3c6cdd
3f7e8eb1
3e92aa67
3ec8e228
bf645f54
bf3881d0
bfa73407
3fa41ba9
bfe4d65e
befdb233
c0013804
3fb3b4c3
bf21e227
3fb66d21
3ee5681f
bf1139de
bf13f2a2
bf599ceb
bf5f14ed
befa9839
bf04fe46
bfc2e323
3f198e55
bf83c5ef
3eb5e818
3f765f26
bfa85cae
3fad6a18
bf13d862
bfab57d1
3d41a4b0
3ddc96b1
bfdbe355
bf0ac3e4
3f082158
c0174aa3
3e2e22f9
3f102ab9
bf30964c
3fcb23ff
3e1cd6e2
bf2b0bfb
bef88f8c
3f6e3a02
3f41d68b
bf4e9236
3ec34e62
beb7b8c1
3f443b91
3edbd4e3
3f3e3d15
3eff8b38
bc277b49
bec19b30
3e4b7c50
3f23c5a6
3f4cca6f
3f836074
3d14d7e2
3ce900f3
bf14d158
bf8bd6ba
3f6b67af
be95316b
bfb69efd
bfb45b0b
bf47a3e2
3f8291b8
3ffc65ed
3f7272e2
be140e9e
bfae8944
be90019a
3ff873c8
bf447c61
bed71bf9
3f0aefe1
3f099861
3f59c144
bf79f34c
3d7ec4b7
3f966812
be18ae3b
bd813969
3ee95bc0
3e6487c9
bfce0233
bfeb330a
3f88813f
3fa6ed3d
bf44c151
3ef9a3d4
3fd6b857
bf934ede
bf51a1af
bf99652e
3efd35a9
bfc66793
bda18db4
3fb6f889
3fc8b327
3ebd4886
3e890375
3e8799b0
3f15f2a4
bc1b6ec4
bf8996ca
3fb70f7a
3fc44028
3f46ed07
bfbe937b
3f9c15ea
bee2805d
bfbc71e9
be88d7d9
c01f3863
be70a6b8
3f900235
3e75f063
3f2a5ca3
bfa6e8fb
bf75a0cb
be202a1d
bfaafea0
3fc974a8
3f843dc9
3f4be352
3eb94f3d
3e11ceb3
3f968c1e
be16db1c
3f3aa7ef
bef51586
bfd1321d
bd55d927
be77a607
3f9fd90c
400998dd
bfa0e95f
bec88339
bec5e065
bfb43475
3e469330
bf9bf444
bf4e178e
bf8a8adf
bec51b86
be82e77f
3ed4fe32
bf3d714e
bff4c4e8
3eebe6fa
bec89c5b
bf846030
bf9c1ec6
bf905b27
bfd319b3
3f3c7589
3d5a9f8d
3e6cabbc
3e8b356f
3f2bbbd9
3f8fe217
3e7f4967
3f024c36
bfa2075d
3f824a90
3ff0238c
3c8ee300
404a2aea
3de27186
3f3478c6
bf70e77c
bf365583
bfb6ff9c
bf418eae
bf4e6fce
bd453d39
3f344807
3e75ca81
be9f9b14
be7f8f2a
3f9c95f7
be5399e1
3e510dec
3fde523a
3eb04a9a
3f85842a
3f3e17b4
3d8892d4
3ef7e4b0
bfac9fb6
3fd9457c
3f528008
be2f2691
bfb407a9
bfe7192f
3f940761
bea10ed8
be69892e
bed347c0
bfa99db1
bfbbacfc
3fde563e
3d392502
3d263c8c
be47e5eb
3fc06151
bfee0b9b
bfc6f322
3d1b1cb1
3e742882
be208f9c
bf482995
3fce87c0
3ef1ea85
bf0e98f2
bdbf78ef
bf865d4e
3f4cd926
3e5233ea
3f794648
bf3da198
3f257d50
bf58755f
3e6b9559
c0063f8f
3f758ea4
bc8cc582
beed7fd6
bfc14c2e
be8c314c
3f2fdd50
be26a4e0
3fae8879
3f9616ee
3e76257f
bf9ee104
3f8c25b3
beacd9c6
3ec94bc5
bf90823a
3f7c18b2
bee71b51
3fde21f1
bdec8efc
bedd5589
bf56f1c6
3fa662b2
c030660c
3d776894
bfc892ce
3f8b962b
3ef96ac8
bf4e3562
402f80a5
3f204ccd
bdaee53a
bf315a08
bf800d13
3f5cb506
3f7a8dd3
bf240267
3f23d2ae
3ece9dfa
3e61d592
bcda5bd4
bf061520
3f74e9c0
400c83fb
bf81a894
3fee7a36
3f2495e8
3e95f44b
3e3cdb9d
bef3f46f
bfc94951
bea00f9a
3ed064f5
bf68742f
bfb2d0a3
bfccb111
be883e91
bf882d27
3f667c51
3f6f27da
bfbd7404
bf2905fb
c012fa15
bf9f9884
bf955ea5
bf242c9a
3fb51685
befefd94
3e9255b1
bf3975f0
3ef9ab28
bf603353
3f2ea5ae
beac1e8c
3fbbda18
3ecd8e52
bf899a0c
bf2d1dbf
bed6b7e6
3f919319
bff6047e
3ec3fab6
3f79dac8
bed376a9
3f0c9b1e
3ff1edb7
3fda50de
bf2f5ea3
3bf286ca
bfabd5af
bf809c51
bfa2278b
bd79edd4
be749784
bf0310c7
3e093edd
bf5d0656
3dd18a18
3e1e65ae
3f27b52c
3eb4be4b
bf478f1b
bf088dd1
bfa40ac8
3f394a9c
3fae9289
bfaa90cb
bf84563c
bdbf597f
bf8cd061
3fcb4a4d
3f9fe0e7
3f51b5cf
3ef50940
bef55f67
bf8bf62c
3e6d5242
3fa7f1e5
bf559252
bda30b21
be88b829
3f3187f4
bec4a6e3
be8e910f
3f064782
3f0a09f5
bfc1168c
3dfc71c0
bf12ee6f
3ea8599b
bf441995
3f89655b
bf86da4a
bcb03025
3ebcb260
3f277819
3fc84c98
3d86e653
3fccca1a
bedc382b
bf10d99a
3f8715b1
3ef489e8
bd734b11
bfe8833d
be17d8dc
3efbd190
3f5af407
bf45b0f6
bd636a9a
3fba0b40
be8652ca
3f5029ef
bf86136c
3f3314d1
bf0369c4
bcdec845
bf9b57a0
3e28e12a
3ef0be74
3f3c7f1e
3fedb8ab
beca7dbe
3f348352
3f276e0b
3eec72c8
bf1aa91e
3ef85842
bfa07939
bea2a75c
3f6e398a
bf52cca0
bf807570
bdf1ecff
3f3f72d7
bf9e8945
3e266c9d
bdf62df8
3f12277c
3fa1bf16
3f62d732
3fd410da
3f04c7e6
3edc682e
3f4f4ce6
3f4dd835
3eb484ce
bf21186c
3fa0ab42
3e5e53e2
3e8c9f78
bf652f8d
3fd342f5
bfc16aa4
bf5d3524
bffcdc55
3e945b99
bfbadae7
c00d72a2
bc6c7246
bf6a0cd5
be8d240b
3ba5671d
bf5587ea
be853b4a
3edf90fc
3e4d76a8
bf4a95db
3f02f09d
bf53f0ba
3eac0b89
bfb9a63b
3eebb0b9
bf004a27
3e4b0645
3f098a97
3fade2b4
3e157cf9
bfe4014d
bf13fbfe
beeda8ed
bf265d7c
3ea2c307
3ef26baa
bf677b1d
bfa91b34
3bcf6e55
bf9c65af
3f0fb474
c01760d6
3fa47d42
3e4f9dfa
3ef9d6e5
be15fd92
3d90e3ce
bf4f49b1
3f0fb4aa
3e183ee0
3eb0dd24
3ce01e80
bf75414c
3f1977f1
bf34ae4a
3eb7d616
bfde33d5
3f3f3bb6
3f45a0a2
bede7a63
bf9fd0c1
bf4bc3c9
3fabc8f8
3e80b001
c013f6be
3fff63be
be718594
bfa3eb63
3f7c1e14
bf3c8e6b
bfe1c002
3f35afe4
3f61b638
c00a10b2
bf82e4c3
be9f6494
3d8ab0ae
bed74b05
3eabea78
3eef6ba4
3f3876c9
bf657a4b
3fab8bf9
3df53b86
40000d25
be9e62ff
bfe3df04
3fcf050a
3edb9df1
bfbcf32f
bf73e918
3e6e4fc6
bf173bf1
3fa586ba
3e5bb617
3efafbff
bdbb9e4c
bc6518d7
3eff0bf9
bfa73d9f
bf6a00e3
bf9d3e78
bfc74089
bfa37ed1
bfc65035
3dc3a038
bf0ac315
bee866db
beeff234
bf3e1112
3eeff46b
bfd355ee
be386537
3c97449f
3fad944b
bf84b84c
3f01fbdf
3fcca772
3efd0834
bf966136
3e165071
