be5cde10
3f3923a8
b9cdadad
bf6e874b
bde7046a
3f0e68df
3fb5a8a9
3f8229af
be5ed8fe
beb4f165
3eb7148c
3f144e00
be2f67fd
3f076e7c
bf82b1bb
3d2ff274
3ff540a4
be864a75
befd8575
bddb6480
bec97ff8
3f18ef21
bf70a92e
bee03c58
3fc4acaa
3fa24044
be82aea2
bcef05f8
be8029f6
be617368
400f001e
3f1749f1
3f1d21c7
3f0152af
bd4b2da9
3e6846c1
bf8346b1
3f8a433d
3fccd4dd
bdf15105
4017b177
bf7c8b50
bf8a94f7
3f0731d5
3f85254a
bde12fdb
3f863829
3ea08529
bee553f1
3f8de00b
be8967e6
3f285cc1
3e12cced
bf999ce4
3f87a55a
3b579515
bf0330e7
3ed8513e
3f6f97ab
3fda8af9
bf123cff
3f742953
bf808c78
3eae817d
bf0db884
3fb4d135
bfb21327
bd5a8adb
3fcbb47d
3ede59ff
bedc7fd8
3eaa87da
bedec0a5
3dc4bd20
bdc859bc
bf5ce796
bf8b9fed
3e915f3c
be59ec7a
3eaf7177
bcb1a396
bee03660
bf93f744
3e679621
bf15b4ce
bfb28dcf
bf08fb7f
be42a155
3fbeb936
bfd15a6d
bd598125
bf4c47f8
3f6fef01
3ee79111
bf0aabce
bf247c6d
3faf5c86
3f30fe9d
3f1a38c2
bf740ccd
bf48ba03
bf2b9bcc
bea147af
bfe17b71
3f754c21
bf964a79
bf3854c7
3e99adf5
3f243990
3f7b10a7
3fae00dc
3f69c8f7
3e7974a7
bfac1658
c038b770
3f594afc
3fa568e5
3f7d96cb
3f38ca29
bdef0706
3f4904ad
3ea7b1a2
3f41839a
3ed23249
3f3cd7f6
3f84e0f5
400cd355
3f80d7f5
be8f6401
bfc46a60
3e731e79
3d64ef5f
3b01eb38
bedd4fa0
3f829079
3fe4cfc6
bef3d661
bfa834c3
3ec9861a
3ff345e9
beb53054
c00e1630
3fa32497
bf72629c
bf1a9417
3eedbac8
bf08d039
3f3a400d
be5a4ae6
40000409
3fd33642
be6ff1a8
bf526251
bf402024
be3774a9
bf6dc4f1
3f8256b2
3f988353
becd3320
bf6ec61b
3eb9cd86
be8f3899
bfcdf363
3dfb6c87
bf54dd01
3cbb56fa
3ff57f2f
bf1ded55
3d303220
3f81857e
3f2db6aa
bf30d256
4016c7ac
be68a9fb
bf8ceaa7
bff09f17
c01173dd
4026db66
bf242d63
3fad8573
bf38747f
3f105e30
3f15e1a4
c0374f25
bf82c873
c001bf8c
3ed04bc1
3d5124b4
bed8fc81
3faad8cf
bfbca5a7
3f29771d
bf2b7514
bdf992c2
3f97ce48
3fdcf485
bf0e6cb7
3e94eda1
3db2463c
bffb27e1
3fc0425f
3eb6cbcb
bf129434
bf590bc6
3f02fb88
bfe1f1ed
3eecc4fe
bff0597f
3f2bcefd
bf462130
bfd2156a
3e9a02e5
bf7c8c32
3f195e8f
3febbfbd
3e818d60
3f868abe
3b98e216
3eaf795b
bd1f8d60
3eb90f63
bf08a249
bf5b2f8a
3f60f934
bf34776e
3ff4d8ff
3fbee47a
bd7b30d1
3e00ead2
3e93872a
be8b85aa
3fd17a9c
be9798f5
3eb5bf6d
bf0d4130
3f9b7daa
bdc9a585
3f07c1f6
bfa3a546
3e64a4e0
bf69f6b1
beb678e4
3f32afcc
3e8b2cf5
bf6bc36c
bf1f00c4
bf86d70e
3f382abf
3e0b5c80
3ef2e812
3ea148db
bfc6f05d
3c796b52
3fdc36be
bf06698d
3e785f5d
3f752f4f
3f232370
bf84c3ef
be9dd58d
3f48f82d
c02017d1
3dee6210
3f3f8f75
bece0cce
be81e515
3f938704
3f56354f
3d808a78
bf59207e
3f81193b
beb0f2df
3fbef274
bf225c7f
3fb17181
bebed7d3
3f629835
bf6a0e98
bf9af488
bfd1f40c
3f7735f2
bd90fce7
3efaa143
3fb42ac6
3fba1b4f
bf74daa7
bf380d1f
bf5ccbd1
bb4f03f6
3e5dee49
bf071430
3dfb7199
bee9228f
bfac104b
3e15c949
be3ccd9e
3e9211ec
bf548551
bfb184fb
3ec0629f
bf0ee0e0
3fb97402
4020dc1f
c009f339
3e0324fa
c0156950
3d5b470a
3f901d75
bf5b0d6e
bf42b0a9
bfc1e4f9
bf9baa26
3fe39b8e
3dac7935
3f5efbcb
bd545635
bf8280ba
bef5e132
bf8b27b4
3f404cac
bfbc18a0
3f264d42
bd3ed0da
bfac062d
be7aa42c
bf02b120
bf9e34b5
bc756a18
bf3a5c86
3da77a8f
3f8bbb62
3f4c9085
3f47406c
3fca59a6
3f020256
402b546c
bfadd437
3fa4458e
beda5a89
bf8ab94b
bd8f5032
bfac11bb
3e8ad71e
3ecc9c0d
3e56bee0
3f85c8b9
3f5fcffd
bf8b0a4a
3f691ee1
be396330
be86e2d6
3ecf2e99
4012281a
bfbf97df
3e24b549
3e97f405
3e8753a4
bf09ca23
be9d1489
bd800d31
c00923ab
bfe2f16d
3f5e8b35
bf81b1e3
bf2bca72
3f1b9251
be727cd8
3f658313
3f2ba163
3f44de60
bd30ae3d
3ed2819c
3eef8069
be6dad81
3f9893b7
bf0f2cb6
bf10ff1c
bed06f03
be660fb4
beddf1bb
3ea65cf8
bfb5acee
c01dbfc9
beebe424
3eae6705
bfd65a04
3f1af5c0
3f966853
3f368485
bfa30e93
3f24128f
bf178ef8
bf20e496
3fa24666
3e85b753
3e1533d0
3f3ec1f0
bf68fb6f
3d82e96f
bedf9acf
3fb4cc52
bda5e2cb
3faaa289
bfaeb508
3f4b05ab
3e9837b5
3f2ace71
3faf0c13
3d528b7c
bfb8d17f
3f486427
bf7a731d
bfea7cc0
3e062237
bccfb164
3fa9f5e9
bf13b617
be122de8
bf75746e
3f0b745c
be998dd5
3f739845
be9702ec
3e3e11d1
3e617081
be51bf8c
bfc2f362
3ea04bea
407851f5
c01b188c
c037bb80
3f7910d0
bec1dc2a
3fca029e
3e208a03
3eda84e6
3e3513e6
bd52ea09
bf18500a
bee7f915
3f11c279
402ea2c9
3fe5da38
c0045779
3f24e108
3f8d871a
3fb47c16
3ea857b5
beed50dd
bf47b114
bec174d5
3ef4cfee
3e9de065
be0fc89c
be5675a4
3d23fec3
bf26c16c
3fa025c4
bf7f6190
bf883c8e
bf2b249b
be6a517b
3de6c992
3f6e28f0
bf7fd25f
bd9af0fd
3e2a6be7
3ff012f8
bfa341d3
bd8f4432
3f039254
3e6d640f
3ea4800c
be05ad90
3f95f640
becc6966
3ea15629
bf08440a
bf405747
3f4a209b
bf855649
bf59a3e2
3f853fa7
bfeaedb4
3f56fa27
3f5895e8
bf1f8f6b
bf921a38
bfe25559
401aaffc
bf913004
bfccf0c6
3f1af468
bf8fe82c
3f06c4ca
bd5cd4ca
3fb536b9
3f84c66d
3e205a9a
3fe62676
beea58ec
3fb95575
bf966882
bc961578
3eca04b6
bf2ed5bb
bff51d1b
bfcb0a28
bf1f8668
bf3d2e44
be237d93
3f075517
3e25df1e
be52821f
bf06f5b6
3eadf48a
3d7e4a46
3e25b0c5
bf8caaf9
beeea7be
3ed0ae0d
bf5c9221
bf213d00
bed1db3e
bf5cc874
401040d8
3ed8354b
bec1a32b
3f7f1679
beea53c3
3f96d9a2
3fb4121b
beb7b17e
3f4f45fc
bfae023b
3e0036c6
bf1ca15b
be559a76
bdf88cba
3f42f1ba
3fd77035
3fa73d79
3f34dea4
becf3960
c0240b75
bf5babd9
3e781285
bf8678bc
bcd97f8b
3f316c94
3fb70898
bfc63d2a
3f251ee6
3f577b41
3ec7c287
3f171aab
bcdff34b
bf194412
3ffc2d44
3f3df304
bd4df847
be91f220
be57230e
bfdce622
3cffc565
bd0d5e41
3e506b6b
bf08274a
3f061ad5
bf8b6ce8
3e3d7b89
3e02db1c
3dec07fa
3d90e500
be67a377
3fb4b91d
3f9673fd
3f185d71
be87cf47
3dbaa677
403b9eab
3f02ea33
bf577c2d
be7ee897
3faeca81
3e9a7cb3
3f2a49b8
3f99e2e2
bf5fd50a
bf975778
bf81993a
bede1b8f
be61367e
bf5b225a
3fc0359e
3e9f1a22
3e6cfa7c
bf435172
40025a45
3ed933a6
bf307712
3f317a6a
be8ca5e5
be1e9492
bcf20a12
3eea7550
bf8cbb0a
bf975097
3facd7ee
3f28f063
3f7e7094
be98a20f
3f0df5f4
3f87d0ea
3e399efb
3dbe9fed
bf7203b3
3e9a1065
3fe41f7d
3dfe0dea
bf690ca0
be4273fb
3f843f42
3d0480b2
3d2d3e59
be16db58
bf5716f8
3ecd60fd
3d8030b3
bf8aa3d6
bf5b77e0
3f6c4c72
40260778
3dfec306
bf913e18
bf025061
3f98267d
be27718c
bda82933
bf77d2f7
3f37b0a3
3fa48335
bfd6271e
3e225660
3f9d56fe
bec9dee3
3fdb2e3d
3f3f736a
bfa185bc
bfbd6934
bd14819b
bf51ae59
bca204e3
3e91a986
be6a9581
3d760510
bee77f6c
400873c5
c00063c3
be7df804
beeb51cd
bed41ceb
bebefcb4
3f9886e4
4013aa68
bef347c4
3f4da5da
3f56c3a8
bdd048d6
3f4d7b9a
400fa1dc
3deeee47
3f356b30
be6f68a8
bf8e1b4b
be901128
3ebf7cc0
be9fd46a
3fa72389
bfb712b3
3f35317e
be25421a
3c856f7b
3f167353
bfb0ca5a
3ffdd22b
3f86c1a0
bf7e3b65
3f3231d3
bf33d7d2
beba1b64
3f436493
bf10ac0e
bec4811d
bf2957ec
bfa4cf75
bf1c3b30
be5e44e9
3f5f7b16
3e895401
bf4320dd
bf03f158
be76b81d
3ef3dc87
be25f292
3f3d8800
3ed76197
3ddca669
3fdce81a
4022d525
3ff454f4
400267bd
bf542efb
3d8e0ae4
3ea11867
3fd9494a
3f823518
bf725af0
4024bfee
3e4c1c38
3eb051c2
bfa923fa
bf6a1d29
bf9a2576
3ef2113f
bed89b12
bf000adc
3cb56d1b
3f8c3c21
3f7990cf
bf7e168e
bfaadb86
3ea21865
3cab7420
bf23b6ec
c0106992
3ebacc44
bfa03b05
3f1c6771
bf975638
be8b911e
bf32498e
3f09d609
bfbf13d1
bf8e340f
3faec2bb
bf51df37
bf9001c4
bf4621b6
bf7fc24a
be83df2d
bf3aa3d9
bf0dfab1
bfa692a5
3ea6aeff
3a8bcbe5
be2537b6
be7b7f7a
3f084a77
3f154448
befddb95
3e4dfa62
3f052c4e
3f63d16d
bf48e33c
3ebd45e0
3e31f602
bf8716bf
bf238bb8
be00a9b1
bec4dccf
3f1ebf79
3f47ed51
3fab0792
bfc960d6
bde39be2
be1776cd
bf27fb5a
bfce2c79
bf16e570
3fa2eca5
3ebba18f
bf4818e1
bf756f8d
3ebded59
3e3bd9fd
bf8b7140
be3cc66a
bfb45919
be4ccda5
bdeea82e
3ffb106c
bf18ab74
3f3eefa2
bfdeb487
3f5c7722
3cde125b
bd90c0f9
3f351eb7
be69ed6c
3f8d0ec5
3f15e521
3fac78f9
3fa26b9f
bed993a4
bf6b3abd
bfa86aae
bf981453
bfcbaec9
3fa4dc4b
bfe14a14
3fc15fde
3db75767
3de3c638
3f6f1613
3f41b3ff
3ed96740
3f96f9a6
bea001a3
bf479162
bfc03e4c
3e9e1a66
c00ade97
bec388cc
3f5d5d20
bebb33fc
bd48f7d7
3eaeb33b
3f6f1ca2
3f376149
3dd36800
3ee62988
3f49a085
bf1966fe
4023dcc8
bf5897b1
bf843c83
3f1b3e9a
3f91b6da
bed0b7b1
3feca4d6
bf35d8c9
bf30e781
bfc7aa0b
3ef4363c
3f658c57
3ec44244
bfa6b515
3f35a07f
bf984322
c0450e48
3ef97784
3e6fe17c
becc7275
3f4c90ef
bda6739e
bf3e92b4
bf9f3099
3f9ffc6e
3f930041
be9ce074
bf803c1e
3f052f7e
3f7372f1
be640fe0
3f0987df
3f5ca2cd
bfa21007
bf1296ff
3f33762a
be8a7b5b
bf8709fe
bf73f23f
3f27df1b
3eac6024
3fa0d2e5
3f27d89f
be8fb9e0
bf9a632b
3e1c230f
401fa3be
bf30a5ff
3e8aa00a
becbcb3b
3eb77399
bff874d1
bf817e25
3e9bd772
3fe68082
3e979f47
be671c3a
bec18502
3d3b03bd
3d91f366
bf7b4c79
c00de986
3fa13a3b
3dfc1c73
bfb381f1
3ce6109f
bf03bc3a
3ea3e7fb
bfd482fd
3f897e5f
3e2aee01
bfb38b2a
3f638827
3ef2bd24
bed26d7b
bf2b00c8
3fc153c9
bdb0cc74
3fcfe6ab
bfd60c4b
be90aec8
bf418a7f
3fc02634
be9f6e50
3c8a9730
bde80249
40146e65
3f8251b6
3e409049
3f28a52e
3f807328
3f88b535
3f6ce221
3d2101da
bf460a32
c0053c90
3f30a280
3f1b3bf9
be80e20d
3ed3fd73
bfbec81b
be6f375f
bf593493
3efd7011
3fc1bad7
bffdb1fb
bfcb1701
bf93113a
bf30836c
bfa24ddc
bfe796bc
3f3db3aa
bf70d3b4
bf4dee8a
be55f97f
3ea6b3aa
3f875dfa
3f0fa077
3e0b09d1
3f1b0c10
be59f5fb
3c4dcce1
bdeb1595
3fa43b67
3eea55ed
3f4b22c9
bf8df141
bf328af9
bf5f21a0
3f11f9a3
be9e219a
bf8144b8
3d0a5754
bfb98ec6
3f9718b8
bdd45849
be57fecf
bfe37504
3ffe695d
bfb17961
3ca4602a
be94f393
3eaf5d5b
3eebaa16
bfc7123c
becdebd4
3fc5d696
3f6e1e16
3fc1243a
3fb9ae06
3e765fa0
bf1d34bd
bed4b23b
bf476259
3f4ee7f3
bec539bb
3e64e31d
3ec6b3ff
bf1e2375
3fb1b998
3f574dcf
3f181ae5
3f44e7d0
bf4fee86
bf243988
bf91ab40
bea248db
beed1d1d
bfd2628e
c00dee8e
be08d03c
3cff759c
3e9a201d
bf9d06f7
3f71a593
3f1c5fb1
3f3972e6
becf5651
3f4ed11f
bec173c7
3f16ee46
3fc033a7
3faec2fe
3f94e7de
3fc38e55
bd98b466
bde88fa9
bfa51636
3f14f100
3cd14a2f
bf2bb749
3f9db970
bf4383b1
bfca0cf2
3f7f88ec
be447f6a
3ec8f0c4
bf0344cd
be9b3bcd
bfe8e7e1
3f2b3a36
3ef97c39
3d9f96cd
bf5fe1cd
bbaaa87d
bf3eb2d6
3f3d9c95
3f31a130
bff7933f
3fda79ba
bf420155
3ea071c6
3ff7bd7f
3f443fdc
3f14a126
bcd404bf
3f29582c
3f94ff03
3e17ca61
bfacfdaa
3f13b550
3fdef35b
bfbc138f
3fa1eb2d
3d121585
3f989047
ba4f38e9
bf98712f
3f16df99
3cffce59
bcf8a8d6
4016a5a6
bea49dad
bf932f8d
bf7138c3
bf3141ac
3e964181
bd99288d
be422ef4
bf1e95c0
be925fb9
beb38b03
3f574e19
be43d7b1
bf8a49c2
bf1ea818
bf09a1d2
bdb7a548
bec3fb8c
be14ee24
3f8d6e98
bf49f3d5
3e692232
3dcd1f3f
4016e7dc
bdf91d40
3f4a5bfb
3ecc0166
bfc56f50
3fa75283
beaa74f0
bf997b9b
400a1176
bf99fa36
3fb287f2
3fab8f52
3ebba30a
bd723178
bef1dc66
3e65a2a9
bff67b8e
3ee2b67b
bf111ab9
3f8dd526
3fb4145e
bf8d574d
bef29534
3bcdb536
3fb5f8e9
bf156383
bf9bc5d7
3e8a08c8
3e96943d
bf5701a9
bee31953
be59b46f
bdfb5298
3f9d72f9
be23ae9c
bc475306
bf6c15c2
be76ee0c
bee19be7
3f4b06f5
beff993e
bec961b4
bf886f7e
bfc64b2e
be4e668e
bf092507
3f266360
bf6dd23f
befc3888
bf9469dd
be373e21
3f16581e
3f9a0051
3e6c627d
bf1a1314
befab8ac
3f023699
beb376cf
3f882e27
bf4db80c
bfebc02e
bd93ef49
3d0d8daa
3ea5e217
bf84dd19
bfb1ef3e
bfb00392
3d295895
bf367983
3f17bc9b
bf0b9f71
3f68e61c
bdc998f3
bfedbbb5
3e8aed2f
bf1df4c9
3f4bbada
3fcce8a0
3ef3b7f0
3eb26787
bed4a8d7
3f55bc8d
3e4a95fc
3fbc7d0e
3dfc42c9
3e2718f9
bd851386
bedb403f
3f8d63b1
bfedc1e5
be26453e
bfda7bee
3ebe198d
3fb90da9
3d91dee8
3f0dd7a9
3f2ef969
3f6dfba8
3f855f67
be13c3fe
bf02f2f8
4014456e
3f9eda9a
3fbec8b7
bfd78067
3f966df7
3fe78742
4002a69e
3d29a8d7
3fe03e08
3f2543c2
bfd683ed
3e82bab5
be124b92
3f8f8256
3fc5c770
bd7d0bc4
3f0dae11
3d79b63a
bf6e6ce6
bdb6bbab
bf8f7812
be9dd14d
3eac325f
3f270a19
3f591644
bc276cd5
bf160b72
bd3e98ca
bee950dc
3d927f59
403c8aad
3fdc67a7
be3bade3
bfa489d3
bf9b743f
3efefdac
bf7d24c5
beea1f81
bf1a6699
3fecf896
bb3b1461
3ef8c3b3
bef697d4
bf243bc0
bf4ffcf3
bf7f2f53
bf43f58f
3f4d0455
3f6e5ac0
bf02f2fd
bf41b10a
bfa84853
3fa4f0c4
3ef92e69
3ee334e0
bf6997c7
3f8ccaa2
bf9281b3
3e2c721e
4047310e
3f008931
bed5f6a3
bf65d9a4
beba5ff9
bf7efe36
be403f7a
bfbc2b00
3f25305a
3d79abea
bff3d590
bf579444
3eea87c2
403f0aa8
bfdf855e
bf94f835
bcc6d1c6
3f700e70
3f877a23
be5707f8
bf3836e2
3e915c18
3f9b822a
be7ea327
3f1d8eb9
bf0573ec
3fc9cc52
be85b037
3fe32411
bf8a6748
bfd0f97a
3ec7a2ed
bfd8f555
3e9bb7ed
3fdd1301
be8772a4
c02b95e0
3df738eb
3e74d298
3f4bff05
bd9e75e7
4059b71f
3ca4df81
3ebb1b7e
3e870669
4009067a
3fcdddb8
beea028b
bf74edaf
3e417a1a
3f227280
3feb64fb
befbe082
bf03e3c3
3f01ea77
3ec34dff
be83f065
bec60032
3eae159b
beb28f8f
3ff31822
bdb32ccb
be30670f
be96cfad
bf9e15ea
bfef1744
3f8433eb
bfcabaef
3f86d0dc
bd770345
3f4ac5bc
bf1c84e3
c02a9625
bf0656ee
bf390af2
bede2b9b
bf9f2fc1
3f820d98
bf2eae2d
3f7e62b1
bf4ee1fc
bf90d3cc
bffcf12c
bf9e6d22
c00a42d0
3b406cfa
3f404eec
3e035c5c
bfa003e5
3fb6b4a2
3f51c617
3f320b2f
bfa4f4e6
bd996f93
3ee2cc38
be9c6798
be55b9ed
3f321057
bf7c7fbe
3cc01a54
3f4bf332
3dd3ea30
3adc704e
bd3ea6fa
be8f62c7
be8f12c0
bf1fac21
bf3ab18e
3fdb4afa
3fdbac78
be2b508f
3ecafd13
bdca276f
3f4d2f6e
3fe7cb98
3e177825
bf453fa6
be40e441
bf987589
3d41b30c
3fd0e3d7
bec29324
3f4dae00
3f606d64
3fd45095
3ccd97e2
beec8a8e
3e45990a
3f0fcdcc
3f9c544d
bed8d40f
bf4ac6ed
be7a19df
bf459ee5
3eb502e2
3ec8cf10
3f5c3fb5
3e1ebd40
bf1ff71f
3f6acb36
3ec82743
bf808cf9
3f745af3
bf6da8cb
3fcf90a8
3fe18262
bede6507
3e2d3502
3d631ea9
bf6a6320
3fcfd4d2
3c9366bb
bf1887a2
bf9bc3b8
bf72589c
3ef06652
3d4fe6f6
3f64cb04
3f8f84a7
400a1542
3f943e7f
bfb433f3
3fa534b7
bf24ffe6
bf443001
be46a4a2
3f53b724
bf9652f7
bf77e033
3f865d60
bef4e80d
bf963eee
3f34e728
3f8acfff
3ed21a5d
3edc1e3d
bf63269a
bea705f8
3f71c732
3f944f83
bf2f246e
3df7298f
bf713a8f
bf1a8901
3dfefd71
3f9d910c
3dfa9982
3fbee5ca
bf1eee05
bf03c1d4
beecb81f
be3dceb6
400d05ae
be54021f
bf8dce9c
be615b8e
3eb8408a
3fa6b388
3f535211
bfdef9c5
3fbb9953
bfc222e7
3d984e52
40181351
bf89e0f8
bfba24a8
bfb21183
3f4fedfb
bf012ce6
bf19d272
3ee6657e
bc16cac2
3f86dc41
bf0561a1
3f0d613e
4003f272
bf77df32
bcaae321
c00be204
3f3ffa09
bfcf6fc8
be25ecf7
bfb56928
3fcf5933
3f9bbc84
bf9e3249
3fad9216
3f30f06c
400731eb
3de7dd6d
3dc4ef1c
be5ba438
bfe749d4
bef7b3e5
3f3f3a32
3f63ee84
be2c5cb5
3f7e555f
3f114ea4
3fda38b8
bf51547b
4040c395
3fb2d830
beb4e2ee
be49fbdf
3fbac89f
3fac9d89
3f94a784
3f7d9713
bf3d9580
3f6fd087
c02c5b07
40042ebd
bfa3e6e2
3d6b7fe2
bf8a7d6c
3f26148a
3ee3837e
be533bfa
bf6b59f2
3e936b7a
3dcf47b3
bfde32e4
be78a212
bfd45507
3fec7332
3e472199
3f63cfa5
bfe81c8b
3f5fcf1a
bf79282d
c01638bb
3d283230
3f3c42ab
be9fda35
bf6d1492
bf1366d3
bea91ddf
40187000
c0064439
3fd1f6de
3f6ea7db
3f9b9687
be556a12
3f788649
3f055db1
3f8d0ca9
3e389954
bf997fbd
3bee5c82
3f8306c7
c0109182
3f39064f
4015c688
3f8ef0a1
be87ded8
3eb7d451
bf19c875
bf42abb8
3f0bc611
3e4f7f55
bee0d2cd
bfbdcbfe
3efbe124
3fd4b9a1
bf1c321f
3ecd0800
4020cab9
3e5d7364
bf595c0a
3ede34d1
3edbf8cb
bf0085e4
3f26f5a5
bee22dd0
bf2914a2
3fc6164f
3d6caea5
3eaa998f
bf9701b6
bf15709f
c0005e77
3e5fd458
be9f703f
bf07f04d
bf9c5938
3e15a70f
3ec9cbcb
bf82cc60
bfc50dc9
bf0cd29c
bedd654b
3d9fd509
3c837266
3dda1bba
be45204f
befbb1b5
3eb37fef
3f7e6dfa
bcb42b85
3c6a7af1
3f013268
bf038a1f
3edc626e
40497f21
bff00d69
bf515391
400d557d
beb19839
becda7eb
bf9b0dbf
400ed47f
be8b883d
bf05ab64
3fcb1ac3
bed05cd6
bfe6ea2b
3fba8b70
3f6cf797
be047812
bfbf1a5e
3f873154
3f49fbe8
bb7d0a44
3f5d9066
3f9b7935
3f3534cf
bf2be476
bfc6278e
3f025b85
3f8ef2c1
3fab173b
bf587db1
bd0f71fb
3fe327b6
3fbd16ae
bf25e336
bffbf992
3f069313
b9b50c96
bf0ca047
bdc45649
bf560227
3e3aa226
be82d15f
3f56395a
3f5e88f1
bf8f4bdb
3f9eba1b
3f40e8ac
4007dc4b
3f209c0f
beb54b29
bf2ee09a
bfdea7c8
bf41485d
3e829275
3f69f195
3d323782
bfa69655
bea36364
bde29f15
be58d981
3de41c42
bf2970be
3ea61d31
c00177d7
bce4969d
3e62ceaa
bd271f5c
3f60c2ba
3e0e3d76
bff0c41c
be8210cb
3fda06ae
400683b5
be4732ef
be355f45
3e0461ee
bf6e8ac0
bf1eedbf
bebb4341
3f22ff6a
3f315de2
be1ecb06
3ec70a1d
3eb33511
3dc93aeb
3edb0ebd
bdb35911
bf559a7a
bfee1260
3e8b175d
be997180
bf40085b
bf6aaefa
3f00a7a0
bebd7b98
3f3ee4b3
c00d8e3a
bf3fe48f
3f230c26
3fa69468
bf7eac60
3fcfd11c
3f847619
3f26c485
3f3425cd
bf14f6b6
3fdbbd57
3fd2e6b9
3fdfec2a
3f766032
3fe3d245
bf80d43a
bf18a0ae
bed03b0a
3e6739f8
c006d6f3
bfc59003
bfa9a6f1
3fd43f9d
be477e03
3e9044de
3f581337
3fc4bc14
bfbd924d
3f89f855
3e0f359c
bee6a7ab
bf5a36d4
be427f3c
3e825323
3f33157f
bf9988bd
3f2d72f8
3f200f11
bf2585c1
bf81aca5
3fe2288a
be334dc8
bf1e049e
3f38487a
3e8b24b9
3fe3b37e
bf15b067
bf2ea304
be99d0f9
bec478e2
3f1e2bef
bfa8fc25
3da22d9b
3fa9baba
3f2b0ef2
bfd7a8a2
3e1dfcf2
bf80e32e
3f558d6c
3f36a362
be94b6a6
4024e4d5
3fd2f3ee
be06dae7
4011536e
3f8788af
3f890589
bf87b12f
bd97c668
bef23287
bf4f2f96
be98a3f5
bfe73a6e
3f884225
3f20a99f
3f4df7eb
beae31b5
3f3e3338
bf4bf9a2
bf9b7ee7
3eb24868
bf1c18b0
3fd48eb1
3f709997
bed0dbd8
bf2f442d
be4798dc
bcf869eb
3fb0b220
3f1cc606
bebfd222
3fca4ee2
be8dfa49
3c32105d
be80d30c
3f80e80a
3f7ad416
bfbc4109
3f680ac7
3f0bc32c
3f86813a
bfc526f1
bfb77357
3ed8ffb1
3e9e2d80
be8d86de
3eb0e274
3e52c92d
bf37dde8
bf225f21
3f8897d5
bf344b63
3e2cbfae
bfadbe2e
3ef6da49
3fd8c5f0
bfaa29e7
bed5dbb2
c025ca5c
3fb92385
bf9aae45
3f1096a4
c008b84b
3dc80e39
3ecc107a
bebfdc0c
bf3f73be
bf154eec
bf9ee9dc
beb80d61
3ede71f4
be853636
3e66a800
3fb61c6d
3f96c494
3f1525b8
3ede4e0b
bda6688f
be889d47
3f72c6b5
bf4a3935
3fa13b9a
bf34255c
bc43428a
bf88cf28
3f1eefe7
bfae4017
bffb0145
bfa9a196
beef6bbd
3f7c0ba2
bd8d5650
beaa062e
be52ee4c
3fc524e2
3e509711
bfbec395
3f3b9183
3f843918
3fa62000
3efd6582
bf76517e
3f491ff5
be77c05b
bfe0f15a
3e5ad106
3a275545
bfe80405
3f16af5e
bf0a8a3c
be9f0d78
3f9c2ac4
bf8b67fa
3faa325b
bdc5d2c1
3eb3660c
3fb8b094
bfb96409
bf9cc8c2
bef197da
3f02421a
3f1ab549
3d15f712
3ff2d49a
3ef55763
3fd79e60
be28e2e7
bec840a1
3f9be8a6
bfc836ca
beda9ba6
bfc508ce
bff76a0c
bf1a2781
3f333109
3e7f421f
bd5bfdc0
3f37eb9a
bfa0dc57
be5cd2a6
bf4f8c48
3f9bbbee
bfe94b6d
3f444eed
3f86e49b
400031de
bf308852
bf264700
bf00105b
3e4768a9
3c27f095
3deb3d9d
3fae423c
bd4965fa
3f9b6b0b
3f228ea7
bf69d993
bfef3714
bf9cde1c
3f835313
be88befc
3fa0e56a
3f71f7b6
bedf3d8f
bf4ba059
3ffcdeca
bf2aede8
3f90f70f
3f482ce7
3d8f4b54
3d61bea1
be95da88
bfea8a0f
3f897ed6
bea4cd89
3f92b5af
be96f54f
3fc4bcc5
3f218857
bfb13d80
3e0ffbca
bfa4488c
bf90f889
3ef40785
be886cd5
3eab851e
bdb0a07a
bf8fbaba
3f1ce917
bf4b04e2
3f9f8dda
3ee08e2a
bdd4640b
c0193c02
4008ef07
bf2ef2fa
bfdcb496
bf6b6451
3e3cf5a2
3f4c9502
3fadf51d
3d0de475
bf61e9ba
3ed2bf86
bf6d9ac8
bfb63535
c04978af
be9451a8
bd3b3f23
be3b9435
be52da15
3cfeb76f
bfb21e10
bfce94eb
bf4fd8a6
bf524e29
bfb4a2ab
bff2d6fa
bfd89f74
befcbd05
3f9a8805
3fb1999e
c0200568
be1e3251
bf80bbaf
bf4dd8d5
bf557923
3ee4aefa
3db6cd72
3f19dfc9
bf526613
3f78f130
bfc60808
bf148747
bf256737
3d63e139
bf543794
3f081eb3
3f95f506
3fb5aa36
bec193af
be08ef14
4015d4e7
bf921d5e
3fb83ff1
3ed3f396
3fa9ba5c
bec50ebd
bfa74948
be5b26d2
3f33d3d9
3dc4e722
3e647c24
3fcad3db
3f8a6017
bd2f572d
bec5355d
3f4f7c20
3f80d1c3
bf5cbab4
bf9d093f
3f87875f
beea3f09
3f460ef2
bfb99567
3cd1875b
3ea4f62a
3fe5b6ed
3ec0a1ce
401e08e7
3f26e792
bf40849e
be316d2d
3e597196
bf2c0552
3eac1e88
3f3219c5
3bb574e1
3f4e9cf6
bf95133e
3ff4b0a7
be9902ee
3f9b4893
3f65537a
3f5e6ce6
bf436812
bf8cb875
3fd1ccc4
3e94f101
40061669
bf3c1704
bdf2c14d
3f98e5d6
bf7e57df
beb98dd8
3f6570ed
3f2e8800
bf78c9c0
bf8803c1
3d2bf32a
3f50d8ea
3f5b3139
be0b73d0
bf2f0796
3f226432
bfdf1d08
bfaca041
bf681e6b
3ed868f3
bf67325d
bf42f2da
bf606bf2
bf4c71fe
bfa21d2f
40055d85
bf983cd9
3e110b86
bfce18e0
bf038357
3fe1f211
bf355555
bf00a863
3da68e14
3fd75ad2
bfa4cb33
beed302b
bfc27df0
3fa1d7a4
3eb66cf8
3dec8b24
400a78a8
3fcda60b
bfbe84fa
3daae275
bf850406
3fce13fa
bdb8e9db
3f64409f
3ff12de3
3f93977e
3f88b1da
bf5dbff6
3e82a14e
3e3cc278
bf8a8412
3f18737b
befd4038
3fc66b90
3ff5b011
3fedc89c
3f87b73f
3fbac750
bf2d87d5
bf961f4a
be179b15
be11aa01
bf143eb7
bd978eb5
bdc9ef2b
3e869fd8
be5db940
3f0ea0ed
3f537c5a
bf261b92
bf542618
bdd5b598
bf7d59b3
bebf8d84
3f837f50
c02c6e21
3e7927ec
bf3fa0b4
bf383578
3f2d5cd0
bd642438
3f5c1224
be61cedb
3f214546
3f60cfbb
3f237a02
be9ede64
3f029134
bdc42830
bcfbdc56
3e9fad67
3fb7a74b
3f892461
bff796f6
bf8b4961
3ebba15a
3e6a3ce2
bfaa5c49
3ed5d10f
3f046976
3e9e1391
bedb3c0d
3ffc24bb
3cbadb8a
3ed4c940
bf1208f6
3fa8894f
bf5c0c7f
3f394c20
3eeff72f
bec0d88d
3f3ee981
bb48cf29
3f90774b
3f2ee8e6
3f3c8d02
3f3f0405
3f0c3b39
bf0fe09f
3f0b21a6
bf25276a
bfd98dc3
bc84fb69
bf3ad713
3f955615
3f83cc0a
3f874fd9
bd14a909
bfae9384
bd01a867
3fcdad81
3f5094ed
3f21da13
bf08788b
bf0f208a
be763259
3f84e59b
be0c756e
3f466162
3f49c92c
3f4fe8d0
3e31772d
3ed2b9a7
3b8e7d2a
bfa33524
bfd6aaf5
bf9ec373
bf162e4d
3ee8d29e
beaa59c2
bf0f746e
3f49275a
3d067c9c
3f8f25ff
3de4b88d
3f37303f
bf3c0ab8
3fa090fd
3c6b06c1
3f855a00
bf2c8422
bf087960
bf5457f0
bf0ba896
bfed9fba
bfa47077
be8d6a47
3fc7ef77
3eaf62b1
3dfa96eb
be436e57
3f7e4c33
bc8a3633
3ee20b8a
3f0ed6c1
bfd2f453
3f4599a6
3f271d44
bfb48ea0
bcb54a31
400a47ea
3f8cf923
be9620d8
3e490229
3fa55430
3db3b837
3c678c7c
bf24bfdf
bfb97939
bf841bfe
bf19f585
bfc4d67e
bee108c8
3fa1d819
3f0e812e
bfb4fc3d
3effb2d5
bf78fba9
3e8f57c1
bf2a1c09
bf90131c
3f63a572
bfe2740c
bd03ebd8
3d361cbb
3f34a8ae
3f647fca
be03e222
3fce91e3
bf189730
3ebc3a56
bfd87946
3e2ae218
3ffeb2bd
3f0d64f4
c0049873
401c01b0
bf13c9aa
3fe5ab67
3caf4566
3fc221e0
bea2051d
3fc1eadb
bf4f1fc8
3d4da6f2
be7177d5
b81d9b4f
beac1950
3fd2a477
3ea8ff8b
3f6e811a
bf482e9a
3d4e3d07
3f693eb5
bf303f9a
bf6b6b93
bf0241ff
3ebba2f7
3fb413a9
be429728
3d39a4e0
3f96c77e
bf4b58bc
3e8764e1
3f8103d9
3fc87a78
bfd9c4de
bfd06578
bfcd9c08
3db312ba
3e85619d
bb306298
bfafe9df
3e1c066b
bf5c163b
bff6dffd
be62a03d
bf397b32
3e965da4
be7aa8ad
bfe97336
bed77846
bfa2620a
bf02fd23
3f831b44
3f740ee9
bf8f598e
bf8883b6
3d3a0439
bfa6d8a5
bf84d772
bd59dd20
bfae3f43
3eba986a
bfd0a328
3d8feee2
3f805934
bee07300
bfa9291b
3d6b71a1
3fd74c52
be7aa8cb
3f08dd58
c0143413
be82b0f3
3f4902f6
3f4dca69
bff5bd32
3eea1291
bfbad44d
bd80b2b1
c00a759c
bf0b8692
4000ec35
bf7559cc
3facdcfc
bf2971e4
bd62163e
bf120fd3
3eb68460
c0163ec0
3ebc8ea8
3e5d562d
bff0053d
3f292000
be8872a3
3f617b95
3d96459d
3db3c1c8
4020b23b
bf35f8f3
3f030f47
bd10d14f
bf722f99
bec3bf6c
3def8e0b
bf8729b9
3f044396
bf8504c7
3f96c803
bdb240bf
bf533fdb
bf048451
be69867d
3f1839ff
bf911028
bccedabe
3dd8d89b
3f7750b8
3eeb478c
3f22d4de
bf57f492
bf360ad7
3f037b69
beb65163
3ecc4737
3fb18dbb
3fb912e9
40129b00
3dd42b1e
c01a68f8
bf37af23
bdc72fad
bd7c7c50
bfd67bb3
bf9bbb96
3f5bd111
be084bf2
3f0d422a
bf445054
bca6ec98
bee1a456
3ceb76e8
bf94cbec
bfab92b9
3edff946
bf167fb8
be8769e7
be980a0a
bed58025
3f0d8ec7
bf747785
3fe0528d
bfa5d9be
bd76e0b1
3f1570bf
bd012bf8
bf96c2c8
3ec7a361
bfac876d
bf61b802
bf913cea
beb73a31
be9d6852
beced463
3fa01466
be6e7fe8
3f1b05c9
be43e766
beca0834
3fa3e14e
bff4f41e
3f4e67de
c01ddf3a
3cd96744
bffd5a02
3f9cb7f3
3f5eb02e
3fbda4a9
bf9cdd7c
bf24fb81
bf3dee8f
bf0410ce
bf519e27
3de5cf23
bfbe05ec
beeeedb0
3f9ddad4
3f329449
3f406d72
3f93c695
3fcf1d2d
3f9fef6d
3f328e8c
3f966cc9
bf83e811
bf5397a0
3fcd6ee4
be21d31c
3ee2e179
3f148859
becc4c67
be821fdc
be88d676
3e8f1128
bf68bd22
3fa77508
3e933242
3ddaf758
3f1d675e
beb1e8cc
bf49179f
bf82a620
3e287526
3e5ce891
bed1a34d
3ebc38dd
bd3686f0
bfb12fc6
3eac522c
3e35de8d
3e95793c
3f7506cf
bf527e8d
3e993bde
3f9b33d1
bf803888
c01c3f1b
bf8ba720
bfa01874
bf95cd38
be98371c
bf5794aa
3fc2b66b
bee22d6a
3f7cda8e
befae913
bf4850fe
bf13b200
3f2c15fe
3e71d328
bf4f84c4
c01426f7
bf1d66e3
bfa94b8a
bef0853d
401bb1d6
3f1e431b
bf8b581c
40254fc5
bead6c28
3fde4980
3fa00a27
be26175e
bfa697ce
bf2b2594
bfa9f6bd
be731c40
3ff9e239
3e986494
3f41e28a
bf5f12ba
bfd551ee
3ecef7fb
be0d0e41
bfcf6449
bf54fcb0
bf2730b4
3f5a6cb7
3f447c70
3f80adf2
3e63d2cf
3f61c6c7
bf407dca
3faf7417
bf061fb1
3ebeab3e
bff479ad
bff70d73
bdd09ac2
3f20a658
3e26c850
3bfb60b2
3faba814
be9d4f7c
be01835d
3f597d60
3f6b26ef
3d5b15b3
bf21af8b
3e593aef
3ff56719
bf8a8462
bf4b1ec9
bf5f05da
3f14f42f
bfbb65bf
3c97dc73
3f44f43d
bf1fbf46
bf0d4d00
3eb67b8e
bf5d5a56
3f819543
bf8973b3
3e989190
bf510987
bf96f4f5
bf8f8b3b
bd5ea83f
bfa297ed
becb9016
3f132d72
3ecfb188
bf4ac07a
3e68a42e
3d0e8902
bf9c136a
3f77af2f
c0157d93
bf7ffe3e
3f5a59fb
bfefea8c
3f9d8b23
3f2b19e7
3fc2f184
3f616829
3fafca55
3f93d398
3f4219b5
bf5bc195
bef4dc3a
bf1ca8ae
3e7c3e97
be99de08
bfb4dd85
bf5fb5d3
3d6e45ad
bfea3e08
bf656462
3f755e08
3e56d8a1
3feea688
be235bfd
be32c47f
3fd1619e
4016d547
3f0649ec
be031d65
3d831960
bf4d0dad
bfb395a4
be78a3ac
3ff06eed
c00dc3fc
bcbb5ff7
bd9555b9
be82f455
bf55f97b
bf19d830
bc65f6dd
bf90d150
3f316453
3fc47f48
3f25e391
bf9a7d78
bef67e3e
3f1b120d
3fcf5477
be2376b9
bf870ff2
bf1b78d0
3e8ece25
bf38c6f9
bea90077
3fe86553
bd94f17c
beae4ca6
bf5f4be7
3e6a768b
3f8b6059
40042507
3e13329d
3f1603c3
3e9044c4
bf55efdd
3f8817c1
bf38068e
bf348eb9
be44d7ca
3d819ae4
bcb62caf
3f210bf7
beb7eb22
3f83d92f
3f967d8f
be428c45
be0d65f0
3e972564
3db030b8
3f437c26
3d999bc6
3f95efbf
bef18eed
bf453ca5
bf4c2cd1
befe2842
3ff1c250
3e1d0c1c
3e674554
3ffeba82
be80dc6a
3c144502
becdf4a4
be98f9e1
3fd5f54b
bf1ba7a6
3f042690
bf06145e
3facfe0f
bdd7d831
bfa413aa
bec92750
3dd3fdf7
3e73738a
3e9c2de0
3eb70533
bf4ff2c5
3ec9d248
3e2078dc
3e361704
3eb32108
3f197f5f
bf5bfab6
bd7f746c
3feb639e
bf18fc15
3f0d9bb5
3eae132a
be89a099
40072009
bde8230c
bf907880
3fbad17e
3ff546aa
bfd3a3f1
3fdb813d
3fa5e39d
3f62c3d6
3f0c39ce
3fe87441
be9b8d22
3f72bce5
bf339d0f
3f85c444
3f9f40ae
bf3148de
bee2a6b6
bf92f9a7
bf67c8b9
3f867182
c015649d
3dc9232f
4015f5c0
c004fcf2
be234330
bf4493d3
bf871627
3f781cf2
3f4d9c0c
3f60cbea
bdcc7a77
bf352f12
3ea02205
be6d85b7
bf84e2d3
bf11bbcf
3fc13f86
3f1e4e3f
3f20a6b1
bf971d69
bf480114
3fe45567
bd17a6c4
c0138ba7
3e896d71
3ef7d141
be30b948
3eacebef
3e2f5dd2
3ccbb5e7
3f921dfb
bf0248a0
3e8eb178
3fb020d7
bf04af77
3f44dbc0
3fd0f720
3ea42f68
be3a722f
bf23fe10
bf2e90d2
bdc172d0
3f828058
3fc7005f
3edaa7d0
3d1d0529
bede0fb6
3f81883a
bec577de
bf992bca
bfc4a483
bdf2a69c
be4b381b
3ed1508d
bee68c42
3f80edf2
3fb2e878
bf17370d
bf59d638
3fbe8a3d
3fe68770
bcbb9802
bf313007
be614653
bf019a91
bf3c8a8b
bfa8119d
3eab3f96
3d2d64f6
bfe014bc
be51f0dd
bda35a9b
bf6c109a
bf554514
bf4a4a8b
c0177848
bf3c7036
3f90258e
bed724d7
403305e3
3fcba945
bf6bf7fd
bf51505d
bf9c695e
bfc5e922
3fb0bd81
3de086b8
3eb20a23
bf6556dc
3f550637
3f89be12
bdc62852
3fa89c0d
bf36439b
bea19803
3f8cf795
3ed56193
bf8000b3
bf00a763
3f1bae21
3f739717
3f1a87d3
3e10c57b
bf9d3d8b
3fc5eeb4
be97762f
40225b24
3e3b965e
3e865d3a
3e54ffb8
3f83307d
3fb38a7a
bf827d94
4011d928
be9ffbfb
3ea1e2ae
3ef77cbf
3fa11361
bf01718e
3eceecd8
3de9d1c5
bf8fffba
3f9162ca
bf4e3f5f
bee48c48
be2a5ab5
bf40e09a
be57986c
be0dac68
bdb608b0
bf19ff4e
3ecf83c1
bf0479eb
bfc732ed
3ede99bd
3ede442a
bfeae882
3ecf10fe
bfa87ea2
be0266ee
3f0ff91d
bf977d4a
3eb1381e
3f802d25
400f0163
3db6aea5
bf431c6d
bf0bf8ac
be9c8741
3f9a6375
be9185b1
bfb82400
bf32d1b2
bef5038d
bf95c406
bf1d7d40
3f0dbbaf
3f65aead
be63b785
be9889a1
be0fd204
3f24162d
3f25f490
3f2e8f5b
3f7118c7
3e0501ba
bf84878f
bd0c6524
bf24987b
bf8bf775
bf7eb02b
bf406b57
bf6a5398
3f005aa5
3f9e8036
bffcedb2
bf3c3dc9
bf262dc3
be8ec665
bfa380a9
bf50faa9
3eb7b46e
bf38f0dc
bfdb2f6e
3f35df81
3f57b9a6
3fac5b8f
3d22e579
bef064e7
bf6772ce
3f3616bc
3eea3744
40087a1d
bf10912f
4066f97a
bf88703d
be8d5233
bf8e3dec
400a44fe
3fbb96c7
be830f52
3e605a64
3fe644c9
be18116a
bf6eb7c1
3eec52ba
bff2f345
3ead10df
3d2c4a55
3f6e10d3
3dd3b5d6
3ebc060a
bd963a62
40145645
3f096bc4
3f8ea363
bf2c21ec
3f30227e
3f809442
3fa2b435
bf22046e
3d75b42c
3fc939fa
bfdf5866
bddf7e33
3f592d1a
bf28f7ab
3ebb69f4
beb6920a
bfb66d5e
bf220be0
bf823479
bf07e5a3
be24d465
bf0e73f8
3ad4dfb4
4031afb2
becdd852
3fa0fad8
3ee0f29c
3e8579e3
be6320e0
3f032977
3e1f0012
3f472d50
3db98a52
bfc1f758
3ea89811
3eb9881c
3e8ea6c9
bee03e38
be8db680
be256d2e
3e63e1e5
be7b635e
3e8dca26
3f3f16fd
3e31f7ee
3e837c7b
3f581195
bfaa2a6f
3e154f94
3f31739c
bfa5c21f
bdd844c1
3f6758fc
4006b877
3e05f322
3d942448
3f71529c
bfdd88df
be818e9f
3efa9af3
bf67a262
bf0c2059
bf39a15c
3f0c8c05
3f56c5e1
3febab8b
bf21d1e3
3ee12237
3f44176d
3fd782a2
beb923dd
bfa2b6c0
3e5606f8
bf97b27a
bd93bb8c
3f5305dd
40033374
3ede69a2
bf1f0702
bf46708a
3fa455cc
3f1e98ca
bfa32525
400265f9
bea25cab
be1cb514
bf25cf72
bea0f588
3dd74eff
bed1380d
bf929bf1
3f3b2ec9
bf878f1e
be440105
40584dc4
bf53e27c
3e3cdbc6
bfa27eb1
c056f0a4
3f94f31d
bfb19e1c
bd28c597
bf7787ac
3f2e9c2c
bfb6306f
3e30b831
3f2ec00b
bebb35aa
400fa4ed
3f891712
3fd6e982
3f085a94
3fc59130
bf800c84
400427c6
bf718020
3f120f7e
be572236
c010491f
be2a4aac
be41c17a
3f918722
becac709
3f494705
3fee3f8e
3f415767
bf66d6a5
3f15a488
be01d365
bf90455c
bf0b7221
bfc705a5
3f12d9be
bf02562e
3f938c10
be04cc11
be8065f7
3cee1b9d
bedc41b2
3ffcc4fc
3e9da612
bea70053
bee52b88
3f563696
3fc0bc71
bf6febc0
3e7e1a58
3fb1a30c
be1b28f0
3fba20d5
3c293944
bebadfa6
be2151f3
c015e4e9
3e929fd1
bf5b7715
bd25eb70
bf4ae7c3
3fb34b08
bff206a0
3e07979d
3fa00313
bf9f2415
bf79fda8
bf2ae5ac
3f0d9c21
bfb166c7
bf51bd47
bea5d517
3fb1bc9d
bf17acc8
be65614f
bf8d3cfb
be7b34ae
bdab5213
bdb52f11
bf8c73db
bf736164
be852964
3fa65d01
bf346fb8
3f8aa02e
3f1003d5
3e3fd557
3d975f5e
bf55bc44
3fc09816
3e94d3f1
3e86ac77
bf84a363
bff8cd44
3fc79b1f
bfbbc0ab
bf0d1c97
3fc296b0
be877d53
bf297d18
bea6a94b
3fb442f7
3f0067a1
be8433ae
bed706eb
bfed6b55
beab5356
beb56d4f
3e445121
3f82063e
bd471547
3f0a5c35
beb344fa
3fda9cdb
be0ebbcd
bea3124c
3e095607
bfa6b901
3f8cfbdc
bef479c6
bf946284
bf76cbab
be585b0f
bf1b0922
3fde77c7
bf500377
3ed80522
bfc40529
be8ba4eb
3f765bdf
bff19655
3f9bb8c5
bfdb111d
3fc8e03b
bef67d37
3fa0b8a7
bf8c856d
be681802
bfc310bd
bfa478c8
bf7311d3
bff0221f
3eed6dc8
3fc4e7d3
bfccecac
3f21a88d
3eb95712
3f64eddf
3f92909a
3f2a1958
3e625b40
beb81c09
3f84b600
bfbf5370
3ed2d2f6
3f51591d
3efad5b7
bd41d57c
3fcff201
3ede6669
bf631c61
bfbb8b2c
c004744b
bed727e4
be8dcc92
402195a4
3fee8a83
3f4ad653
402f13e3
bec2bbcf
bf849db9
3ebf309b
3faf6b1b
bebcdfbc
3e876af4
3eafd3ab
3e840344
3c7b916b
3cf199e4
bddd1435
3eeeeea4
bfb3a1f7
3efb4c88
be6f3203
bf8f37ea
3e248def
be6729cb
3f94c75d
bea09c12
be8a5c24
beca4db7
be8da848
3ea8e314
be71b7fe
3f8346bc
bec0c57a
3f1bd46f
bead72a0
bf547ab0
3ffc1797
bf801eaa
3fa6d6af
be2beb77
3f67760c
bf3fb5c6
c0210eac
3d5f4c5d
3f4cc8b6
3eb8f5fb
bf0071f8
beb9136e
bed3216f
bee22691
3ebad42f
bedbfd94
3f4ac95c
4006967a
3fd399c4
bf658844
3ec2c802
3fa5db38
bfe096bd
bf498d71
bf564217
3e4d0493
3fb35ea8
bfb0ea34
bd7648d7
4001b1f8
3e873f39
bf2f40ba
bf1e47e9
3f2ec32a
bf4ba08c
3ef1e389
bf7b857b
bf531140
3f894e02
be8ba388
bef44cd5
bd9b0f7f
bdd1399f
bf31df59
3f61561e
bfacc25c
befd8d8b
3ed21f7c
c0405bd2
3fbdde5b
bfb6061e
be7e1068
3d3ac055
bfa58416
be8bc6b7
beb6c852
3f92868e
3f0af2bd
3fae1c5d
3eeb1228
bf41dd2a
bf2454a6
bf5cd264
3d801518
bf118f99
3f0f89b6
3f5e8d0d
bf15acd1
3ebe23ba
3fb31d41
3f35e278
bd50110b
3f83e1d2
bdfe3596
3ff9a450
3f4c7c84
be95086f
bfa50a91
3f2a8bd7
bf31a68b
3d4d9201
3ec9d4b7
beeafca4
bde49213
3e5babeb
3f82e581
bf0c245b
bf45651a
becd4640
bfd6d2ea
bf7eace2
3f3951ac
3eab4b9a
bf363d99
bf6b9c39
bf1bc82b
3ec2f2fc
3e8bc9fa
3ffe6de6
3fcca7c5
3f5a198b
3e801268
bf390147
400c9f95
3f40386b
beddf43a
bf196229
bffd1458
3fb7cd9e
3f38f5c6
befad519
3efb4a79
bf04904a
3e2dbafe
3fb31cd9
3d17fc1d
3f34baf8
bf81b67b
bf4f0be8
bf704a93
be9d51b5
3e19e6b0
bf0a69e8
3ee9fea8
400455a8
bfca9bbe
be026161
3d946b88
bee1a3f9
be3af1c1
bfaa55e3
bf30bd98
bfe17cbb
3fbf9139
bf95e11c
3d88f725
bdd21a08
bf7dfa38
3e130f91
3f8cfec1
bf4759ed
3f9ca403
3f9c4a64
bfa3960a
3fb488ef
bda8d06d
bfae027d
bef6da4a
bf3b98be
3e65d349
bf959155
bf6afade
bfa498c2
3f7403a8
bbd9c525
bf396151
bf3a24fc
bf5ab6ea
3fac9330
bf2f491f
be4b8a09
c00ebb5f
bf869022
3fa7ae09
3f36dcef
3f32166c
bfef6e79
3f05943a
3f097f90
3e5cfb7d
bf50a4a8
be12bb61
bfc2d67e
c006d6cd
bf235cbe
bbff317a
3e39ce4b
3f23487e
3feedb5f
3f786c2b
3fb6902f
bf5333af
3fa1a6a7
beeb14ee
3f81f749
3f821987
c024f1a1
bf681ac3
bf978451
bed55afb
c0068391
bfb2c7a7
3f5cd541
bed50629
3f9af5ca
3e2f4e1c
3f692f6e
be1937c9
bf2b1656
3ec8aab8
3f681179
bf54cbbe
bd93fdd9
bf6655b3
bf2de8af
3f44b3f2
3e4c8da2
bec545ca
bf4ee4a4
beb94e8c
3fb00e84
3ebf33cf
bfbff2b6
403d5053
bfc42714
3f2e0ac5
be267290
bf915b83
bdcce62c
3e8c6470
bfccc4ec
bfaea907
3f16bc76
bf0d2746
bf50fe56
3f68a8f0
bfbe52c4
bf463f89
3f5c196d
3ff82103
bf91ae5f
3fb2084f
3f851323
3eedabeb
3f9c0127
3ef8f88e
3fc2abe9
be211513
bebd716e
bf05969a
bfba661a
be7f8e71
3de280dd
3f8c6e6c
bfb0f5f9
3f0b7510
3e8f2253
bebaa7a4
bffb1090
bf8d9f0f
3f5c1ca6
c0154dcd
3f4ea5ea
bf96e1ab
bfa2aa73
bf3c136f
bfbbc2c2
bed0c9b4
be5fa67e
3f46eda4
bd61f9af
be0a8f6e
3ea35432
3faedcd3
bea70154
bf0e4df0
3f809b43
bf466b06
3cd70ff2
3e9c2bfc
bea9303a
40032902
bf0599e4
3e4d9214
bf49d45a
3e48910e
bfb3dc58
be1cfd9d
bda8b10a
bfda0850
3f7c2f34
bf55ba17
bd2c4093
3df3b152
3e72f5e3
3f072a15
bfaef22c
bf06efc7
3f274982
3f15a06f
3f15e3c4
be25ae0b
bf744119
bf3dc319
bfd6b727
bf4a40b5
bf79b6b3
3f798d3f
bf32c5d4
3ee5a75b
3e532359
3f9a1a82
bf9b0ecf
3f182568
beb28b21
3f2fe42e
403bf7cd
3f5dbeae
bbb1dd3e
3f0c68db
3e5af775
bd635149
bf284c56
bf73a0cd
3f244a3e
3fd8a618
bf827714
bede6bed
3f3a7363
3f9132a7
3f86723f
3ec36315
3efda73e
4006e961
be89331e
bec0081f
3e6b4f5b
bf07d14d
bf137c36
3fa0f6e5
be11b23b
3f0c4bcf
3fac3d6a
3f46a039
bd7a7e8d
3f3d8795
3cae793b
bf5aa966
3f9431a4
3fb24849
3ece17f3
3f0473d2
bf6d8912
bfb057e0
bebe757f
3e6bb030
3f5e3e0c
3ea1afab
bf26cf0a
3f5805d8
3f3484b1
3f5b6e3e
bf00c0f6
bfc3e151
3eacf1be
bebd4e5c
be842c45
bee5fa65
3fbec8c1
3f529fb2
3f46e19d
3fd83d0b
bf922e2d
3fb304b1
3eb9e610
be36949a
3df39c9f
3fee4f02
3edfe8a1
bfab749e
c0186afe
bf3ff319
400c4605
3f0938a1
3f9673d3
bf32a5be
bfb38da7
3e63c20b
bf0f1196
bf4ae240
3e7f8c0d
bf96691f
3f3b9c58
bed024b7
bf0ee6a9
3e947bc8
3f82d9fe
3f862a44
bf81dbce
3fdadafe
beafc9e7
3da2ccee
bfabf2de
bc739fc5
bf12665b
bec731f7
bf79fa25
3fabc6a5
bf8c7c94
bf1a0796
bfa7f188
3f819aa9
bf5e6e60
3fbf8349
3e8c2dc0
bf8fdc85
3e97d1a4
3efb36fb
3eabf063
bfb448f2
3e75028d
3e842f3c
bf2006bc
3de4b06d
3f9b8318
be06109b
bf3a21a6
be89d05d
3ef03d25
3f9e654a
bfd653e4
3f74043c
bfaf1e93
3dec82db
3f824604
be75f2dd
be8c5a69
bf9137ac
3bdee0b4
beb383f3
bf3976d3
bed8536a
bda6d8dc
3efdd3ea
3fdd846d
bf07fe0f
bd825ccf
3ec7bc5c
3de112ad
bf13f71a
bf0e4a18
bc9ce517
3fb015fc
3e0ea542
bdf9b53e
bf3e8b72
bfa86538
3e29d855
beb24c92
3d9186b8
3fd28c41
c01037ea
3f915924
bef74327
bf0abf62
be9014c3
bee80b1e
be461610
bfe4afeb
be64f113
bf11ca48
40125024
3f2e6cc3
c0044f19
3d74cd2e
bf88ae90
3fba9fbf
bf9b5f81
c039c97d
bf93e876
c0349dea
3fc9be33
3f8c4a7c
3fe45c01
bea4c079
bf09f082
3fe9988d
3feafd7d
bf3d6510
bf097785
bec73ab9
3f4e9c63
bf0fb2c0
bf68dbc5
be3e4710
3ebffe41
bfc7605a
bf0c7e7c
bf2f93f8
403a587b
bfb7d986
bf5038e5
bf06d3f3
bfbd053d
bef8d714
3f74eb7d
3e2d7b62
3ef43bde
3e9a4676
bed14db2
bed76215
bf0ed72c
bf94fc0a
3fa89e08
3d6631a1
3f440a57
3f9751e2
3f3f7d10
bfdf3985
3f8eddd7
c010a6dc
3f8e4b35
3fbd5f79
bf89c6b1
bf3382bd
bf8a6ae7
3db787b8
be027625
3ede2ec1
bf664cb8
bfc79d2e
3f7c1981
3fe792c4
bec2e4f3
bec8fc0f
3d1ee03c
3f331c72
3fc503c9
bf511c2a
3f3e154a
be1b2caa
3f846e27
be7155e9
c00cf803
3f114ca7
3f757d51
3faf3edf
3c9af5b2
3e554a54
3fbb2a0b
3f3df1a9
bf6b3ae6
bfb2ad1c
bde9c165
3fbf29b7
bf67eb8e
bf903cc0
3eb020e0
3f8c8f7e
3f724f09
3e7de78b
beffbdc8
bfaeec5b
bf046367
be856ad6
bb49c2fa
3f616288
bf26157e
3dd6b7e7
bdd52305
3f420c89
3e518ab5
bf93c3f5
bee419a8
3e8e4d3e
3f619c48
3fa5638f
3e33326e
3dfa99d6
bf133d3b
3f41d971
3ece605a
3e92cc35
3e07df0e
bf5aa370
3fcdbbdb
be26de07
3e67ce5c
bf4449b2
3f55ef75
3ed20dd5
bfeed82b
3f1ec5d5
3ef80ac5
3f32f29d
c013fe49
bf847c7a
3bb6de60
3f8bf90f
3d532b3a
bed4bb12
bf12795c
c007c975
3e8e7f12
bf2513dd
3eccaf63
3f76a73d
bfa8e344
be81aeb7
400831e3
bfa1c4b0
3f5f4a34
bf0431f5
3f173c1b
3f7a6f86
bde74a99
bf88d3ed
3fe0e725
3f77e159
be9fa9d1
be8373a6
3f73ba05
beed5d59
b9edfa07
bf5cefe5
bf4ba025
3f1ac4cf
bf2a823d
3ecee416
3e2f5bb0
3eb4e13f
3f86c200
3e4d5868
3e4803da
3efdd79a
bf960ad1
be8e666c
bf7da7fe
3e858e70
3ea138da
bfb00128
3f205e20
3e979f79
3fbaaf62
bea20c1d
3f9a430c
bf1cd9a1
3fa08b13
becc60e0
3fc043d8
3e3e3757
c012cee9
3dd63eaa
3e8b251f
3fabfaa5
bd824941
beac1155
3f123072
3db771e1
bee2b05f
bf362f2d
3f544733
bfbee52a
3f738c3b
bdf53f65
3f5d2fcf
3f368511
3c5a1123
400e64b4
402765d0
bf557140
3ecf3348
3f0c625a
40193d53
bf37a52b
c00f6d8d
3f212013
3fb3974c
bf17147b
c00f6e3f
bdb6d872
3fdf8930
3fbc742e
401996d9
3d7bbd1c
3f01029d
3dfc7e02
bfcfabfa
be3f14d2
3e0ccb04
3f087a54
3f064f86
3e43435d
3f5dbed8
3f1a5934
be2dfa90
3ec2d7ee
bf080bd8
bf11c199
c0436ff9
bbc83de0
3f246b4c
3e0b9fa2
3fcdc989
3dc3d790
3d53f870
3d74db0d
beccf3dc
3f0cd673
bf5b2af2
3edd2a32
3ddd53b1
3ee2f649
3de43c3b
bfc6ca4e
3cacbd7c
3f0f86e7
bf74e584
c01229a5
bf7575f5
3fa5f41b
bec25597
bea9623b
3d858191
3f25a102
bf810d7a
3e2de0b4
bfa46a8e
c0096f06
3f3561e4
be30c7e8
bf50d74d
bd17cac3
3f9a77b0
bed225db
bf9808ea
bf7b059b
3f5e7267
be8c595f
3fb14ef3
3f393ce5
3fa4aa92
bf102c7f
3f195401
bfb98240
4002fbb6
3e66be2e
bf86f930
3f8de584
bfa500be
3f806f67
bf41d73a
3e5ac67f
3e274b39
bf525137
bfd6a9a7
be2446c3
3f6c06c8
bf80adbc
401d0e95
bf455a3f
bf54765c
3db6aaff
3fa66bed
bf33e648
3f445978
3f1ef770
3edacb59
3f16022a
bdb876c5
bfd5bcb9
bee213e8
be840424
bd9b0b54
bed75f6f
3f47cb2a
3ddcd060
bf55f54e
3fb84711
bf4f3b52
bea6d5bb
3e87108d
bf432227
bd83ac24
3f05ab08
3da384d6
3f9ad51c
bf9947d9
3f73bfe7
3fae6d2a
3f3928ad
bf87d937
3f4a2024
bf8530c9
bfb80cf8
3ee617be
3e63fc1b
bfbaa720
3e855b2c
bf931608
bf1465e6
bbe5d37f
3faec1da
bdfbed41
bf8e24e9
bf6c5f45
bf11f584
bf805f73
bef82da7
3f9ff8b4
3ec5b0ec
be40a5c2
3fa10de5
3d9cb768
beb5be63
bf6381a6
bf953670
3f771afc
bf387940
3f223c80
3ed23704
beeaa92f
bf900bef
3f54232c
bf3ea6b5
c00297bf
bfc400eb
3fd130c5
bff04bc1
3fd388b3
bea4b4f1
3cfcf2d3
3f964c4e
bf9e2ec2
bfa89914
bf4f6454
bf1e42ee
3f2f40f5
be03df16
bea08464
bf19e309
3f29f154
bff18ddd
bef837ca
bf8786d4
3eb5866f
3fa9e3f2
3f8cdc2d
bf2d72de
3cbb9c59
bef4b39f
bedd1595
3e24c2ef
3e54ebff
3fa93fb3
3f637db9
beee3b3c
3dfca911
bf0e1e48
3f45cc61
bf0a3fd5
bfe46b11
bd76eb47
bec0db01
3faf9c86
400a274b
4005cbdc
be9da2d6
bedb454d
3c55b6fc
3f22e424
3f47190f
3ea741d3
bd8fdfaa
bec16aa9
3f9de9c0
3e86f532
c01c1213
bed0a573
c02a02b0
40071dc4
3fddd0df
3f207a5b
bef5b744
3f10de83
3f85830c
3dd0a930
bea52a10
bf818398
3d358ab2
3fdc2ac4
3d8867b8
3ef7ca26
bfaabba2
be4a3543
3fb7265e
bf9dfb16
be8f617b
3f5080bf
3ee413f6
bfb21159
3fa59cce
bf903303
3f0d641e
3fbef37f
bf55de75
3ef480aa
3fb7c62e
3ed7041d
3f1b3948
3f124601
3f719783
bf5cf8ee
bf1c09fc
be5c4b05
3e645a1b
3fafce61
bee3712a
becfda48
bf260bfb
bcd20d1c
3f4dd85e
3ffc899d
bf74c7fb
3f8882e4
3f56b2be
3d96adf1
3f8964ea
bec4bc2c
bef146cd
3fa35f0b
3e38e4ec
bf3f23cd
bfc67525
3ed13e49
3e499287
3e3a8cbd
bf90c455
3e669427
befdfe17
3f3456e8
402d5c49
bf5a4a20
3fe64467
bd332675
3f18af4d
3e416563
3f31884b
3f9017c2
3ea04bd4
3fadc2a3
3f6570fc
3d1e5e32
3d8422fe
bff0f11d
bef21316
3eecff50
3fb019b5
bf63bc4f
bf54c096
bfac87cd
bf1aa921
3e837528
be97d61e
bd9879be
3f70b67e
bfbafbf1
bf5888c0
3ee79de8
3fadd464
3edac1e1
3e7ac534
3d55af36
3f0cc360
3fb1099f
3fad9970
bf3cefc7
3ed95289
bfb258e9
3f77289a
3e4cda50
be375afc
bfda3715
bf02d004
bef0f510
be93c196
beea56af
40186dbb
3d5b68ac
bdc1b420
3f028815
bf5797df
3f29eb9b
3fb00ad5
bfe91d3a
3eb1d171
3f047182
3f5cac0c
3f9af14a
be8253f0
c0551afc
3d0abb07
3f11a96a
3fbf7ecc
bf61281e
bf2be70c
3e925396
bfa0a991
3fd216ad
3f35ccc4
bf2249bd
bef4fd23
3e9ba8f0
3ef16ead
3eb9b5e8
3f05dd0f
bf25d297
bd567cf8
be918bec
be75f40f
3f9e16f3
be57fbdc
beef11ff
be7a2d40
3debc52d
3f632a97
beb2b126
bfb8572e
beeeb518
bea3e587
3e7801ae
3e8c146d
3f31af74
3ff01fe4
3fe38a98
3fe35051
3f90af15
bf3227c6
bf754e1e
3fa2908a
40065002
3e7f0455
3e951e56
bedcb289
3f5320bd
3f9ba551
bf809de1
3df173fe
bfa11da9
bf4f14d8
3f838345
3f04d832
3e2eadd2
bf81119f
3f1065e2
bffa3693
3ebb5360
3f821b69
bf96078f
3e1d5c1c
3fbe0de2
bf4109bd
bedb0a09
3efcc57b
be471c28
bebb39e8
3e335456
bf40cf78
3f132252
3e020ee7
3fabcea4
bf0d192b
3edeff39
3f5ef55b
3f59b002
3ec264c0
bfa002e7
bf070e33
bf2de85b
bf01664a
3fb1339c
bfda4018
bf8d5f7b
3e02c327
3f27ac1b
bf8fe5cc
bfff1403
bf917ff4
bf9d5df9
3e919e9c
3f923285
3eed7f19
bde96001
bf44b72f
bed03eca
3fb555c8
bd853fa1
3e37251b
bea5b1da
3f45adda
3f0d6a27
3f6aeb7f
3f07e2ef
3e673e85
3f0088b3
bf56ace5
3e329e44
be8324ee
bf58d665
be43db86
bf53ed13
beb74cd9
3f507009
bf3b0b47
bebca0b5
beb282c4
bf9724a0
bed73fd4
3f8f62f3
bfc91311
3e600247
bf16f3b8
3f4c015a
bf81ee75
3f1085f3
3e9335f8
bf27953d
bd897786
bf3d7620
be48ac21
bf491629
3f2ff60f
3acd79ea
3e9419f3
be643f90
3f5b74ee
bf846b3c
3fa3ee03
3fa2deaa
3f340f60
bef55e26
bf5cd372
3e7ab3dd
be3cfc77
3e14ca56
3f17531f
bf88f3fd
bf99eda2
40009a2d
3fbaaec8
3dec656a
3eba34c6
bf96d918
be71a78c
be165088
4023a708
3e1630f2
3ea7de3f
be47ce0f
3f0b4ea3
3fd2301d
3e3428f2
3f42d955
3fb0b04d
3f98e4ea
be23f83b
bfb40bee
3ec03d13
bf0b61d0
3e6a258c
be8708aa
bf7bc208
bfd50d8a
bfa23b1c
3fad5fa0
bfd17020
bfea7fe4
3fa093b8
bfd1b1ec
be9ef8ea
3f4d1d1b
3f13c9a5
3f81d878
3f0bbbe1
bf44d270
bf502a4a
3e990562
3f1f8f17
3e962295
3d405e6b
bf0466a7
bfa43250
bd36f57f
3f7f8c7b
bdd2ef0b
3eead3e4
3be7138f
be9a3127
bf3f7b6b
401711d2
3db2a5c7
bfbb5074
bf847b78
402286b5
3f0a2caa
bef008f0
3e78ed59
3fb3a733
bf62e7f0
c01cf6ac
bf89fa99
bf8503a0
bf3c4985
3f84987a
bfaa7f32
bdb27259
bf836319
3e2d9a39
3f8bfdb8
3ea013ad
be55df1d
be88979c
be101c16
bf0e6ed2
3e543dfe
3fd7fd92
bd45488e
c003762b
c03af667
3f17ff05
bf859e00
bf960c83
3e72cc32
bf438ef4
bec1e91c
3ff8e8f5
3f32898e
3e8512f0
bfe22419
3fb27193
bd1799e6
be00ae44
bf40dad9
be57c275
3e9bdcac
40088e9e
3f86f9a4
3c3cd8d8
bfada4e6
3ef4dfa6
4001fa56
3ec1b27c
bedc5498
bfba077c
3f380182
bf00f153
3f89ffec
bf1b6612
3edc7a62
3f9bdbf0
3e852210
39eafa19
bf31f7a7
3e5a5e16
beacfd46
3facbea0
4014e800
3ea3d3cd
3eb7252a
3fe8406c
3ed1d637
be74d694
3f9e4383
bddb30cc
3f2f594f
befb7808
3f74c5cd
be0a1dc0
bf6f50b2
3f1d4b9c
bf775d58
3fd4a400
bea4f5d5
3e4b5aaf
be5c0119
bf9d0ff7
bf616ae9
3fe51c6a
3d3b1007
3f0e7214
beb7f548
bfa61e94
bfde56a2
bfc7315a
c04446fa
bd36c05f
3e8c30ea
3f1e6389
bff7ddd2
bf882172
3efa610a
3ee31c16
3f2099b7
c00068eb
bf28a96a
3f60c1d3
bfd83ece
bfd6adbf
3f7a387b
bec54d6d
3e3cd9b2
bf69cb0c
3f8c4f55
3e74438c
3f4f582e
40038375
3f322d4c
3ea2b2ab
3f787500
bfdb2e61
3e9a2155
40081614
3fff11e2
bf680bc7
c047c3ed
bf5b486c
3e80713b
3e259abf
3eb8fd8f
be0e50b5
bed5bfed
3fcc1413
3f2cc761
bd05d1a2
3f8120bb
3c3d6c73
bf861134
3fc66cd2
be18fde5
3fb62649
3ec988cd
bdb9fe38
bf4c0c64
bf06010d
3d9bc5a2
3f91e7a5
bf75e3da
be072cb7
bf9b425c
bf77372b
bf4eb9a0
3fd6eb2b
bf94193b
bfdbe25a
3eafdf29
bf5e8c18
be7ce7ff
bf8c0654
3d0db506
bf9aa3f3
c0056b3d
3f0142a1
bee38509
3ec32253
3fd53764
3f5975fd
bffbb7e8
bfa8ce5b
3e730d3f
be8faa70
bee68686
bdda50de
bb9955e6
bf334805
3f8baa58
bf0c1ec1
3e8c8228
bf4b93e0
3f2ac6f0
3f9d2764
be42eca6
3f9b9af5
3ec2eaa8
3eabf9d7
3f728946
3e51b647
becacced
bffb199c
3f1687c4
bfa7cac6
bf007d73
bf4c9b79
bf344931
3f434590
bf5137a6
4023b801
3f129d08
be84f7dd
3f61b9ff
bd2a4d54
be8ecbc1
3eae8f78
3efbe1d6
bdc68d0a
bebe18a2
bf81ed24
3f5b2370
3f19107b
3ece46ba
3fb9f483
3e8408c1
beb7c9fb
bea449af
3ed5a458
3fa51f18
3fbb238e
bda7ec79
3ec512e2
3f290f21
bec33742
3f7eb9b4
3f59fb51
3f0a6e12
bf20dd18
3d8c62df
bedf2587
3e7553f7
3ea77912
3d82d014
3f17d625
3fdb348d
bd962905
3f10f18c
3febc8c3
3ec11fce
3fe5423f
bff2bbd2
3f322b47
3f8b8435
bfacbcd0
bdda42ec
3def9499
3f84b776
bfe66a07
3fc368c6
3ed05518
3e3f6d26
bf4ef69a
bfc63f23
3e90633b
3f2ffd66
bed6afc3
bed4d15e
3de678b4
bf975c36
3f993386
3f93f2f1
3f3c342b
bf5ec582
3fed70ab
bfa34e78
3f71c770
bf1b75f1
3c98cba9
3f1a18df
400de527
3e553758
bf6a65f9
bbb91c31
bfe9bdc8
3f133c4b
3e23525c
3f6d7983
bf56f0fb
3ec060ed
c0015fa3
3f4b75dd
3ea4233c
3f61d38a
3f842a5a
beed282c
bda5155c
bf93e1e6
3fc9d66b
bfa991ff
bf6ecb35
be8bccd1
bfae7277
3f3405c8
bd59496f
bf32c226
bfc6d7fb
3d058a92
be66c034
bf058eb4
3f6598d3
3f82b2c7
bf30507f
3fefde3c
bdd447ec
bf066b73
3fb8ca74
400e11ed
3fa48d00
3ee67d65
3ea773dd
3e242c3c
c0049df1
3fa011a8
bf281987
bf5f78a6
bfb03463
3f9edcf9
3edade1e
bfd9f91f
3f7bf3fd
3ede5504
bf6163bc
be684250
3fa0896a
c051db2f
3de8701c
bf2779f9
3e26eca7
3f1376eb
be2b0832
3e1bba87
3eabcca5
3ea9af03
bf4f7893
4017133c
bfa76ed1
3fc47715
be1dbdd6
3f6536a2
bb74843a
3cd036cf
3ece1537
3f0883ca
bfc14d08
be693ae6
3dcbca16
bda4e22c
bf2f1bf2
bf98ffb2
bfce3024
be2917eb
3f1e33b3
3f242dd7
3e1a0faa
3fcadf92
bf77c69b
bf20397e
bf57bf74
3f282c36
3f6e09be
3f3a35d4
3fc765b1
c018473f
3f338b08
bfb58a10
bd3ba46b
3fb67fb4
bfb06ee7
3fb68c57
bf34fa8e
3f2e7a77
3f878308
bf933ebf
beb1828d
3fa8b162
3d2fc475
be9af9d1
3d8c97be
bf7c566e
3e95387e
3ebad993
c01d00c3
3f419d24
bfc8c33b
bf7a9870
c01b38cb
3dd815f9
3da1feae
3e8e4c30
be58d115
3d8f7804
bf3e7da7
3fd5fc0a
3f3d2931
3b4780e4
bfa78d1c
bebfeae2
bf67acee
bfd6a57f
3dd3fbc3
be902a6c
3f21579a
3f629890
3f3ddf4e
bd08d2c6
bfdee7ec
3e1261a7
3f7a27fd
bd0920cb
3f2aebd1
3fbe2993
3fc5b66f
bdb53312
3fa53a4b
3e267299
bf2d53b3
3ea280eb
3fb8a987
3e61b377
3fd9f051
c02b6eac
40089b27
bee97b1e
3fabe490
bf8a401e
befe1bc4
3fa1849c
beab7375
bf0e230e
bc104387
bf687313
bf972e22
3f03a83e
3fcd1a6d
be9f8eb9
bdc1f971
bf7948da
bf14c2e3
be727f57
bf8c9a53
c013b676
bfa40e74
bf0c17fe
3edb3f76
bf409094
3be89bfa
3f5048fe
bf5641f0
3f36ecbe
3f9c648b
bfc0db2e
3f045118
bf606138
bea8cf35
bf8dc616
3f9dbc39
3e2c1c25
3ed6d02f
3e75c5cb
be4c0dbc
becde0f5
3d9f4725
3f022130
3e428e44
be6cc7dd
be7fdd40
3c1760c2
3f6f1ef5
3f47d9a8
3fe9c808
bcf1f0b4
3f57a16a
be0dc90b
3fc5bd6e
c000e6b0
bfecc663
3efd5a3a
3fa7446b
beaa00f9
3dddab96
bf934b1f
3d5bdd72
3f180b44
be87d7aa
3ecc3dec
3f98a083
bf3dcbaa
3ec13345
3eca128b
bf97a013
bfb5157b
bf520790
3f4a06d2
bfd0ab84
be9fae37
bf82ab96
3f0d8d07
bf9e8643
3fd0457f
bfb7addc
bea99bd2
bf2c5363
3ff60ccb
bf155204
bf3a0c60
bf1763a8
3fce107e
bfa133c4
bcb35a1d
bf2625c3
3d93ff18
3f26e90c
3eb75c15
3f0c0be3
bec10c22
bfc7c51a
3fc4a1ce
3f0beaea
3dd58684
3f22cbe1
3de1fb12
bc7ccdd1
3ec1edb5
bd3ea025
3d5a8c45
bdce00ad
bb13474b
bf223dd2
bf485759
bf52a57f
bd9dcfbf
3f9811c9
be79f2d6
3f629a5c
4038738d
3cd30dc1
bf1d938c
401bfcbe
3e9d974a
3e341903
3eb87e80
befad526
c025f4c4
3fd74883
bf142067
bf5c8f66
3f5f1ba3
bd0504d5
3ec4dba5
bf16d1a2
3f517a21
3f72de12
3d2aa157
bf5ab510
bfa14b8b
3f348487
3e525854
be6cf752
bfaf6d19
3f7466e0
bf32b005
3f80af71
be1af3cd
bf019136
bf8f7f05
3f884258
bf4463ea
bf1bc204
3f671f5b
3f223ee1
beb9ee53
3f4a3763
3eb7a079
be5fec90
3f02ac88
3fed32a5
bc8a8387
beec9419
bfbdcdce
3b91990b
bf313cc3
3d78320a
bfbb13b0
c009466d
3e2a54bc
3d337fdf
bf535ff1
be77d948
3f9c8348
3f36a09d
3f70cafc
c03cc8e8
3ee6da64
3f929fff
be04aed5
bf8d6799
3ffa8b75
c0235397
bfed4577
bf992ed9
3f34330b
3e1e288a
3ee2af0d
3e6bfb2d
3f3b5c3b
3f768a3b
3ee94321
bfcb03c9
3f4bde3a
bee15b06
3f3cb0b7
beae6f6a
bf16e4e8
3f4d1439
3f86c40f
bf8b7cd9
bf67f7e7
3fe5d3c2
3f0db387
3ddc7096
bf9ad7b0
3e7db059
bf2c8f4a
3ef47d13
bd3a8118
3eb9776c
3e8fe6f2
3f10cdef
befb8987
be6fbf18
be437176
bf662a41
bfbab09f
bf0b9263
3f2ac6ee
be3e81da
3fac1d0a
3e0ead77
3ee8a77a
3f660396
bd583a5d
3f05a52d
3d767aab
bf8c28c5
be46a661
bfe5e413
bef3d7be
be07e2a6
3dae62e0
bfb3a38b
3c543d5b
3e5c52a4
3e70887e
be0b07e1
3d7d5f75
bf2ede73
be4d36f6
3e938694
bd9ebb99
3f12bf23
bfb7bc7a
bfa4aef0
bdc62271
bfec4885
bf05225f
bf1f3eed
3e5fab8c
bf9c8ead
c0538867
3fd85ca2
3f43415a
bfe80b21
bf09eaed
3f431e98
3f675d53
3f8d40af
bf9118fa
bf9329f3
3ffd453b
402f22f6
3fc404a6
3f7212d9
be876c6d
bf950b07
3f4aeb60
3c14c8a4
bf3945dc
3e9bf97d
bec09bce
bf480eb4
bf0e1d33
3eda48d5
bfbf704c
bf69d953
400b5a26
bfb40950
3e1b5a8b
3fb3e5a1
c00c4617
bf38a8a8
bea8c267
bf1622a5
3ee6b05c
3ea45acf
3ee99004
3f6b171a
bed819f3
bf40955d
3e68b34f
3f724343
3db0e083
3e2f921d
bdb21cf8
bff613a3
3ea624fb
bc699201
c001107c
3f1ee7b8
bfa1951e
bf541adc
3f8f3958
3f5bae6c
be95373e
3f9fd7b9
bfaad3de
be427529
bf229bcb
40201bb9
3ff95f0c
3e9fdeca
bece5e6c
3fa999bd
bea27059
3fa29ad9
be77fd1e
bf1e2925
3eaf1c6d
3f6e6006
3fc1130a
bf2478d4
bf9c0d5f
3ff1e08f
be8749a5
3eb01d9b
3f898e01
3f307ca1
bf6a1c33
3f87b7d9
badb642d
3f859a67
3f199315
bf9567d5
3d55db1e
be59ec9e
3d078a93
be9d1098
bf976094
bf84e6b7
3fb6a033
bfb2a9db
3f830813
3f3dd85e
3ed8324c
bfefed74
bf59917b
3f4e7b92
be053a84
3f0c0d61
3e4aa855
3feac446
bfa26588
3f82ad52
3f745f84
c029bc4c
bdcf34a6
be5974bc
3ec9b995
bf5974cb
3eb9c099
bf4cdb5f
bdaee1b6
3fb09107
3f947ef7
3edf03b4
bf097fca
bf214cb9
bf615852
bfbcb77b
3bca30ad
bf9ebf57
bf104c87
3f4e2f03
be5100af
bf76bc29
bed6dddf
3f035687
bdad1426
be900952
4002f8eb
bf38e083
3f90b47e
bee26f02
3f1f7f20
3df584e8
c011353c
c01402c2
3f2163fc
bf3b3b87
3ec3c473
3e9ad901
bf0def31
bff31167
3f1c868c
3f952dc5
3f3d50a2
3f025479
3ea08c93
be3da8c5
3efbbdc1
3ed3de58
bfe26e7f
bfecaa6a
3e76db6e
bda0d86e
bf050b03
bdf886ec
bf7b996a
3ee3dd92
3f116389
c017ab0c
400d1f22
3ee46d7e
3e85ece0
3fa0add4
3fc7ecea
3f19b133
3f014438
be35abca
bf5ec6fa
3f5824e6
3fda9748
bfcb5d3c
3fb583ee
bd36e971
3dd45f37
bfa9d44d
3f71dbfe
bee3a4d4
3e95eea6
3e2202d6
3fe8e8e1
bee1d560
3ebeb38d
3ff1cdb2
3dba0e48
bddeea23
3e55b247
be1c337d
be686f8c
bef4bce7
3e7a727e
3dd179b7
bf8bec21
bfa8ff0a
3ea9469e
3e7e8dbd
3f10ee0e
bf35b0f6
beb65c99
3ff99ee6
3f39d9a3
be9680a0
bf40a6cf
3f6c3fa8
3e8609fd
3fac7d2f
3f1075de
3ee9b3df
3d8ca837
bddc1183
bd318cc0
be37306b
bf8388e0
40097e88
3f7affa2
be957661
bfcfdcc5
bf4548d2
3fb6890a
bf8cebc4
bee7a75d
bdaa68dc
bf0bb1b0
3dffbea0
3c3dcd94
3f696223
3ebf7f84
bf80dd5e
3e7242e2
bf375d00
3f17772b
3f4f8014
3f927159
3e041da4
bfbd4e17
bf78ed53
bcb4fa75
3ec2a8a0
bd110394
3fa46d3b
bff6dbe6
3f0ae367
bf1d7d91
be9970af
c02249ae
bef94c56
bf39fd46
be35b2a3
c02b0c8b
ba40b625
3f47d33f
3e168c04
bedd2f49
c00c03f4
bed316d9
3f882e7a
3fa1112e
bfa42bdc
bed9e834
3ff49848
bfb6dc2a
bfc8cbaf
3e393b14
3fb1d43d
c00b8cb3
bfc6a2eb
bf1a793b
3f5bf1a3
be4de0a5
bf60adc3
bfbdcc64
bf7583c0
3f4f3920
bd95155c
bf1ffe41
bf6e6a7e
bc8a6463
bf8b1a98
40282c83
3dfcf5f1
befb5b56
3f3f00a4
bef140c6
3fa7dd0e
bec37fed
3f1276ac
bf2c3a29
be1b1a48
bebe5576
3f3b7023
bf58109d
c008c2f8
be9512d4
3d50a96e
bbd7781c
3dc7533a
bf593b03
c009a395
3fd3c850
bec07017
3fa8fbb6
bf381160
bfc71133
bf2898bd
be6dd904
3e305561
bfb616f7
3f424e03
3f422cd4
3ec4a521
3f353552
3fbfc1b5
40109e79
bd9ec433
3fe13c37
bd28d14a
3e6acb7f
3e2f9697
3f934268
3d160c7c
bf477fee
bfd09a2d
c03cad3e
beee8487
3ff5de9d
3f9fdc05
3f8bdd49
bf6eb20c
3e8fbe90
bec6a63f
bf3655bd
bf27f859
be601367
bec509da
3fe70bdc
3ee018a5
c00e0c59
bfb8ea91
3f747db6
bccc138d
3d88cf7f
3fdd275e
3dd691cd
3f3b906e
bf8e46ad
beeaecb4
3fd5649a
3bf5c7b6
bed0e1bb
bfb1b3cb
bf33b49f
3e0f1c43
3f998da5
be8f6260
3f9b6b2d
3f7e82e6
3f1b5c9e
be7d0dba
3f625852
3f951275
bd24ab02
3e5ddf95
bf28daf4
beee0fd0
bc4f62d3
3ef0204f
3e381651
3ced9d52
be7237a5
bebeba85
bf23c475
bf87ebd7
bf08ff82
3e17b031
3f1f337a
3f184bb3
3fc1898e
3f0608ba
be31fac1
3eb4585c
3f39d494
3ceee49a
bfc411cc
3fa7e809
3f6d50c3
bfb041d3
bfb96e7e
be5bb2b2
3f545629
bdc355e6
bec696db
3f0e0c68
bf3931ae
3f32d610
bfb52507
c00f68a4
bf99c169
3e5d62c1
3ff3975c
beecd266
3e8bf0c5
be889e1a
3f38834d
be9d7900
bf80e7d7
c0078351
bd8dccdb
3fa45960
3d9b91ae
3eae3167
3e7c1a1e
3d7bf0df
be4c44c4
bf898aea
3f82140e
be68310c
3f1ba000
bef786e6
3ea92c10
3f9c8dcd
bf3f4624
4005dd6a
3ea30021
be15c3ec
be88c230
bf05b44b
bfc71147
bc94e3d7
bf1fde8b
bebc5109
3e10adac
bea81957
3c7340b7
bf63ae29
3f6438a6
3f995194
bf0ae44f
3f4c402f
be608d22
3f8929cb
bc286016
bf89de65
be1d8d38
3f077324
bf3efe43
bf9fa62a
bed31b58
3fc0aef8
3e34fba5
3f943867
3f1b67f2
3f1ee4a5
3f676591
3fca7310
bf68a6c5
3f7513ec
3e4aac0b
3f8b500b
3fe38d87
bf3c1284
be6185fb
3d7e0d9b
bf947213
3f1868e8
bda8062b
befe5557
bf3dc1fc
3fc4c40d
be5e8abb
3f3bc3f1
bdc2ea3b
3e6b4ac4
3fc35db4
bef35f35
3e72ed3a
3e744ba4
bf0915ed
bf807310
bee81f30
3dc2cf7e
bef25b8d
3f5a05f4
bebf4171
c01035aa
3f8ad61d
bfb4c06d
3fa3f626
bf9be820
3e29f3e0
3fec6bb6
bf5ded1a
3f5cb38d
bf890e28
3f40f856
3e5742ca
bf067128
be8d4646
3ec4908e
bf9a12f0
3e1becff
beb56037
3eabe4e2
bed6b0a7
3fc40967
bed32b8c
bf542f78
3ee34583
be2d0dae
bf894f08
3ee44729
3fe8e62f
be0eb903
be132f3e
3e4ad0fd
3e375bd8
bfcc4b55
be8ffd05
beb5e519
3f82a868
3f1d475f
3e59c0ec
bf028bef
3e9c71e9
3f1e36eb
bf30c639
3e7beedc
3d86df86
bfa2f2b9
3f7b8ed1
400a41c6
3f495753
3fda7bdd
3dd7914e
3e41d672
bf69fed1
3f8a97f0
3f208ec2
bf27563f
3f6402df
bf89f330
3fb94269
bfb699ad
3e91fed4
bf4de034
beca245b
becf4cbf
3ea893a0
bf7e7da0
bf24888d
bf894f08
be7b2c54
3eb6df34
be8aa837
3d46c22f
3f569857
3f14b99a
c003defe
be20dc1c
beba563e
3f4f8a18
bf0a62c1
3f21d645
3fb01139
40075936
bfaa30c4
bc7fbdf8
bed17f27
3ef99f7a
bfc5667b
3e16bee5
bd745313
3f82eded
be946283
3ea5e673
3e840306
bf8a8483
3ec06e36
bee4a3aa
3f5de18e
bf451de7
3f43f129
be8c44c4
be44d608
beb4ec5c
bea23ab8
bf4daa9f
3f231a45
3efbf1a5
bd492f46
400ebcab
bf249713
bfbf09c6
3dff1783
3ea16911
bf0aac8e
3f1d174f
bf279012
bff28f63
3f295e8e
3f8495c0
bf043c95
3f286c72
3d9ca9df
bfa26f89
3ec872f7
beee5c66
bf46075b
bf498f32
4027ca46
3d33c27f
bf867c25
3f55a38c
3e04670b
3fd1d0c3
bf8d2fcc
bfb3f514
3f5753f4
bf5c732e
402bff3b
3e632566
3f913823
3eb35783
3f81c56a
bf8e6de7
bf6f3d32
bf188935
bef16373
3f8c1d0d
bffdaad1
bf22fdc0
3fd3aca8
bdfbc125
be513d08
bf4f2036
bf15eaa9
3f03b71c
bf6cb5d1
3f5c744e
3f8d3f32
3ea42b72
3f111407
3f07d081
3f6e46c0
bee35ca2
3f14ea27
bec0c5e8
3fa65a56
3f7ad600
3f5d3c7f
3e09c3a1
3f3ec4a8
bf330560
bfd12e6c
bfa427f0
3f16fb17
bee0e30e
be56a1cf
3fbdeccc
bd2725a1
3faa197b
3fb381e7
bec64804
3fa29d5f
3f9ed2fd
bfbf8309
bf2e5519
bf320dcd
bf7eb0d0
3fce1f97
bf8dc678
3fb6e88b
bfeed092
bff20a8c
be3afeba
bfe36330
bea59efc
3f0450ca
3d3e3e35
bec7f744
3eabf40d
3ec05c47
3fbaa6ab
bf2d5220
bfb1bbee
bf711390
3f6f3775
3ce78bfc
bead6e56
3d8f6db7
3e2f6993
3e8663ae
be129ad6
bf087397
3e5914e5
3ef40662
3e08c42c
3f61d2e7
bf0ba19a
bee0ab28
40017929
bfd02b23
be92759b
3f052265
bfd76ed0
bfaf6429
3d70b7a4
3f39f109
bfc5f5e4
bf1108d7
bea311bf
bf2bce42
3fecdd3f
be2b986a
3f5ee251
3ffaf197
bea27f01
3e12c944
3e5693f9
3efe03f7
bfa65d34
3f6a01bc
3fa377ef
bf8e6c84
3e6e9399
c004d810
3dd1f324
bec96620
bef87672
be40c9e4
3fcfef94
3fc6b752
bea8fa8f
3ef53abe
bf27c132
400bde14
3ec37fcd
be86b30a
3d41edc8
bf142728
3f45d1a8
bd2ac0a9
bfb208e4
3e74f8cd
3f03b323
c00858ef
3e808bea
be08868a
3fce4815
3e080006
bfa699a2
3f3e79f2
3e755e2e
3f9a7d28
401461ee
bf7407f9
3e64a30b
3d331a30
3f70b82f
3f1171f8
3fc271c4
becaa7cd
3e10f182
3f9d0938
3cfd6201
bf5316ba
3f4d1bb3
3f09bfce
3fbb3920
3e3dc943
3e875036
3c21f4fe
3f231030
bf11cd3c
bf845e23
bfbde0ea
3f8a2170
c0089cc9
bf867002
be433a04
3f1caed1
bf3be27e
3fe6e906
3f25880e
bfae55cf
3ea7578c
3e97113a
bfac7287
3f774c23
3f331e01
bf5d99f4
3f4e4079
bf333be1
bfdc4b27
bdc65b0e
3ea79e1d
c00b302a
3de52a61
3e4b1955
3f052798
3e10ff6e
bfeb08bb
bf84b338
3f48c770
3e95b4a6
bea79fe0
3e98672f
3f6c3342
3fd5e1a3
bfcf8727
bd0fa570
3f223c16
3faaf3e4
3f01b0c4
3fd97f2b
3fac8e71
3fa9fef5
3e293b34
3e135d10
3f110ed9
3f2f03cb
3fb3e70d
bdc7b2e2
3f112b0d
bf306ef3
3f1c6a65
40082c1d
bf0c5cdd
3ff96364
bfa376f3
c01a1e2c
bffc7e5e
3fb079f9
3e34a994
bf10b91e
be866713
bf7d5c89
3fa992a5
bffd8789
be25a7e2
3f09591f
3fa705cc
be60e063
3f26172f
bf115dcb
bf2f2c5a
bff6e2b4
bf836d88
3d8003ff
3e5f691b
3ee7f9ec
bf4b1124
3f4d1165
bdaf747b
3fab3518
bf8ebda2
bf805fed
3f8fb702
3fcdc757
3fc9b58c
bf1ed1e7
bf0496d4
3ff0b929
bf1ab1c7
3ea1cc36
be3f7802
3eb69282
3ecddbb5
3fba7369
3f8e8b61
bf692d0d
3f20ba86
3e8e6d56
bff629d9
be1b9fd7
becc4eed
3f511ba9
3ef6688f
40155bdb
bf6b01e3
3f97474a
3fe66f45
bf3ea21b
be6ba4af
3f0eef3c
bf9cdd22
3f83e44f
bf410987
bff96a0e
bee4f8d7
bf82efd7
3e2c1d9d
3e852bd5
bfef1194
bfa6e5a5
bedfd7b0
bf2fe4e6
bf2a96bf
bf5e6057
bfec9181
bf30b499
bf2b412d
bf220c77
bed8417b
3f9ebc2b
3ecd16b0
3df22139
bfafa25c
bf022843
bd8dda39
3d0700ba
3ec6273b
3e0fd903
3f2a1630
bf4928c0
3fe985e7
3ca56468
c00ef65d
3f9fd0a7
3f268e01
bf8bc399
3f803bdb
3f1fc41b
3fcc61c0
40239874
bf9e27cc
3f0477bc
bf19f676
3fc5198f
be81fdea
3e521e13
bf6f19a1
bf98a60a
3ef8c900
bf51b418
3edd1d84
bfca26c7
be9d1924
bea4a899
bed6e190
3f49725f
3fa9ebd0
bf944c19
bfa890cb
beba9183
bea38a7e
3e960398
3e99710b
bd178571
bea523df
bfa561f0
3fb9afca
3e5756b3
bf293e62
3e156ffa
3e905f2d
bf02495a
c040add9
3f71879f
bfab4cb5
3f75e6ff
bfac6517
3e44fcb8
3f4d83c5
3e88bd47
3f2e36b9
be2c9436
be993510
3edcc9b4
be9f4089
3d13f07c
3f3563de
3f9bf3c6
3ea0693a
3dfb8147
be755927
3c9a69d4
3f84fd04
bf789ddb
bc90ca1d
bfb13f2b
bef810a1
bf5b9cfc
bed39df9
3e83426c
bf2a309b
bf94795d
bff5380b
c01324bd
3e8939d7
3e08bdd7
3fa6a13b
3ee5cd7d
3fca10d1
3d55c7fc
3e20312c
bdecf7d5
3f64ca08
bf4132ee
3dc33c99
3f4084bb
bf4228fc
401820a1
3f94ec01
3e37e0a0
bf3d99ca
bea65709
bed4ee47
bd54bde8
bf68ee2a
bf171b72
3fdf264e
bfe5cd41
3f57d1c2
bf9a62ab
3fbbf191
bf8bfd12
3fcf314c
bf34b5a9
400de59a
bfe87492
bf9d79a6
3ecdca92
3f948139
3e24526d
bed9ad45
3f2c88cc
3eeafe39
bfdc81c3
bf27aa6a
3f1ca0fd
bf2c155f
bfdde205
be503e53
3e60a6a6
bf259562
bdf1b52d
3f00354b
3e3a6386
3fa1d7de
3c8ac8b0
bfcdeb13
3d239094
bfd1e100
3f30dfa0
bddd861c
bd561744
bf0221d3
bfe810e0
3e4f70be
3f38e8c8
3f829154
3e940f1d
3f9d6e73
bfdbc2c3
bf8f742c
3e7485b1
3f67d013
bf71ea56
3ed69bcc
3f5e7b51
bfef2ad0
3f4187a3
3f999c4d
bf8b2b5b
bf59f63b
3f8d2558
be51d44b
bf3fc09a
3fb420ac
3f8ba704
3f879d54
bf87c0b8
3be191e1
beac54c9
3ed8d563
bfbdda2b
3ed22cb5
3ec52a39
bf4d6b6f
bd7948de
bef37373
bf0b604e
3f95c42c
3fa827fe
3fe95f3f
beff5c73
befab6ae
c0364a70
3f3a5598
bf40acce
bdc10c55
bf4035c7
bf681c52
bf09ea79
3dadb555
3d42794e
be5d7c51
bf25e9e0
3ea963c6
bf929f63
bf77875a
3fda6258
be8fa706
bf02cffa
3fb8c1bb
bfcac6aa
bf0153e0
3f4084f0
bf1ce2eb
3fafbc05
bea32c37
bef35488
3e068eb1
bf9c0835
bf2a7da6
3fccbaea
bf0fb594
3f51d67d
bfb92e56
3daa0543
40029d76
bfc518ea
3ebdfb8c
beaa708f
3fd0c47c
3e4027f6
3f39f029
3ecd59ba
3e436a0e
bf7da295
bd506629
4001ce6a
3d530d63
bfdedc26
bd0c3dc8
3fb715cc
bfc1119d
bdc1e519
be1a90ad
4056de97
3f04f29d
3c85a232
3f14504b
3f579af7
bf5f01c8
3dcea372
3fc303f7
beed2c15
c0172117
bf44c7a2
be5e7f6b
3f8aabe3
3eb4f606
3f8bfacb
3f46b110
befe7009
3fa998c1
3f3687ea
3ccbb480
bfc93085
bfcc5107
3dfb0b97
3ec5f308
bddc79ed
3fcdd1b8
3f134782
3f50d764
bf29a884
bfcf4373
3fc3c529
3e5e20b6
bf8518a2
3f43510c
bf078b02
3fcf251f
bf820eaf
bf62dfb5
3f23e311
be907472
bf57cd89
bf97c4f8
bf432695
3edb6f04
3f2d445d
3fdff29d
3f990ba4
bee51a3e
be701d80
3fb14328
bf8c9f48
3f818faf
3f276455
bda4819c
bfe65229
bfc93629
bf60819d
bda04071
bfaf3719
3fa6eb2c
3e3430be
3f42ec2d
400ab23d
3f632e52
bf89d6eb
bf4408c3
3fc09df8
bd9ae2fd
be14a559
bf4ba7ea
bfa09eeb
3f8b04c5
3e0384d3
be810dc8
bd8c3818
4004b427
3e59391c
bd9c7bf3
bff5c95f
3e28048d
bfcd20b5
3f73ab9e
bf113f3c
3f8a7d0e
be4d2862
3f8ba4fa
bf49fa23
3f896236
3fcef4dc
3fa10ddc
beae4084
3e50e1c4
3f70c61d
bec81927
c011e6c3
3e6b55cb
3f9c6999
bf05ac93
3ff40997
3f84355b
be81923c
bda192e3
3f5e4991
3f4d95be
3f90dd0d
3fdaf3e5
bedb06ab
3f6dade8
3f66d5a8
3f5399c6
bf3c993d
bddc3c00
3f0107d8
bf9bb0b6
be446db8
bfb507da
3f8b69a3
be611076
3eb79123
bf9ad217
3eb7d7b9
3f9f2753
bf4bb394
3f6b33b5
c0126ae0
be46be69
bdcc0cb7
be77c863
bf46747d
3f4e26f0
bfc41446
3f920532
3e7317a7
3d93e28a
bf3d27fe
3eb3b11c
40030ed7
bfcd08f9
be8f6ae5
400bf6a0
beac7083
bf433747
3f4f9a0e
be2c79ff
3d6bfc9a
3f2ff4e0
3ee7f386
3f59bae4
bffe32f3
bf8d0cee
3f45934e
bfbbf2aa
bf81222a
bf1b8baf
be2095b5
3e1c4cd7
bf71dd8b
3d936ac6
c00d89f1
be5e13cb
bfb3c056
bf6cf284
3f879e55
3f5eaebf
beaed140
3ec22e73
3fcb507e
3e7e565f
3fb55cf9
bdc70fbf
3de17ae2
3f9d71d9
3e577ae1
be9766a0
3f0108fb
3f8db238
3e5cb0ed
3ef04722
bf772b44
bcd4dc5e
3f0dbec9
bf175a20
bea1fb89
3fdb10fe
bf1f6f0b
3fa07179
3e57a440
bf468f5d
3f75dd32
3f4f5b55
bf3e771e
3fbfc266
3f9e758b
bf6f1788
3e1a7d26
3f522b8a
3ea931f4
bfa0557d
3fea5a5e
bf3351b4
bf606d2e
3eaa9a00
3f71bf67
3e314046
40170588
be81bbce
bf7503c2
3f962459
3f3bf672
3ee226d5
bf052c04
3f00f3ac
3fd2ad46
bfc28f5d
3f6446fc
3fac49bc
bee66e21
3f0b452b
bf9238d7
3fa5f48e
bff124b1
bfa1d4df
bf00e0cf
3fd00483
401c2089
bfad1d0c
be856abb
400a2591
3f32434f
3f933504
3dc50add
3f4cf170
3eeae83b
40094b0b
bf853d8c
bf33c308
bfb1f6a9
3f20483b
3dbd906c
bfb57191
3f79a817
bf4d216f
beeaa5aa
bfe7fe54
40299248
bf66cd93
bf1460c5
3e7171e7
3fc9c837
bedfb26e
bf3996a8
bf55c87a
3f42c587
3f3264d9
3f8f24bc
bf9a1426
be74dbfa
3fea83c8
3c87733d
bf5a0769
3ea5cc54
bf3f4627
3e356b47
3d756163
3ee85429
3fa20b2e
3e4905ba
3f5d40b5
3e996cd9
4049553b
3cc25c5f
3f82b945
bfc3c44e
3f9a3dbf
3f90cbcb
bf5dc6b5
be480a55
bff7e026
3f85f7be
bd62d978
3f33b392
befa6de0
bf7bec04
3fe59abf
3f906a43
3f64ae55
bf31c35a
3f5e35e3
bfad3f18
3e104a0a
3fbea292
3fb0f974
bfb93937
bee300fa
bf364704
bbd689af
bfaccf13
402e5f42
3fb9148d
bf0947fc
bf5995fa
401d7485
bf8140c3
bef6bff6
3e927804
bef8ff84
3ebc7132
bf836c81
bff195fc
3e933112
be98403b
3ff1e115
bc66b625
3ff52a24
bf9c5853
3f6112a3
3f6dc966
3dfc1ff6
3f1a0e9d
40389e8e
be3d2ccd
bf6d100c
bf4e29be
3fd4ff72
3e357e3f
3f15d2c6
3db83f08
bf84a27b
bd092d5b
bf87a757
bf853dea
bd86707f
3f7a725a
bebe811e
3f9815cf
be06a6a8
3f2c412e
bd04ba18
3e9aaa60
3e90aad1
bf2c2547
3f6b6391
3fb011a6
3f9b6f4c
c01cddbd
3e392891
c0056c88
3ff0f508
bff8ed46
bf4526a0
3e60d60f
bec35796
bf1236f8
be88d62c
3ebc81e3
bdb330e9
bfa96f53
bcd58a99
bd371c4d
bf0b4c20
be934c64
3e1de1df
be76da8c
c01c8b34
beec44b6
bf696a78
bd7cfa73
3f836a0e
3e2abe36
bf1f8c45
bee7abf2
400d0a86
3f88c152
3f85d3bc
be913e8c
40186488
bf8980eb
bdefa7ad
3eeb37e3
3f454e40
c0017f37
3f6d1057
bfa61e38
beb8eb90
3f529c0f
3fd7dd1e
3fa67cea
3d473e2d
3edaf948
3dc16e33
3e330330
3fc6286e
bf878e38
be039199
3f1d12db
bf7e3be0
3e25fa43
3ee4fc5a
bd4f2132
bf89ef4b
bee49f3c
3e87802b
bf90326d
bfca098f
3f6eb275
bda6b584
bf27720d
bfb8a3d4
bf93c95c
bf912e73
3f3cc310
3f605050
3df412b2
3f1b777c
bf05f937
bfcccb33
bfba6b44
3f4d5dc3
3fc0a83e
3f33294d
bf8a54d1
3ff74980
3f39bcec
3e4e85c1
3f8b7602
3fedd9c6
bf6671ec
3eb04337
beeb206c
3fa53edc
bf98c555
bfcf1e61
bfacb2d9
be467385
bd3a197a
bf1e93ac
bf07d987
3fa5418e
400ce6ad
bf4cfb76
3d2eb150
3e1c30ee
bf2a8ed6
be3d1a65
bda097f8
bf5bac77
401f29cc
404c9432
3f43d2e2
be3378a7
bfcf7569
402469f2
401631e0
bf983b42
3e9ae390
bf5c15d2
3f981d8d
4002114c
3eebab5d
bfb4f671
be9ee38f
bf6fbd45
bedd2e5c
c02e8276
bdeeb91e
3e0b8328
3e6d7324
bf762418
3d302317
3fa38135
bf665e7b
bf76a300
3fcd10ec
be7872e9
bf1f40ef
3997ea68
bf61ef00
be1415eb
3fce1b4f
be93709b
bf21b4b5
bfa67097
bff64c9f
3fa7e3ce
3e430e09
3f4d9ce5
bf27c8bb
3fc1bd02
bf9376a3
bef72791
3ff07142
bea42ded
3e661b3a
bf738792
bfaeced4
bd2b983e
3e660ebe
bf830ce5
bf685c6f
be162a6d
3e90bd1c
3d4ed1c1
bf4470cd
befaf69f
bdbb827f
bf64ffb0
be0a09de
bfbb72ec
bfef78f3
3f6805bd
be279816
3eceae0a
bf2a6ed6
3f8c7211
3fc4253d
3f30b6ca
3e9b6350
3fa3c8e0
3e8f54b8
bf96a867
bf1569a7
3fbeb71e
bf585c5b
bf79ba61
bf4d965d
bd07e79f
bfae3812
3e4522f4
bfa7d5db
bee6d62b
bf825f2d
bf3e7d72
3f9a2daa
3e24f0dc
400925e1
be9b86d5
40412a5a
3eac5351
3ed4433e
bf54e9b4
3f2bb89a
bd00927f
bfb0622d
bf8ca5dd
3f493d6a
bec737e3
bf20ea54
be27c7e6
bdca1058
3efe8c44
3f5caef9
bf4d2471
3edcbf8a
bf285c52
3f8b175d
3f06e2a1
c0265479
bf067ec8
3ec7acd5
3f9fa33b
3ea74fb0
3f703588
bb459c68
be243873
3f443f01
3ea6be79
3e6c13b8
3ee527fc
bf410505
3d336732
3eb2acb4
3e383c82
bf3ecebc
bfa66b9d
3f46177c
bedc6eae
bdfafe0e
3f51f9ff
3fd1fd2e
3f091e1e
3f0d55e7
3c6327c6
3f0b4b6a
be44149d
be1e7f95
bedcc93a
3ec9b332
3e15f353
be9056d5
bfe8fcc5
3f35fefe
be44a6f4
be2f6564
bf9f45fd
bfb47bcf
3e305c36
bf75e05f
3f160f4a
3dbecc36
3eb71a7e
bf62a65d
bef956f1
bf25d6ce
bf5c80b6
bebbca29
bd85f063
3e5bcd55
bea4c0cd
beed6847
3f8eb84b
3f8da064
3f258fcf
3e2d6da3
3ea3799c
bf85dd71
c03b0a5c
3f2afaf5
be335578
bfc7d4ff
3f80a6ad
3ed9371d
bfa80642
bfa2c255
3e8e518f
400c6360
3fc2acfe
3e9bdef8
c0040223
3f8b8f28
3d8ebc7a
3ef5c2c2
bfc06e48
3fa481a5
bc7bffca
3ed523cb
c016dca3
bf1edf28
bec9461b
400c4198
3f82b2ac
3fd23d79
be50ee0f
bf6c2701
bfb36244
3fc1eb6a
3cf20bf7
3f50b2a7
40216efa
c01f20ce
be4e04ea
3f5a561f
3e8332c1
3f099fc5
3f7bb0f8
3fd584d9
3e663d3a
bfd8e888
bee35726
3e8c2158
be26147d
3fa249f8
bebc2e6c
be54a6fa
3f3902fc
bf86c743
3fba14bb
bfc2f03c
bee1a760
bfd5203f
3f84b1d2
bef77f12
bfabf0e9
bf15187d
bf01b11a
bfbccde6
bd0fbbe3
3f13d78c
be80fad4
bf1e8ec4
3ebde327
3f531f7e
bebf404a
3eaf1d59
3f979056
3f1d2ae8
befcca3d
3f9dac1f
bd804b68
3f81c499
bf52803d
be8e2204
bf0f0aa2
bfaae7a4
bd94a7ce
bef4028a
bf56473a
3f13ed49
3f87d657
be0d83f3
3e920ea7
bff6ab8f
3ea51b5b
3e4cc513
bec0ff08
3f3a9cc3
bf8412a7
3f7f884d
3ee467b1
3eef65b0
bf5bc808
3f8569e5
3ebba28d
3e69955f
bf7a6f9a
400f0e36
bea3ff88
3e6919c0
3fe29c97
3dbfd03a
bf048e18
be2d2e77
bfa65d51
bfaca094
4004c279
3d9b7168
be0ebb5a
3e9cbde4
3f5b2412
3f1b9e75
c007de74
3f77aca9
3f19d09a
be20d51e
3e565119
3f358858
beb8392e
3cff6738
bf02a5e3
3e865028
3f928a9c
bf4424b8
be9fb3cf
40137003
bea31a5d
3f81f01a
3feaf1b2
3fabef3f
3f243183
bfd5b832
3df238ef
beb8e73e
bf925701
3fab5908
3ecd2e36
3fb922d7
beabc1be
3f54da56
bfee41f2
bf17bb1e
4002a5d5
3ef37867
3f95c9a3
3ea56f53
3e81d78b
3ef6416b
3f9311ef
3ee8c0a2
40271882
bd6328cf
3f8c0831
bf975bdb
3f832723
bff624ab
3c92783a
3ea105c6
bf3ca7e4
3fd496ee
3f7990f0
3f730b5d
c00f2023
be4cfdd6
bf217af5
3fb1d439
3f896997
bee9ce82
3d3d0b62
bf287d1b
3fbed891
3fc50612
bef63e68
bdd5cca5
bed777dc
bfa8c6c4
3f232417
3dd226fb
be94a396
bf83adfa
beb067b2
3fff8ad4
3f5b3823
bf35e0ae
3ec2076a
bfcbd9fa
bfa18300
bed1eabf
be0923dc
3fbf7617
3f529614
bf961a66
3dc13e6f
3f99a051
3ec9f7f5
3f0f1990
3dba2d3c
bfc49b13
be8f7d75
bfc9059b
3fccbcc7
bf45e67c
3fc7688d
400ac1c1
3e58ac99
3c6dbe69
c039bfb2
3f1b0f9c
3f00f2b7
3e7b4873
3ecdf6ad
3dd844cc
3fc6c50d
bf05323a
3f041a0f
bd4d94d0
3f9cd00f
3f5f7839
3f42dd59
bed651fc
3ce4cb21
bec1e8ee
3f33e4b3
c01975bc
3f68e902
bea71ec1
3f91f7f1
be08a947
3f2823da
bf4bad91
3f0d992e
bd83f34f
bf71fca1
3f92d126
3fdeba07
bf154061
3edbba32
bf884f22
3fb595d1
3d35042a
bfb6e817
3f2a915a
bf26f232
bedd7386
bf5cc8a7
3e11cecd
bf00f3f2
be800e08
3d861937
bfc6f952
3fb8be3a
bf627209
3e09b8c6
3e39580f
3f9bb338
3e8a5b65
3e858896
3f15ffd8
bff9e1f1
be0d70dc
3eb2406a
3e3f14bc
3fc7d6ce
bf3ad987
3f9a9fbd
3f0cfdd6
be8b932a
3f250003
bfc54176
bf777f07
3f42071a
3f94f276
3f80420e
3fd17ba0
bee143ad
be1db82b
bdc8a6e9
bf68dd18
bea20677
bf448c9d
bfad530c
bf947a82
3eb565d8
3f04e5b9
c008d3ee
bd5b46f9
3f94e7e8
becabacb
40492f8e
bf2dd61c
3f8a5ec7
3f992cae
3f3c9282
bf086e28
c022325d
3f81e545
bf9b2118
bf776075
bd9ede07
bf960ed7
3e70382e
3f722dc8
be4c369f
be7e450d
bfe92323
bfb1d9b0
bfb7e7fd
3e8c215c
3e0db753
40292580
bf1dc48e
3e4003e9
40202491
3f0781f3
3fa5e43c
3f41f01c
3f32eb99
3e817638
3ebd8e2a
3f76fa68
3fe846fb
bfb70358
be66f3e7
3f1b432e
3f82939a
3f0977a0
bf0be0e8
bf97a797
bf76018a
bf5a5699
3fa0ff12
bdad5d37
bfa7358f
be455ba0
3edd8da1
bf142683
3ef989ed
bed9c403
bed010f8
3d4ff80d
4022357e
be8768d0
3fa9d3bc
be880173
bfe57ee9
3e97de95
beec54fa
bfbf4991
3f87ae86
be124c2a
bedebc3a
3fc75427
3fe18c1e
3fb49f81
bf5b853b
bf4616f3
c00e7eef
3f60ec22
bd1d742a
3ef9a751
3cbdd1a6
bf23fffb
bd943776
3fcc3f66
3c6c8529
3f267103
3fd77119
be69042b
bea15c7f
be9d6c30
bf18eefb
3f0c8c62
3fadd145
3e867dab
3cdd9dec
3e70c948
bf58d003
bf74e39a
be86061e
3f902e6d
bf4edce2
bf056774
bf1ed370
3d103ccf
3f3fdcc0
be10a82c
3f1b91e7
3fbaa173
3f7f43d0
beb000cd
3fda6f8a
3e82aaaf
be65ff22
3dfb3b90
bf608ff6
3f86e6c0
bf8f5812
bfccae01
3ec85e91
bf344861
3e7685cf
3e0cc88b
beeb3cb8
3fa8ac08
3f2f90c5
bfd4cd51
3f0d2de3
3f60028e
3fe04f96
bf71ef04
3f201e06
c00350cf
bbc70c3c
3fb19b18
3f864311
3fcafdff
40289f50
bf9ee32c
bfc22b9e
bda2c523
40114bd9
be3f7744
bf300492
3ed3411c
3ed9d41f
bf382f73
bf2f9e9a
be803eb7
3f5e4dd7
bf3d44e3
bfd36303
be65babd
3fdea765
3e923400
3f03f665
bfa282aa
bf3469bc
3e1e6d25
beb3debb
c041f7b9
3f1d49c1
3ebe9ab2
3f79ecb8
bf0ddd70
3ffc2dbf
bee2a5ed
beb8ac0f
3f469543
beab9460
bda19637
3e011862
bf6e91b0
be852843
bef3bbc8
bf3a8205
3fc7bcb9
3f91a646
bfefb900
bcd2f326
bf25819b
3f10857a
bf1c8267
bfef8599
3edd1710
bf3dfee9
3f012d36
bf1f2285
bf376057
3fa9b499
3f0ffc51
3f2033fd
3edbdfcd
3f801e50
3e1637ce
3e987e41
3eb098b8
3f7e1565
3ff48c7f
3ee4ec74
3f1ccc79
3f0e0e53
bfa26564
3fb661c6
befff2bc
3ea45604
beb193af
be91a7a9
bd5f8a0a
3ec75ac5
3ee293d5
3f44b5c8
3dbbb0e9
bf979555
bf5ad88c
bec201c1
3e5112cc
bec18b81
bfa4c6cd
bf5bf262
bef417d1
bf0ad026
3fd02090
3faa1ef8
bf6f5d66
bf373dcc
bf8be242
3fb90289
3f78e100
bfeefeec
3e76cd12
3ea980be
3f5324f1
3f6db747
400a8b43
3f022e58
bde58d32
bf223721
be89ef90
bf05a095
3d02771b
3fb11358
3fadf9a9
bf092357
3fb8aeb5
bdb234c2
3f6db3f7
bf7c66a0
be916a0f
3e2d8475
be2cb2bb
3e1b584c
be8622ed
3f1fef6f
3e9d4db6
3f43cd3e
beea8074
bf77cd7a
3f8c4b00
bfb7533d
bea3a7f7
3f035223
3f9b7372
3f3190da
bf588cd6
c03be1be
bf5646bb
3e11cdb7
bf635567
3fd6e9c5
bea0902b
3f857914
bfb22a05
bf2637db
3ed7e7be
bf814abe
3f393224
3e5c5e40
3f62495e
3d63175b
3d636df1
3f9098c1
3f224fc5
401427ff
3eb034c2
3f688a20
3fb4a508
bec08c4e
bf3232fb
3f29a86b
3f6f23c7
becb7543
4029d0d9
3fefb51c
bf3a9570
3edebc55
3f5e51ef
3ee3de7c
bee18d3b
3ef3c610
3f888f60
beb8ce69
bf01a5d6
3fb5f06c
3e8ddef5
3ecc4187
401880a4
bf6ffed4
3f33e25c
3f080900
be9e8dbb
3f5857b0
3e8d2a42
3f87c83e
be8a4345
3f60ed2c
be88cd80
beb2eebe
3f4d8da2
3e3395f4
bf96ce20
400db561
bba81e98
be4250f1
bf3c17d0
bf631a25
3e54090f
bee6b224
be07b726
be9791ca
3f7fa35c
bf8d5e7b
bf1298b4
3f5c7f52
3fa39e47
bfaf7f7e
3f4c43db
bead8429
3f9444d5
bf6a2d89
3ed2ce9f
3fdcb633
bfd76841
3f0b6c1d
bf83ddbf
bedbc39a
bf949cbb
3ff628a0
bf4b070e
3f27cb0a
3f12d185
3d1504b7
be2d98b5
bf2f897b
be0eab2f
bf3533e4
bd40b677
3ef8f8a0
3f754779
bf2114fe
be01508a
be3a95d5
bfa431cc
bf9748a1
bf4a72c6
3e019277
3ff718b0
3f992fac
bfd627f4
3fa1916e
3f8abe9d
3f7c4a43
3c442109
3f447be5
beded105
be703ce9
be017a98
3f21fdc9
3f6f2a66
bd9aa5ed
bfa8e464
beb0a058
bf4753c9
bf041a7e
3efff194
3f301484
bee1b219
3f6e3eac
3d3cecd0
3e6e58c1
3ed80b87
bf5ea92e
402a61c6
3f614e10
bba4b908
bf37a0ba
bf5c5c5c
be2d0b10
3f8895fc
3fc2217e
bf672988
bf45597e
bfd59de6
bf088676
3f47559c
be5eb0a5
3f360327
be6d9d24
bf881b55
bef65994
3e31354f
bfec8586
bf7703bb
bfa9f3da
be21d18c
3e66a2e8
3f276bc3
3eba0f75
3f000914
3f9bc1f1
3f666546
3fed4e7e
3eb8099b
bd8f2012
3f5ac66f
3ecd4e4b
becd9c16
c023d2a3
bfbc0f55
3f4c4cb4
bf9aef77
bfa6621f
bf873c64
bf72c5e0
bc5457d9
bed7200c
bf5132ed
bfbb04ba
3e915a1c
be59cfbc
beaaaf02
3f312583
3f05cc4d
3eb81433
3f8ee695
bf5e7fd2
bf85f277
be9cf4fc
be902288
bfa7adf8
3d663b5e
3f3f4d25
3e6d1d13
bde3e1df
bf2b5b8a
3ffaa875
3f40f038
bf234c89
3fda478f
bf095ed0
bf060e75
bf1acd43
3e82a977
bf063af6
3f871edf
3f866486
3d7ff703
3f142521
3e9cbabe
3f33bcea
3f0f7a3e
3efa34a0
bf5d5167
3fc1340c
3f14c117
3ea4badc
3f21a947
bdf702ff
3f4cb508
3f298e54
3f9d8b29
3de5be73
3fc41f69
bdc9cd22
beaa6577
3f12026d
3fb15848
3f9768ba
3ef38a7b
bed20d55
3edcdf63
bf09ce2b
bda57be7
bfa0b9f8
bf8668b1
3f4dcd07
bfabde11
3fbdcb42
3fc96bec
bfb7678a
3eb5ae0e
3f4c7cb8
3f2934f0
bf12c792
bfe49704
bf8ee475
bf0085d5
3dbbcf93
bf7ee187
3f1459fa
400f6618
3f4a5aa8
3fb0c189
bda2897e
bf8a4bcd
3f2a3d60
bf35725f
be1fad9c
bf77e5df
bee0d0f7
3f68de91
becb4f74
3cee1f6d
bf7f3e15
3e80429f
3fd7b355
bf17dce1
3f0cb614
bfa0c58e
bff184d6
bf0a3b32
bfc27c7d
be739f9a
3f6fc5fb
bf494c0e
3ed42c65
bfde9aff
be0069dc
3f201d36
3f58bd6d
becf5cec
c02a898f
3e7ee995
3f862125
bed13faf
3cc730d4
be92fd31
bf7bd285
bef2bcab
3f025a33
3fe1a9f4
bfe6f0d7
3f93fe25
3f17880a
3e84ae1d
bfb967a9
beccb7bf
3fca5a65
be619231
beb72acc
3dc8f861
bd062783
3eb85a47
bf60872d
be890f5c
bfb43fa0
3f3483db
3f86adcd
3df06277
3f05dada
bf72838d
3d9229c4
bf047c09
bfa6715b
bf232198
bfab3abd
3f22aaaa
bfc593ae
3fcb2424
3f558632
3f7372e7
3eabf753
bf1f2086
bf27d8ce
bea81945
bedd7a58
bf555451
3e9e6c12
3f4a3b6d
3f5db7c3
bf22de01
3f1133ce
bf41dbb4
3e3b5c95
40135fb1
bdfc2bab
bea400a1
3f80d9af
3fb57598
bfbc9616
be74b2d4
3e5d7dba
3e0db853
3e1c07b7
be7fee3c
be3cca8f
3f2e4545
400286be
bfdbd839
bce1244b
3f24f02a
be1cc938
3f5e3ab6
bfb52aa8
bf6532c2
400550c2
3e8f4329
bf4b8e59
bf62c56d
3ef7a962
3f5d4323
bf0eecb6
beafb9d1
bf34555b
bf388b7f
bf9b8edc
c01da520
becc6b4d
bf80c27c
bea304e5
bcb57a3f
3f29b39d
3e5568e6
bd24c758
3f3dfad9
bfe6d615
bf8fadff
3e661cf5
3ea19dd2
3f00ae0a
bffa9805
be9b603f
bf8f267a
c0027fbf
bf80526f
be9f6cb3
bf470951
3fa477ae
bfd872f2
bfff4e1e
bf2f9bc7
3d36aa98
3f6d8844
3eb2ebee
bef9cdf2
3f834710
bf8d7b11
bf7c6713
bed853cc
c01a216f
be8d4d29
bf6f6d8b
bf1e96c0
c02e04c3
bf052ba4
beff94ae
3f75087e
3f8703da
bfbbcddc
3ec3199a
c00d8e5e
402a35fe
3f77dda3
bf31a0aa
3f2cc5f1
3fb315c4
3f75a3ce
3dc67318
bf0f695c
beff7731
c012db20
be9ee052
bf20542f
3cb9ee9a
3f8b25ed
bf22c81b
3fc40c0d
bebfc82f
bf276a06
3e61b8dc
3de062d0
3d544182
bf346063
3f07322a
bf5beccf
3f2cc779
3ec2a449
bd915151
3fed3b57
3fa8d33f
bfe64609
bff481b8
bf14efa1
bf622142
bfef9d39
bf68251e
bf02d513
bf956c2f
3ee03fcc
3f9a1d71
bfab9616
bfcc3a12
3cac9213
bf7f6cb0
bfb3ca9f
bf9141e3
3f7776d8
3c8dd53a
bf9691e5
be9eee19
bebb8195
bfe06ae0
bf7746b8
3ecc320c
bf2d863e
3ebe12ff
bf7d9dd4
3faab7e7
bf837373
bfbd8189
3dcd169e
3e6ad6e6
bed9af59
bd058cf1
3f9d27c7
be1cec70
be1cc944
3ef7946f
bfc18d9c
bf012f9c
3e1822a0
bf2b8f2d
be411ff0
3e9ee118
beb4750e
40179456
be9887e0
bf4a85ed
3eaa09f7
be44711e
bee5f84a
3e5b9da2
3ee19e3c
bd35f971
bf17beed
3f808368
bd82e13f
3f300235
be74945d
3ecc14f6
bf77bfc8
be93304a
3e8e969b
bf2d3d7a
bed1f05c
3db2e0c9
3f195ddc
3fbb3f81
bf3b80b5
bf9429da
3e7061d5
3e928f3e
bfe5a46d
be3a246e
3f4877d2
3fe7b931
3f1883c3
bec5f0d4
be8d673e
3fb40860
c010be31
be5ece89
3fba56a6
3dcfc327
bdd6008b
3db03a90
bf5d7a53
3f933199
3f88368c
3f6efcef
be276895
3f22b420
beaec5ef
3f489ee2
400c6488
bf8c38c2
bef8d491
be909053
3fbdd53a
bec92c4e
c0406bb1
3fd53cee
400299ab
3e493066
3ff0bd63
bed37a14
bfa539b0
bf5200d8
bf57f1c3
3f3d614f
be9079ea
bd479207
3e900c68
3e8cdea5
400b9fdd
bfdb5139
3fb1f32d
3f1840f9
3f9a7e0d
3c8241cd
3f8f23d9
bfae0747
3fe5e5f0
bfbee2ca
3c9c7ff9
3f40fe36
be02ca99
be68bc19
bf9c40da
bfc16b8b
3fd25132
bf60a5f3
3faec970
bee705d5
bfae8ba8
bf306466
bf0c5cfa
3e5ce142
bfeefd42
3f684558
bed9a528
bfa74143
bf89038c
3e5fb206
3eea4b2e
bec69806
bf0a0318
bff71649
3ee08f3a
3ed1dcc6
3fcc7468
3e85614b
3fb89e7c
3ee0814b
3f44cb48
bf523b81
bf3e591c
3fac6a47
bf2b84ae
bf397a77
bf3ecde5
3fb4238e
3f91983f
bf88e777
3eaf9c7a
3fbdbc4e
3fd9a4b2
3faa12fd
c028f74e
be65bc7e
be609ead
3f9eeb4a
bf0eafb0
bef3644a
3fb2768d
3e859643
3ebe4180
be3119c4
be2fa14f
bfe58933
bf657973
3f28b9fd
40131b51
3f12264d
3f0f93fd
3fd18762
3e1f593d
3ea2c664
3e894687
bfb9d7d9
3fdc39a2
3f3e6ad9
3ec53cf5
beca8bd7
3f3b4ef6
3f5abc9c
bee7872c
3f13d6c1
bf5a6a14
400ee445
bf5b0135
3f0f374a
3f3664d6
3fe27605
beb406da
3ededfea
3fc3a3aa
3ee29e77
3fac8637
bf9158c3
be1fb135
3faae193
3f86d2b3
be4320a2
3e82eae2
bf12df5e
be5ab2af
3f27582b
3fc46b32
3f0b1aef
be5fe8a6
bf83282f
3d8fdc2a
bfa88512
bcf9e5bf
bf575403
3eaa1a61
3f064519
3e6d6235
be790f1b
bef6113b
bf89ed69
bea703f8
3fadfa0f
be34e7a3
3f108e5e
3f9a1a0d
c02f6ab7
3fc203ec
3ec0bac0
bf1bba48
bf8f939b
3fb3fb5b
3f0106a1
bf8a065b
3f9f87c8
3f9dd2aa
bfcac479
3e9ab3df
3ea188b5
3f5327c5
bf00d166
3eba1b37
be604c8a
3fc82a9e
bc764a1b
3f98a64f
bf50f080
3f331dbe
bf42d513
c001a4c2
3f12c95f
bf27728c
beed1058
3e888957
3ffe8514
be844f0e
3d53fb71
3f03fe48
3fd53a3a
bff4fa8e
c003ff54
3f93975b
bdf0a77f
3f0fdd0e
3a73ccd6
3fbb8dce
3f15b1ef
3eb2b859
3e990c1c
c02f5617
3f43ff7f
bf15a895
3f92bfc2
3f2e9f84
3b1e4498
bee1abe8
be613af2
be9fce22
3ef3d781
3f8612fc
3dc0ac70
bf0c4fd4
c02c7671
3fd60f1c
bf84e86c
bd257af5
bfd89c3e
bffee1b7
bf962942
bf73ad40
bf654b32
3ea50075
3fd012f5
bfedf70b
3f7fceee
3e0bba8e
beb3c97f
c016dd27
bfee2d6d
3f78c55e
bf63801c
bf93f95b
bf884dd1
3fb2f2c2
bf8e8ded
3faa975d
3db78b91
be8661e6
bf869e9f
3fea4ffa
3f1bd9e0
3fc0e2e7
bf27eb6c
bfcac825
3e8e4996
3fc4fee5
40264ae2
bf9cadba
3f813b6a
bfda88e9
3fcedf0c
bde97ea4
bf0661b2
3e300533
3e814cf8
bd4657fa
bfd04013
3e85b714
3fc90fe2
3d5ffe57
3f9cf001
bf0cd76e
3f1963c1
3fa8190e
3fb3aa72
3f25d32e
3ff69615
bf1b812b
be0dcade
be46ea4b
3f6ab0ba
beb5c514
3ff45bd3
bf3e793e
3ef14c62
3f925195
bf98c0f9
3fac523d
be76951c
bfc5fbdd
3d824ee5
be55b226
bf3e1139
be3d1bb8
bfa83dfc
3fb5db85
3e505d44
bdc70af8
3e63fd30
be5deeb5
c03571a6
bec072f8
bfa6023f
3f49add0
401c8a66
3f433a08
3f3b810c
bf1f1999
bf4ec517
3f433af7
3ed1defb
3f7ca38d
be0534d8
bf54b2ae
3e98cf71
3f2d9da9
bf955c15
bf2331f3
be957392
bf457e04
3f813969
3f46ff3e
bfb3f890
3cf79715
3e670231
bfb67181
3dae9ca1
bf2e85ec
beeaa54e
bf433a84
bf69a494
bed4bc38
bfc86454
3ce3771d
be6481b0
3e0c5454
bf3e6191
bf1e0d87
3eeba1a7
3ebbfea2
bfa1d4ed
bf35cee5
bf5ae62a
3e46d9a3
3f1e44b4
3e5fbd49
3f841e05
3f0f9b1d
3ec1b600
3ec2fbc5
bf15f683
3e6891f1
3fcbad7b
bf866091
bf94aebe
bfa65361
4000b803
3f94140a
3fa1e720
bf1b4875
bfed8c14
3fd1fb55
3e84d2f5
bf70b935
3f42bae3
be86bea2
bf3b3d91
3ed3a47c
3f66655a
3fd44b4d
3dca8517
bee0a501
3f2b4db1
3fb61ee9
3f7e93a5
be6f4176
bf1ea229
bfb3d4e9
3fb7b820
bf636d05
bf747954
bf9c90b6
3f3778fb
bde151b3
bf12cbb5
be2496ed
bebaa0ac
3f992b57
3f4e5dc7
3f3c9a02
beedc754
bf4387e9
3f774983
bf74fce9
bf0d550f
3e30f460
bfd13d02
3e8352bd
be0dd33e
c0342d43
3f3feb67
bd603cb8
3f00a102
bed5a949
3fa01917
bee004b0
befe4be3
3f4d99db
bfc3b69f
3fb87a75
bf9d0bfe
bcdd7e12
3d191d7f
bf08393e
3f7ae70b
bf4429d7
400e1524
3d4d6c4b
bed30e0b
3de7f45c
3ef8e817
3f115baf
be573025
3ef725a3
be48ed06
beb5d5ed
bf9fdcba
3f5bfe07
be8b9350
c0139005
be856b37
3ea1741b
bf11ae09
3f0c2eb9
bf93f6e3
3fdb4be1
3fa02134
3d9560d6
3eacebb1
3f4e1081
bed33564
3fbe0be6
3f31c18c
bf3ce345
bfb0ba50
be6cd12b
bf19475e
bd10610f
3f1c1bd7
bfbda601
bf375b98
bfca9ae7
3e8b1d06
bd27d2b4
bee34050
3f75bc06
be0aafd5
3f31c9c7
3ee3246d
bf68c026
3dffdd2f
bfd5e7a1
beeb5b8a
3fa81595
3f4718c4
3ed723db
bd9998da
bfa8314d
bf4355ad
be843b03
bf82ebdc
bf5e7ceb
3e6edc55
3dc30a47
bf09aa48
c02a2aac
3e9317b4
3ebb4f0b
bf88711b
3f7a4d18
3e1e2e51
bf1939dc
bf62e016
3faf84e0
3e27b65c
be99a7d3
bfaf6193
3ebc22b7
bf9c196d
3e81bec6
bf331a57
3fa23148
bf71267c
bf08595d
bf65fb16
3f387b34
3d9edbfc
3f356eff
3e96cdaa
bee98a6b
3e1608c9
3dad66f1
bf2f549a
3f0d7c06
3f4821d8
bddbaeb5
3f9daebc
c012255e
bdff6d67
3fbd359a
be9a37b3
bef016fc
3f6942ad
bea0a22e
3e97ba65
3f986235
3fb824ec
bf3c5077
be95b06a
be745d5b
be4d3598
3eae58de
3fa7b1f8
3f16fdae
401a6c4d
bf4493f7
bfd0509c
3f20d1fb
bf97f73e
bf95033f
be5ae31d
bf928b5e
3f2b3de3
bf2946e4
bf5f543e
3f1fe6a5
bf12ecfb
bfe895d7
beacad9e
bf6a902c
bf80ca6e
bf6e4d12
3e40d5b8
be4615ad
bf6e7cd9
bdc03b94
3fb7cc06
bfb76909
3fdcaf10
3e8c4526
3f81a570
3f836591
bedb488a
3ee9b4a7
bf9f922d
3fe35fc3
bf7fb0d8
bf85207f
bfb7b710
bebfba0a
beeeb940
bd42d92c
bf4cb5ba
bc741bff
bf080353
be91b5e5
3f9ea7fd
3e96f878
3fc9bb88
bf838335
bf6af8dc
3f5ac134
3e68c09a
bea06850
3f90c88f
bd1efe20
3fa222d2
3e9e3067
bff032ea
3ef3a9c3
3ebb5f87
3e8b9dd8
beee560d
3fdd2a26
bf78650f
3ff64d9d
3e003e34
3db49307
bf9e863b
bf30b7ad
bf43c4ca
c0021a67
3f440bd2
c0162366
bf7bc70f
402aba0a
bf358802
3ea4824d
3ea859fd
bf65ef15
3f4b0a0e
3f798eb7
3ff78cbe
3da96e6e
bd6635fa
3f205689
bf517d8f
bfbaa314
3e3fedc1
bf1bdac1
3e985b03
bf99ac17
4004a539
3ffe2d80
be9ccb2d
3f4067a7
be378a8f
bf910ad1
be2b564e
3eefafa9
3ff29524
3db3181e
bf053e7c
be08f28d
3f668e8c
3fa9adaf
3f04b159
bfc3c40f
bed67a0b
bdfdeb79
3f0311db
bf44f995
3fabeb94
3e996580
3f975629
bfa29e7c
bf41bf1a
bfc19157
bf2a8161
3f446bbd
3f735607
3fd4baf9
3c8d5c9d
3e03efa7
be7cacf8
3efa9e46
bf4062b8
3f95d7f4
bf9287ba
3e5cddea
bfbe96c2
bfa0fb51
bdddf9a5
3e790274
be31b861
be397da7
3ee73553
3e842718
3e48ecc1
bee85e4c
3fad6cef
3faa9759
bd946071
bf42d878
3f5a0531
bf2307b7
be6cd754
bf2bdfed
3e966ba1
3f87ced9
bfa8d665
be980663
bee8fa8c
bf6ca235
3eeebef7
3fbdb7c3
bebc3fc3
bf99e280
3ed6c911
befb5d6b
3eaa4427
bfd1497c
bf3a030f
3f89f3dd
be9ffc64
3e002341
bdb4d815
3f459b94
be4d8912
3fba151d
bf64ed83
bdfc24e6
3f8d39f1
3eb88d3c
bf7dfc7a
3f0f7b8b
3ecb3329
3f029a94
be13e168
bfb1301d
bf932ff7
bff7cbc4
bd9168a3
3e0e40e5
3f9a7147
bf05988a
3e44720d
bed09ca8
bf949075
3fb0a618
bf2b635f
bf4b69c4
be7fa4bf
bf91e21d
3e7c2831
3f67ac32
bf79cbe4
bf0787cc
bfb4e6f0
4014d68c
3f6f9a37
c013bb64
be82098f
3e9ca41b
3fad6f8f
3f745e5c
3f17c255
3ee25d87
3f0083d9
beb446ee
3f8716bb
c01bfb14
be621957
3fb8182c
3e4a8fee
be97d3f8
bf15786e
bf8625c1
bea06377
40114f1a
bf724c09
bf719df1
3f0d36b7
3fa6fa03
3fcdea2a
bf96a5b1
400a5587
3fa20b32
3f9926c3
bca2786a
3fb378dd
3f9f24e0
bf3c2ad2
c001ec5f
3f1db717
3f9e5a25
3f8429bf
3e9056bb
3f7e83e8
bf67f751
bf904996
3f7efa74
3e8b74a9
bf0cc9ff
bf0ade29
be8f49ae
3fb0c139
bf48473c
3f4f51e2
bf8bb551
bedd0f09
bd8291dc
3f1d2aa4
3f5cb901
bed328e8
3f420d00
3e8f8688
bfa4b601
bcf2b643
3f028a81
bf1dcaf2
bf93082b
bf8609a5
3c959e5b
bf362c25
bf5239fc
3ebd5f5b
3f5b7f9a
3ea316b8
3eaf2819
3d711ec9
3d8efd9c
bf81f6ca
bf501709
beb39b2b
bfd9269c
3f4f3b95
bf93ab65
be4375a9
3dd2d74f
bf06d11e
bf211636
3f1c0ffd
3ed7eb88
3f4ad187
3fa0aeaf
c035b3ab
3ecc6e29
beef20e9
bef57b86
be9d2307
3f618f68
3ea46e1c
39d071f5
bebdbaae
bf250b06
be3efa63
3fa21915
3f15c5ea
bf6d8013
3f8032aa
bf0c530e
3ea8cd43
bcce9c7d
3df51b75
bcd3d731
bea3f178
becf983f
3f997785
be6fa8ed
bf8bad3c
3f093262
3ecbfbb4
bfca47d1
3f5fe5fd
bf103bc1
3f0112b6
3eab9f4d
bf3371b7
3fa1380f
bea0a40f
3ef3f553
be4ed115
be9aa916
be425f38
bea53314
3f9bada4
3e9a494c
bdf552ef
bf1efac7
40196afe
3f1e0fab
bf62693e
3fa47a57
3ecf3fc3
3f85287d
bd07ca35
3f0ae1de
bf113b32
3f65f7fd
3f7fb136
bf0e236a
bfead18c
3f6d0075
bd436640
400e1d28
3fdfe1da
bf8f902b
be4da4b7
bf05d99d
3fc577cc
bfdaffe2
bf2ec771
be8b4b9d
bf44d2db
bedf8420
bf8bb705
bdbd1247
3f95b7a3
3e21a3ea
be88af56
3ec72684
bfed9cbd
bf56f92d
3f8969f3
bff9573a
bfbae0aa
c0175e8c
3f288469
bea89c35
3ee14ca5
3effcffd
bf8842d5
bf31fe99
3f978504
bf835b6e
bc0fa616
be4452dc
be04c518
3d481c5b
bf9c9ac7
bdd2f01f
bcd407b9
bf55aa18
bfc50a77
3fb5c494
3f15f752
bffa16cb
3f1f82ac
bf1e0778
befa8db8
3fb3f36a
3d9b15c2
bfd1eeb5
bfa9793f
3ccc74cf
3f3e47d6
bee0587d
3f0ca6de
bf8d4a29
bf86a807
bf991ccc
3f07cb31
bf1f2497
bf2171aa
3f29bd20
3c9d3678
bf6a40a6
3ec1c614
3fa3a7bc
bf010636
3eada8da
bf78dfea
3fb5c551
3ffbb473
bf1bfad9
bfd0d1c8
be8c81ad
3b60331a
bea2992f
bd411383
3f0a4511
3f514f62
3e797b72
bf0abd57
3f691618
3ec91356
3ecdef3d
3e92cd04
3ed4a0e6
3f0e3f38
400a16f9
bf4939bc
3ff7d287
bfb5ae1b
3f901631
3f246ba3
3c34bbc4
bf5a3d66
bebef856
3ee57740
bfa017e7
3f9f63e1
be1991d3
3f8cf5db
3fbabbd7
3efa5804
3fb13975
3ef22ef9
3efb765b
be012a23
3ff59b0b
bf74e22d
3febe6b3
3f81b3ea
3faf7387
3f1ed958
3fa44f0c
bf8cee6c
c007cdfb
3f0c047a
bf29b9d9
bdbc28a8
3ea6bf3f
bf5664b7
3ecff5ff
bccf2255
bf1727b6
3f36f926
bf888941
3f50b0c3
bf2bfdcd
3f356bbc
bfa25e57
be54a6a2
3e77943e
3f7b1368
be6355a9
3f6f8334
be562a83
3fa7817e
bf4a0ef4
3f8df0fa
3e10dc67
3f590d20
3db0bbb1
be362feb
3ea11af2
be0e5dc2
3e3cbd52
bf9fe13b
3f71f8a3
bec4aba4
bf0e3235
3f899799
3f94a254
3f22ce93
bf74b358
bfe5ea87
bf5d01ab
bff16fe5
3f77acd2
be3a88ab
becaeda4
3f43569d
3f813925
3e2d9ecc
3e65bb20
bee5b932
3f3f2607
beb3dc0a
3eb8d4bd
bf431db1
bff68886
3f4ccef9
3fa96e52
bf421ab1
3b23c4c5
3edd2347
3fb2266b
3fb685da
bf6d0392
3ec3685d
3e81b6af
3f831391
bfe7b279
be8b6ab3
3ea74391
3f578fb3
bf2d7f9d
bf03f2dd
bedbdf08
c003c01c
3fab2af6
3f813c9c
bf5e8b19
be38350c
bf57a43f
beca2e98
bf7fcaea
bf90c7e6
3fd0ba31
be73a4be
bfcae7fc
3ef56a0c
3fbc26da
3f87618c
3e52bd01
bf6ea88e
3f39b86d
bf98da93
bf634362
3fc8f67e
3f5d4c26
3f023395
bf8997ff
bf7fde00
be9e78cc
bf20fe34
beda840f
bf2d8ea5
3eae6f4e
3fbca519
3f84964c
3fdf7587
3f915ee7
3f1fc3d3
bde88a87
3f93c89d
bf3ab4c3
bf224428
3ef405ba
3fe5207d
bfa206b5
bd4ab451
40650752
3eaa3e53
3f57fb28
bd1e51ae
3dd5690b
3f506a0e
be952e5e
bfa2eec8
beb3ba2d
3f270614
3f073783
3fd98b25
bf3f7746
3f0f00e0
3fac541b
c011401b
bf8f90e8
3fb8bf8b
3e7fa314
3d6342f9
be918280
3f3edb05
3e00f6db
beca2f09
3fe7f16c
3e072dee
3e7730e9
bd50fbeb
3fbf2437
3f2804ac
bfd0ef78
bfafd01c
3de38f3b
bf150589
bf81256d
400cb603
beea408e
be644000
bd9fd10d
bf3d672d
3f5a76d3
3f4761ff
bf3b2f7d
bcdd3500
bf329bb8
bf962937
bead8a1f
bed20069
4011b0e7
3f25ff68
400747b0
3f3aa1ec
c009292b
bf24ef7d
3eb49a96
3fe552e5
bf589aa8
bf89c599
bcc89a8c
3f29ec07
3f13c233
3e8ea5b7
bf5cb889
3d7fc36b
3df6e77b
3f99d051
3f9aee85
bef4bf95
3f20fae5
bf81c5a0
bf577a3f
bca6667a
bfa02265
3e282c13
bf2b79d7
401d2c35
3e7b05c8
bf9b9b6e
3d920ea9
bfb3a9f9
bf6c90a1
c014896c
3f539231
3f4b7d53
bf39f87f
be532e22
bee3b2b8
3f9f423c
c00d9a3c
bd81b429
3e3e75d9
3ec735e9
bf87c070
3f40ae7f
be370bda
bd582f1f
3d666830
3f7fbcca
bf1eb2ce
3e06fd4f
3e18f0a7
3f1f22af
3e853755
3fa8a5c1
bf0c1604
bf5be189
bf8cae9a
402d0bb4
3dff83b7
bed18307
bfb2dcdc
bf304b28
bf69efa2
3fed0186
bf326d96
3dc639a0
bf769b99
c000d64f
40126966
bebda78d
3f177066
3f9b245d
bf4ec21a
bfe325d7
3ee0c802
3feb2a1a
3ebb1425
bf4cb0b6
3f4f8247
bec92d2d
bfbb3bdb
bf3bbc7f
401e3716
bf29489c
beafbbe5
3fa20ce4
be9572eb
3fc30dd6
bea1dcff
bf528b45
bf64ba17
bf560cf0
3f01c6fd
3f4bbd47
3f82d41f
bf78aa4b
3fb49d27
bebae8b6
bc8e2563
bd7cfa3f
bebbfe22
bf0c5e66
3f87c9db
3e9ab107
be698e51
bfd7242c
bf4a9c79
3fc246be
3ec45ceb
beca2517
bebaaf8e
3effb084
3e7f0b8a
3baab5d7
bf984ea2
4010ebe8
bfe561ac
bf7de0db
bf8fa787
3f0ef9ae
bf445943
3f30a769
3fb384cc
3f32ff5a
3f01e25b
3f02a432
be773425
3e848909
bf868777
3df1f89e
3f916031
bff28e57
bf9fc357
3f76e2b6
3e375c8d
3f9c4fae
bd299c65
bf843932
3ee41256
3ca320c8
3f876bea
bfc0b053
3f593b6c
bfb47a10
4018c820
3f373f40
3f93234a
3dd90fd9
3f80ffdb
bf2fe95f
bf0b4c4b
3f4ffc10
3e98f501
bf0020f2
40268988
3ec46459
3e6fe005
be45daff
bf3a0831
bfa952ad
3fc8240f
be86600e
3f68d678
3e7dd8a6
3f6dc38e
3fff4037
3f7fb696
3f5f6463
400726f5
bfe85863
3f708956
bdd653c7
3fc9a4c1
bdb177f0
bf6f1b7b
be85904a
3fe30932
3f8275fe
3f712f7c
3b9d8fe8
bf436807
3ff737e9
bf7a8c15
3ee304fa
3f999e9e
3f0b0308
c0094716
bd8eb224
3db5a4ff
3f36ed04
3f9a5e86
bfe5fa42
3f556203
3dd07eb7
3f99ac8d
bf55ffef
bec5658f
bf837e37
3f03960d
3f54fdad
bf2449c6
bf58374a
3fae281a
bf74472d
3ea1bd83
bee522f9
bea9a0c3
3f1e0476
bd8ecd3e
c021e839
3de26928
bf1f51c6
bf8098fe
beb0bd15
bd993161
3dc88d50
bebd414b
3e847325
bf2cf31d
bfb8dba9
3d92ecc8
3f7deac0
3e286742
3e799bd8
3f3acd65
3ea491de
bf9d9fd6
bf6b2232
bd2042a1
bf23cd27
3f190977
bf0a81fd
bf79ffbe
401c87f3
c009757d
bf4d779f
3fada9dc
3ee3ae84
3f0fde4e
3f71159b
3f2bb96c
bfbbb783
3ef454fa
bd59030a
be2c0794
3ef56270
be841e98
3ee986ad
c027919e
bf8110a5
bf384106
4016ed46
3ef49fed
bf3ddc70
3d596f1e
3f2ff4ab
bfd3dd93
bed32772
3f84553a
3f96de00
3ee82e61
bf58852e
3f46f54c
3f9a0e20
be78fbb6
3e079225
becab0c9
bff6e2c0
3fa981ec
bf9bd661
bd9047a9
bfadeab1
bf7e3d9d
3f3b5b3f
3fcd4acb
c00d2c8f
3c6bd883
be90b14c
bfaae4de
be69132c
bf185a7b
3ecc1e50
3e96495a
3f8e942e
bfda3a45
3dfecaa7
c001f8fb
3f51050f
3f1eade0
bf0e3672
bfabdca5
3ee9ec04
3ecc7cc5
3ee7f65e
bf64f5d0
3f32adfc
3f6ca732
beb61ed7
bf539776
be3f40c3
bfaafdcb
bfed398f
be52aa64
3e263cbb
4026b9fa
3f6b069a
beb645d4
be088bbf
bf815e81
bf4b5744
bf278525
3f81f115
bf402122
bff74136
3f5c55ae
be49b7a5
bfbee683
bd878e64
bf2f6c26
bf280d5c
be0a6ff3
bec5dd62
befa28f1
3f930b5a
3f842281
3e55626a
3d42cb1e
3fc469a6
3e02c4ed
3f7a984d
3f767b32
3e08cbf1
be22c583
bf31c922
3f03a756
3fbfa539
bf248c5e
bd1c5beb
bf3471d4
bf162cff
3d9b3339
3ff3e33c
3e83c3fa
3fc6aee8
3f0d7fa2
3dbe620f
3ea7c367
be9b2f7e
c00eccdc
beb5b925
3f0b0293
3f7d0e57
bf818309
bea5599e
bf5d56b1
3f1e1588
3ef71cc4
3e87a6f7
be61e8b8
bdf900c0
3e78d937
3f72c786
3d2a5cf1
be81b6e5
3eb20f5c
be63e855
bf79e217
3efcd89f
3feb88c8
bfafa93b
3f58e3bc
3c59c0e3
3f0250d0
bff8e12b
bf2f7ad4
3f67c198
3f5a2f6f
3b58e1a1
3ce8ae8d
bef5e4e0
3f1735b6
bebdd05f
3f923ffe
bf565656
3f7ee89c
3f868783
be80cb7e
bed952ee
3f8e78dc
bdd2d078
3f167210
3f11c1ed
bbd48e74
4004af80
3e0a1381
bf35f311
3eee9224
be0e200d
4010bd59
bf3a68cf
be33ac6c
bec51e4c
bfa3a3d2
bfd86466
3f8235ed
bde47f6f
3f6db1c4
3fa4d7d0
be8304f4
be856ae6
bf45506a
be540f0e
bef5b48a
bf185a89
3f400547
402fd92b
bf83da6c
beb99a44
3fae2d63
3f10ac8c
3fabc005
bf8462e5
3f22bb9d
bf2465e0
3f4f0272
bfe9074d
bd1bf6be
40022228
3e8b211b
3e8900c1
bfb7588c
3faf279e
3fb38725
3e9368a5
be1de2a0
3de9218c
bcd29856
3f41222d
bf4ac77c
3f23e376
3f931215
bfa502a4
be2280dd
3e8107be
bf78208e
4011b14b
3fbba84f
3f3aef62
3fa2f64a
3f79cf72
be1899f7
3ff0b006
3f38bf45
bf7256b1
bf79f0fd
3f4edfae
bf15bff8
be9d5884
bf053e0b
bff1332b
bfd5cf8b
3f2752ab
3f33a793
befc22b5
bf0ed975
3e551dc2
bf6c36e9
3e2e8537
bfa88cce
3f91f6d6
befd902e
3f3108dd
3e2e086b
3f35a921
3fb5d29d
bf718fb2
3f2b0a6c
bfe1c286
3f04a9fa
bcaac3ef
bfa207c6
3f1586df
3f2dc0cd
3f79a66a
3dd3402f
3e43dab1
bf47e9be
bf5c676e
bfd33c27
bfb8b8af
3eb2c0a0
3ea7cf97
3f1cf2f5
3fc173b9
3eccb6a1
bf3f7fb0
bf5b0569
bf458f24
3f1a10c5
4005b8d7
3ed11460
3f0cccd1
bf1611e8
3f3f773f
3f5b45d3
3fe49ad0
3f2d6f77
3f72f015
3e623651
3fca0ede
bf5b671c
3fb26a7d
beb3f2e2
bee0bcef
3efebcdc
bf784757
3e9e2e7f
bfc252dc
3ddc07b2
be295623
3e81835e
bfcddf4c
3fbb683e
bf7cc4a0
beda04b2
bf54b079
be64ffce
3f5039dd
c008e367
3e31572c
3fdd2051
bebeb4a0
400c3a15
3efd3436
be1e2a62
bd8c7784
3fc61e6b
be606490
3f43cfe3
3dbf3aea
be75bff4
bf873264
bf9ef966
bf41d7f9
3f3ec8dc
bed5a5ef
3d2e58bc
3ddb2dd1
400d7249
bee4e145
c046b8f0
3eb0d55e
3f2b4839
3fe4b1e8
becddeb5
bf71555a
bf6c8909
be97f5a0
3e6ef01a
bca11614
becf5ac1
bf852586
beb64c3c
3d70c93b
bdf5ebf8
bf88bcce
bdacce4b
3df2c4f9
bf1447dc
3e750161
3e38a0a1
bf46a7e0
bf519496
3fb10e61
bff587c8
bf5f1253
3f88f21b
bfc2c1ff
3d585766
bf846f88
3f89a4c6
405eca12
c00ad6da
3dedeac5
3fa43ffa
3f7d4931
bef9682f
bfb8e2a7
bed6f2f6
3fae34c5
4004fe53
bf7133f4
be55ee67
bf19f4d5
3e34d17e
3d9cf0a8
bccd26e1
bf751874
c0146d0b
bec29aea
be641567
be8b9770
3ebb1c2f
bd0cca4e
3fa080e8
bea338e9
3ea2be7e
3f987541
3f7ec4e4
bff0cee1
3e220ade
bfe6ea62
3eb26d85
bfea7036
bf735153
3f6adaf6
c0263cd0
3fb504d5
bf0dd850
3fae9f3f
3fbad88c
bf5546c3
bf3cee6c
401cb19c
bfe9d77a
bf24d059
bef3579d
be2c2579
bf29b9b0
3ea8b4f1
bf24308f
bfb30044
bf2358b5
3f64d5ce
bf582822
3f95f855
3f79f35f
3f3598a9
3e7b518d
3e5a35de
bf925ebf
3e7ccd93
beb0bc70
3f93d42c
beb68920
bf55c6e7
bf6d6b56
bf64c66a
bf1f0931
bf02c490
bf99c05b
3e17ccce
3f80e609
3e7f2805
3f9619b7
c0070d12
bcf53ea3
bf2c9016
3f9abf3c
bf09f843
3f831266
bf7b7ebb
bf3bf623
3fc4ea71
3fc48088
3f32fbb5
c01d0005
bf563a1a
bf008495
bf147584
3f565e1f
3f5b304a
3ead519a
bf1f034f
3f4afd1d
c001ed3c
be41d2e2
3fd4be3e
3fa38748
bfe0c0a7
bfd3f2d0
3fe46e3f
c00b7301
c00b4da7
3d21038a
3decd845
bf010374
3f9d8898
3f9553ea
bf077103
bf3f8fc4
be2aaa9b
bfa2a71d
be4f2413
3e15cfce
be5205cd
be54434c
3dc7970e
bf45309d
3fbd9542
3f9c7eca
3f23c863
3e1d0ffe
3fa93fd0
bbad31b1
3f75755c
3f1f9d56
3f0bfd70
bf2af1d4
bf3e954b
3fca13f1
bff7a317
3f487580
3ebab490
40512f51
bfcfa657
3f33b2bf
3fb29a28
3d8da2dc
bf11099c
3d9166e9
bfdb1981
3eff7e7d
3f2da6dd
3e4cf032
3f92c8de
bf9c986e
c00ac26f
3e0d3147
3e988ff1
3ead9b3a
bd721b45
3ef0fdc5
bfe523a4
3ed2bec7
3f0ca551
3f5975d0
bfd9ff4b
bfaae4f8
3e4c3589
bdc35d17
bfa5725f
3f3a8790
bdf84072
bf2d0980
3e8ed57a
bca5f433
3fb25399
bfb0ac3c
3e037720
3e4f01a8
c006f0a0
bf8f7d8a
3ebf3df8
3fd226ed
bf927398
bf4a4f56
bedddde4
beb396c6
3f112266
3ea3a8a9
3fac21b9
bfc3e418
bec0eb4a
c01a6651
3f92a18a
3f9b2818
bf5ff837
be416efd
3cdf130a
befd0225
3ef4da38
bf3469ee
3f204162
3f1764a0
3f23c25b
bf466ed5
3fd7f1f9
bebb0446
3f02ce6f
bf3a8b07
bf28bcfa
3ee10b94
3cf04cfc
be0775fb
be9cfb5e
3eb59b8f
be906766
bf90e489
bfbd6035
bf035239
3fdff1c7
bf8d0aa8
bfaf88eb
3f27d17e
3e9b4914
3edd1588
3f8a6426
bf7944c1
3f99cee1
bd94e257
3e9d2adb
bf0fb28b
be661393
3e71b399
3e05aead
bc6cc07f
bfbaf2fe
bf954817
3e0442ff
3eaedb16
bef4c6fa
be21c7b0
bdbb3598
bf9ff001
3f045abf
3eaaf393
40185c1a
3fcfd89a
be917eaa
3e8b3e68
bf1faeab
bf24de4a
3f46d7f5
3e8b6751
be980741
3f2048f6
bf964ae5
3fb17aaf
3f8f56a8
3e0713b8
c013d22d
3f12cda6
bebb1088
be39f02f
3fbadba0
3f37b0f6
3e1dfe9b
3f7f87d6
bdc4d8c4
3fb85e65
bebc5c4e
bf9c2c9c
beb11099
3f28b6ba
3e490a7b
bf996570
3f7e3ea9
bf68fc60
3f9376a8
bef6a36e
bf99127a
3c4d84eb
bf1a9628
bfb2c11d
3faad229
bf2f8459
3d890338
bf1b86a4
bf1aa4eb
3dca2394
bee673dc
3f3a98a4
3ea7b69a
bf8a64fe
3f6873ae
bf28003d
bfdb3273
3fcb5d0e
bd2b377a
3e250864
bd01649b
bf41c28b
3f4147de
bf9b2478
bf120312
3e899a99
3f9d00dc
3ea86c17
3fca7c29
3ee7027e
3fe57806
3e1d2e2f
3f400842
3e52d03b
3ee6b27e
3f0f3cdb
3fd27dc0
be132c6e
c020a7b8
bf4edb8e
bbd7f14b
3fd480f9
3fb70296
be386f80
bd5070c0
3f91b397
bf6b23a4
bf4dbe27
3f93b13f
3eb91c72
bf2d8471
3f88e0d3
bc71b8a7
bf10a13c
bfe69711
3e84b327
bee1121d
bd7266ee
3f153a40
3f8119b3
bef72d88
400f64f4
be41b1ba
be733cd8
3ff9e10b
bfb54703
be9a5020
3e03c01f
3f9ff211
c02eed5b
bf6faca2
bf70079b
bfa6f37b
4014dafb
3e67b554
3ee9e7a5
c005b3df
c024d9d5
3fbfe2be
3fe9fbbc
3f69c86a
3f2d375e
bf4f736a
bedd4a5b
bfe9598c
bf8135bc
c010bdc2
bf85258c
3f30c9c7
3fb82774
3f721489
3fadb9df
3f0a8c9f
3ff7b0c2
3f9f93ec
bf8686a7
bd912b59
bf8f359d
be087d99
3f267299
bdd628be
3f26744a
bfd645eb
bf7883d3
3e8ba2bd
3e9d1e2f
bfdc006b
bdd9aa09
400162ad
3e674c78
bee7adc3
3fb66167
3f765614
beb4c509
3e121685
beb04594
3f852388
be63e56a
3f076fd7
bd988022
c0017322
3f147e44
3fa4e9d9
bf9e44af
be9bd7cf
be379567
3f08f3ae
bf31f31f
be47a0c2
3e8f8c2e
3efa9dfc
bf83a4e1
bdc0c160
3eac85d1
bfbc482b
bf6388b4
3f5be1c2
bfb21969
3f1e61ab
bee7e1a1
3ed09b59
be46596b
3fa1e49c
3f9933cf
bfd1909c
3cb10e70
bfb395d1
bf4841fb
3fa62fa4
bf7ff406
3e2abc9f
c0002f9b
bf0f9773
3f1e1c21
3e9f607b
bffe174f
3ef92a86
bcfeb3a1
400f4951
3fb60fa2
bf683c3d
3f020ae7
3df22cce
bf68feb1
3f2d8be2
3ecd5869
bf41fe96
bf115326
3f43fdbb
3f955ffc
bf837203
3faff93d
3f199c51
3fd8b81e
3eebd0b3
bf6da9ef
3f89b186
3f99ea38
bfc9fb38
bef350ac
be8df9eb
bf84a55d
bef8d914
be8a3cda
3f1256d3
3ed01692
be724c49
be1d3675
bf510805
3f4239a9
bf4a879e
bed95772
3e3fc7dd
bc4e7f3b
3f349930
c01fe83a
3f9a3149
3e452d9a
3fb75bf3
bf852379
bf01b4c1
bf4040ef
3fc81ec1
bf23a00f
3f6f73db
bf13785b
bf4de6e2
3faa9114
3fb3824c
b9bd87b3
bd95cb6e
3f7e87f8
3f9fb9c6
bf82ad79
bde7292e
bf3fd3aa
bf90e225
3d121edf
3e9caea7
bf9e470d
3ea4dca8
3f4df5d7
bdf02e1f
be1c8569
3c143473
3eb7dcdd
bf0ef932
3f88ec3d
bfb51e9d
bc0312ac
bdd2c07c
bf76981d
3fc2a4a1
bdd9aecd
be94916d
3f7a237c
3f2a09d7
bfcfd3d7
bfd0ad63
3ea7c4b3
3fbb1263
bfc2fb2e
3ebe0dfe
bf06a685
bebbe585
3e03ab79
bc02ab59
40028fb8
3e491a04
3d442da4
bf2629e2
3f9e2848
bf7eace5
bea78b10
bf429feb
bd26f0a7
bf5cb949
3d8b2d7e
3f985818
3faedd9f
bff2dfed
bf567ee3
be8109e2
3f473d72
3f383bc8
3f2009d4
3fc25882
bfadd3e8
bf78ec53
bf66e370
3db5c720
be7d4414
3ebf8c50
400dc6da
3fb599bc
bdaa99c0
3f87d0c9
3d8e79ae
bf87db9b
3ed7a219
3fc7c052
3f54cc5d
bf049ec6
bdc99c0c
3c745b09
bf67dd01
be6a6a45
bf816574
be6ea4ef
bf98b278
bfce9189
be0baadf
3f8c7835
bf279926
bf0b213e
bfc4243b
be67a3fc
be342b14
bfc60746
3f3cf947
3e0b3981
bd8999b5
3e8ec385
bf35c514
4011c66b
bee0a13e
3feaa296
3e098307
be8d51b3
bfaf123d
be0ea7ac
3e03f135
c010477d
bf8833d7
c001fbac
3e2ff52e
be1654f8
3ffb8b0f
3faf0878
404be3b3
3f58a21a
3f0bac2d
bfd960eb
3e4424b8
4004650e
bea294e6
bf5d1ac1
3f2630d9
bfaa3f24
3ef49aba
be4aa5d9
bf936f2e
becafb85
bf777bc1
3f370629
3fc9c24c
be080dee
bf6895dd
bad3ed45
3fe2e2a7
bf9133a9
bf13dc47
bf3152d0
3e841238
bf44608f
be4620a1
bdea643f
3f32da43
bf7bb017
bf8af2fb
3f186e66
3f262113
3e1bf6f1
400a11d6
beaaa907
bdcb2fe9
3f182142
3fb9e57a
3fe19fd3
3d673569
3e0a0fa9
c02ee771
3e43ada8
3f6952a9
3f9db9a4
3dae2966
bfa1b4da
bfe8953e
bf516eb8
3fa0d09e
3f8327ea
3fb2562c
3f96d749
bfbca3be
bdaa9ed0
3f7b7004
3fce7221
3f40a72d
3ef67cd3
3f0d7516
3fb7c8fb
bfd17388
3fc58afa
bf764235
3ee3ff8f
bf8f612d
bf32b8ac
3f0461bb
3e9b24f2
bf39eb76
bfb8c3c5
3f67a047
beedcbba
3d6b5792
3f311c1b
bfa308d3
bec81ed6
3fc4a128
bf3de0fd
3f554550
3f4317b3
3f7d96d0
be8c2525
bfd0e485
3f2f0585
3fc9f3ba
3f35121b
bef71020
bf8ef65c
3bf78fc4
40106568
3e0a6769
3fa32146
bd6c96da
3f38eea3
3f764495
3e71d282
3df5eaa0
3f66885f
3fb92aa1
3ddfeccf
bf027905
3ea88161
bf863e07
3faddc48
3f20d2a8
3f302008
3f98015c
bf1bdeb7
bed852e1
bf85676c
4000ad4c
400bca08
3f46494a
3f73787a
bfa6165a
3f1ac21b
3ead16ae
beec9328
3d172745
3ea6340d
bdb46c1b
bfd04f53
3fb3e22e
3fd6a269
bf52ac7a
bf3a80a9
bf08a2bf
3f2c98d1
3f328407
bec8818c
3d8cabf9
bf48d8c4
bf47ad1f
3f5f3d79
3d62da56
bec49351
bf92cfb4
be0633c9
3e8803b2
bf555bb5
bf0a8412
bf16acbe
bfee262e
bf61378a
bdd8450b
3f89675a
be63be45
3f488930
bf7d19e3
bf2b763e
c0122474
3f216633
bec73056
bf31d3b6
3ecba512
3efbad4c
3f94a082
be5885e2
3f12ccff
bf4390f2
3f4b8c03
3e9fb3f8
bdd8ce38
bef417b4
bf4de263
be04dd9d
3fd7228b
bdbb3067
bf9cc4e9
3f611d62
bf4c2321
bf9e23e0
bfa52b3b
bf7ce0af
3ef06680
bfbf22a7
bf35a7e3
3e1076ad
c00431fd
be48b86e
3f778e10
bf7aa638
3f0923cb
3f8ba5a4
3fdd88e9
bfc4c7b8
bf9c7058
3f2f3dce
3ebe184d
3e7bbd1f
be35747e
3f942be9
bee5885e
bee86af0
3f152b55
3f500547
bf2ca2b2
bf2cf0dc
3dd2c39c
3f8e29db
bb092750
bec6edf2
3f6ec7b0
3e568be5
bf7d324f
be6e9cbb
bfa4c366
bf2cdedc
3f1e601b
3f092155
bf2047c8
40051273
3ebf7e88
3ec77d57
bf424198
3fa364c0
bc702ead
3e1e026c
bdf35671
bff28683
3fedd123
be31c65b
bf5399d8
bec5ae19
bfad1d7b
3e7f7940
3e8745ec
baa34e9d
3fe81f24
3e75a758
bf46a71f
3f1acea0
3ef5fecc
3ec7c92f
3e1faac5
bf73007a
c016441f
3f0444ac
3e1506d6
beb76138
3fc52ff9
bf24f6a0
3fbb74cb
3f4333bd
be5a9578
bfa54a8a
bf314f6d
3f6c27f3
be92ce6c
bee8b134
beff992d
3ecb7110
be9780b9
3ef65c5a
3f5ea581
be8ae4ed
bf00dbe7
3f01d02d
3ed52a09
3e8abe02
3f19a842
3ec746ec
3eeca17c
be1a3199
bf1b1423
c0256550
3f051063
3eb2aa80
c01ff688
3fd8339f
3fa5b1bb
3f194cd3
3e9e99cb
3ed54bb4
3ec2ae6e
bf95a1a0
be9dbbd5
3f976f17
3f07403d
c00337a9
bfa46a5b
400304b3
bf3d0797
bd108e65
3f27f66d
bf54e52f
be431744
bfa57578
3ed24c62
bf1665e9
3f957694
be656c5f
3f03c357
3ee2798f
bdb1be40
be06122f
bf38bdcc
3fe8c862
bf901f43
3fe23e9e
3fee4677
3f5ea28c
3ed4cf3e
4002227c
bf962ccc
3f5b1e73
3f2f8bfe
bc9ec37c
beca91af
bef58ae0
bf245d1f
3f0c751f
3fc102e5
bdaa2860
bf12859e
befd1c25
3f8f2b17
3feb0fab
bee0f537
3fcd5242
be25cf26
3e0eabe7
bd2e95ee
be34e724
bf60cf03
3f621380
3e88017e
bfaf8848
3ed18159
bf141cbd
3c1b63e6
c00b880b
3e3f0130
3f786bf7
bfcf39c3
bee25b8f
3eb53b3c
3ea9ac86
bf991c0e
3d6722f0
bf9fe33e
3e98b5a1
3f01b2fb
3cab792f
3f82e669
c029c517
bfe1cc68
bef784ca
beb4b589
bf41d134
bd82df59
3f182cd2
c0070545
bf139bcf
bf6a085d
bfaa7978
3f94d0f1
3f991ffe
bd6e089a
bf7dc3dd
be3673e3
bf1a7198
bf932f33
3eb66a25
3f9378a0
bf9f37a2
3fbf00a4
3edcb41a
3dd0a776
3f5ee887
be77cb66
bf7e2573
3f4ca1ff
3fa84b5e
bf69cd76
bfc379c8
be7ec387
bf27eb8a
bea95910
be04e81f
3ead7387
c01797f9
bfe6d3ed
be330976
3f2bd819
be94134f
3f6ca8d7
bf8a33a7
3f0b2edd
3fae5eff
3d82e10b
3f5910e6
bfce52e6
bfebfdde
3eb726df
3f87dcd0
3fadb748
3ec58465
bde5e50c
3ec6a86c
3fa5467b
3e0b8d0b
bdcd87a6
3f83a7d9
3f6d551d
bee4fbfe
bf7be799
3fa2e6a1
3ea80248
3f54a1ba
3dedcf5d
3f2e620a
4004d230
3f9b1679
3fa05348
bf826d79
bf12bf02
bfe04ef2
3f56882c
be9d8afb
3cbce69b
3d8c0ab0
3ef18db3
beaaba73
bf1a69cc
bf40b042
3fab8692
bfc2d161
bfa1b5a2
3ebb025e
3dc2adbb
bf3339b1
3ff80312
3f3f2902
bf30b3f9
3fda051a
bfe6f0ec
3f054429
bf20f31f
bf6dada6
3f56539f
bf8ff157
bf534098
3f05b3c3
3e32dd67
bf82feca
bfd4acf8
3f28cc4a
bebd9a9f
bff41952
bf328bb7
3f2a055b
40089429
3dadcb12
bf2a2c7b
bff3a623
bfed6a8a
bfd81e09
3db60725
3ea6346c
3ec1510f
3f0e360e
3fb83421
3f95577a
bff3adc5
3d4b1dfa
3ff04d09
3f4d9528
bf5a26f1
3e8dc16e
be13f44b
3f3072d0
bee62fc3
3ea25f7e
3e0a68cf
3f99ff3c
bf89b445
40075bc8
3f64c4d7
bf1e0f9f
bec2dbc0
3f163232
3ea7d02b
3f9147f7
3e5bc50a
bfb59174
3fd7bb19
bf66e0bc
3fe44a9a
3efbb571
3f0b0226
bfaa46d9
bf367533
beadaf20
bfa4553a
bff1d10e
bedbf041
3f324b4e
bfcfcafc
3ff2ee32
bffddc9c
bf69dd61
3dc0628b
bee191d1
3f2f08c3
bf036490
bfa4f9ca
3f008787
bf162d6c
bd352ace
be076f88
bdc6ee6d
bf188652
3e8db06f
3ecaf5f6
bed053b0
3ee033b9
3f1e438e
3d7561ad
bed01fec
3d24bf15
3e0e2c73
3ffc308b
c03666f9
bf8a2661
3f843179
3f0ca74e
3f6bc16d
3f05ed7f
3fb050a9
3d5c52ec
3ef345a3
bf2cc460
bf953b0d
3f13907a
3e90496e
bfc1e1d4
bfd8a558
bf19210b
bf45ab56
bf0dfe7c
bf28223d
3f9642bf
bf90ceae
3e7fbc44
bef118d3
3f0dddb5
3fa56354
bf0c9228
bf7301a7
3fdd4921
bf19e8ad
bedf6f7b
bf4441cf
bfb74c47
bee872bc
be9c9e1c
bed28f36
bee1fb38
3f46de74
bedc0dba
c019a563
bfa9c943
be9c05f3
3e1fcd8b
3f92288f
3f26b142
bf147605
bf80b76d
4026465b
3f60ae05
40071024
be54e23f
3ec218f0
bfd94632
bf688156
be1b0009
3e8712a0
3ede1b55
bf43e9b2
be5be2bb
bff5462c
3fed4236
bf19b6de
bf0c48ee
bf786d9e
3fa02446
3f518990
bf8dc64c
3fe52191
bf6453ec
3fb672e0
3fb07083
bf131629
3d6ccc16
be615d5a
bf2c09c6
3eea285f
3ec56951
3ecedcd1
3e13717d
3f473c5e
3ead8e1b
3ec3b9f2
3ebc5315
3ca743aa
bc4bdadd
3ecccb90
bedd2e5f
3e0d6a23
3ee1c5ee
bcc5e201
3d6f9980
bfc24805
be86679e
3f206ab5
bebb9e30
3eb3c6a0
beefd78a
3cfe0c1a
c009f4d3
c02142e5
be75da81
c034719d
be584190
3f1e59b8
3f870048
3e1c7153
3f8746be
bfc1c7eb
3f860aae
3f039b98
bfaaa867
3f3ba9bc
bf636a66
bef70a5d
c052951c
3fa7e074
bfcbeb35
c0263677
3fbe73f9
bf88d645
3f7e1e80
bffd4c39
3fbd8b16
bfa8a88e
bf7aac65
3e63dfc3
3e86d77a
400c26da
bfad6482
bf393427
40178750
bfa3a6ce
bf258340
bf6edea4
3fa71186
3f74718d
bea1de8e
3fc29c13
bed58752
bf282581
4014ff0f
bfb2e919
3fce4943
3fa6ce3c
3ef8e425
bf692e75
bfcecec4
bddae3cd
bef01a19
bfb1b797
bda4895c
bf1a47a3
3e984332
3f2d5960
bebd1cef
3e68efb8
3f571af4
bdefc15d
3e0717dc
bfb5fbf0
be5851a2
bf0c5a2a
bfb31d8b
bf5559ec
be703ee2
bfc98c4e
3f137aff
bea716a2
beb6cddd
bfc5e185
beef6144
bea1671f
3e9402ea
bcc08487
3f21b388
bed22cfe
c00682a0
3e8eb480
be8068e6
bfcd387c
bf8329cc
bf81dc7c
be103dcc
3e18bcc5
3e3a46c1
3d0969fc
3f786b6d
befe0795
3fb93bff
bdca08b6
bf4209f4
3f97054d
40041d33
c0201d5d
3e997e66
3f7257fa
3ede6de4
3fd1b425
3fc3d6ae
be88eb84
3fb6d395
bfa1cf5b
3e4bdcc6
3ee12dd0
3d888b5f
bf81002b
39cd084d
beca8ea9
3f257476
3f6c80be
bf50e989
3f0e2354
bf723b6e
bf127b85
bc85c24b
bfedda38
3d4ea42a
bf8e6f58
3fea1abb
bfcd10d4
bfffe527
bf3d3496
3fcd6e35
3f51c443
bff9be97
bcccb897
3f295569
3fa409ab
bf280921
3f58c8d2
bf9ecc36
bf9d42eb
3f85832e
c00158c5
bf37ccf7
3f631e16
3f567725
be296b9c
3f3a6cc5
bfb6ee80
3fc55ca8
3f7428fa
3f8400ae
bebdd8f7
40032d18
bf12d016
bfc3f536
401e2030
3fe70e8b
bf89c305
3f460502
bed839d5
3e17735c
3f9ef283
3de6a401
be5bd8e1
3ffa21e3
3e8c1cfa
bfce392a
3f4d4e05
bc81b0aa
403621ef
bf09835f
3e5e5529
3e4221b5
3f45d1df
3fab56a0
3d71ff01
beb2d06c
3fa1db18
3f5230f3
3f7a9894
3efafc1f
3dfc7500
bf8d78e3
3db527be
bea48a2f
befd78e2
beeaeb61
bca66e5b
be5975a8
3f6eca55
3f4f46e0
3f3c9ffe
bbfc1b4a
3f3ea05d
bf1cb48a
3df677aa
bf197ceb
3fa81b69
bd546a6f
3ea48be6
bf0b911c
bf760deb
3f1a2793
be13f90d
3fb2251a
3fc504b8
bea32484
be5af9c5
bf7fb444
bfe7fed2
3e783085
be36aa23
be69dda6
bf2b9332
bfcdfe3e
bea12a83
bfae506f
3f52036f
3f260525
c00246a1
beb53c55
bf3f8a64
c03e5e12
3e72d996
3ef374ab
bf042b51
bf8b84e4
be1814a6
c02ea074
3fa71b4f
3fb89375
3f3eb4b2
3f6622ec
bf3e7a9f
3ec931b7
3e5366da
3e8c33dd
be7793b1
bf5e18fd
3f30f8d1
3ed31a14
bddcb5a8
bf2f3866
3eab2a03
bf6f4103
bf7405b5
bfabeb6b
bf42d4f2
bf4f8396
3ebd268c
3e8db944
3f1dd95c
3f8d5148
bfc4c468
40097582
3e827c21
3fda088a
3ea4a9b5
bf0845d0
bee4dc79
bf3026bb
3f817160
40265186
bfb4128a
bf5426c0
bfc43e17
3e3a8ce9
be247c20
3e44e899
3d560956
3fbfabf1
bfb4eef5
be3e2cac
be3a1908
bf823bc2
3f15f50d
bf209b76
bf20470c
bebc7380
c02899d7
be53c81b
bf2b477c
be0071ad
bf35f156
bf3d10f2
3e72c5a7
be99613e
3fcfa1e4
bf32580b
bf1e6bcf
3f77763f
3ea9c7a8
3f9cfde8
3efd6d3e
bd947de5
3fc4ca92
bf56365d
