bfad7786
3f3e3ab6
bf242b7e
3f0b4b5f
400bb903
3f426b0c
3e85a0b2
3e0f1da0
bfc1acab
bef0809a
bdd2f81a
bfd1bdcb
bf1de40d
3f19f549
bf3b18b8
bf9a46e3
c03845ba
3fec98d2
bff3cd99
3f681468
3f46903e
beb3212d
3e477ba3
beb5c84a
3fcc2370
bf160321
3f277a34
3ef7d5fc
3f1b29fb
bec4231d
bfde62c2
bf3ec290
be8e72e2
3f95a15b
bf136b5a
3eaf28e0
be8340d8
3f6ccde8
bd2c556c
be352db2
becccf8b
bf59ed21
3f4edf02
bf17f0b8
3dc75ab1
3d78e556
3fa42c3e
bf642867
c0136f21
3d7a5674
bdab369c
bf847cd7
3e93573f
3e6ddf5f
3e854da3
befb9dad
3f0fcb8b
3fb53dff
bf1372fb
bf33914c
3f8f22f5
3ffc41eb
3f9daa6a
3f41c6b1
3e72cdff
3f9c21cc
bf154071
3e2800ff
c017b662
3fa1012d
3e214642
bed04e07
3f293cfa
bfdfe792
bfa1ec19
4020ee3b
bfad53b5
3ed984c3
3fc4e55f
bf4b1625
bdbc7ef1
bfa16a50
3eff986d
3f99adf8
beb23bc3
3f6394a8
bf39561d
3ed6edef
bfa45c21
3df68927
3f9ad572
3f819640
40061e93
3e9d5206
3f9c2f51
be082606
3fc4d27b
3de1bef3
3e484d62
bf15c230
be3caa41
bf612738
bea610bc
bef0fdc0
3f895afc
3f46d243
bebfac3f
bf6129ba
3e99660c
3f020f3c
3ee2e7b8
bfa21eab
beea8986
3fbf0b16
3ebb4a17
3fac9f3b
be0f1fce
be3c9d2c
3fb817df
3f1a86f3
bcddd0ea
4015962f
bf0f2e56
bf00e1f2
bf95d0e1
3f12b0f7
bf57b617
3f85e8f2
bf58de37
bf2428d9
bec60d7f
c00cf2f5
bf7aadbe
bee18479
bf86ff25
bc5185d2
3e961e97
3fd2aa87
3f42dbe9
3f933161
3f8b5b9f
bdf325d1
4004fcd0
3f32b84c
bf4a1ec7
3ebf1d18
bf36db03
3f4dd6f8
3fe5b542
bf62606e
befdeaf3
3eb02d0a
bf111814
bfc03f4e
bf1343f3
be3bf937
3f1cc038
3f9a69c8
c01a9113
befa37b0
bf3b5ecf
bf188318
bf198c41
3f22135b
3f135625
3fea3793
bf91729d
3f856dfe
bfac1739
bfa042ed
3ccc3631
bfd2e70a
bf9384b5
be639291
3f04004a
bfd22014
be90ca2e
bc845bdc
40055848
3fe435ea
3f8f33b8
3f7c73c0
3e8e4843
bf83a892
3ef0e9e7
3f9560c0
bf29c378
bf818e55
bf174dda
3fa3532b
3f5a28ab
3ec5f3ab
3f158658
c019a490
3f4dfcf4
c00346a5
bf152dd5
3f0dbd4a
bf965e70
bbbb0096
bfc5c512
3f6c048b
3fd674f1
bd60398a
3ec6f052
3f34ed9d
be30c923
3ecfc707
be7626f8
bed7581c
bf798835
39d4ef52
3e972165
3f691499
3f7f35d0
3f3fb428
3e8e5876
bfa9a338
3fa2b245
bfb4bba2
bf8eb28b
bea16641
3fae1ad2
3e3547b5
bf4d8700
bf378b99
3e0cf15b
c00678de
bffcce7d
3ee8ca1d
3f074bfe
bf69c912
be7d6b00
3f8e6617
bfabb7be
bed22137
bf00cdbc
3f8f1231
40018291
bc6242c7
bf736f30
beb65f8a
3fb6d97a
bf98dd5c
3f43ecd7
3e96909c
3f9998e0
3e9a51f5
401081e6
bf22dbea
bf02426d
3f096271
3f9c6694
401651a6
3e6f39f5
be8fe939
be64d468
bfe8a625
3e53d07e
bfa9a4f8
3f8d03c1
3f210823
bf1c3a59
bfba5327
3f4ca38c
3eab5f6a
bd39f5ca
bf87fe9e
3eaa928c
bdcdbca2
bd560409
bdaaa589
bd5f4028
3ea3f4c9
bda2a3ca
bfcb3014
c00ea687
be9aef05
c02da298
bf638ff7
bf3894d4
be1e7a19
3fe3e97c
bfb8f05c
3fc6acfa
bf280fb1
be753bca
bfbc94a0
bff32562
be2163aa
beb70e29
4005a4bd
c00e3dbb
be857fe5
bf57147e
bec2ca0d
be0bdfb7
3f059f7b
3f202f75
3e0aacc0
3f23945d
3f178b56
bfadcf19
be6fa6f5
3f13d38b
beaf9d38
3e024173
3fd51b27
3ee62016
bf8f377d
bf1aa74e
beabd010
bf07ef4d
3f7dc63b
be8fd0cc
3e180712
beb5b830
3f54e47a
3f13dcf6
bf8e3c8d
3f48e2e5
3fae3b14
3f0a8bca
3e13923f
3f435a6c
3f3e0535
bfbbaa8f
bf975a07
3fd8f94e
bf84c142
be09773b
3fee14cc
3efd776a
bf010db5
3e5ccbdf
be89d7ac
bf67b755
bf2ed4c3
3f475943
bf6a31a3
bf459c40
bf51c0b3
3fcd5d74
3f67660a
bfa4837e
3ed7e1f8
c0133e8c
3fbad279
3efbf22c
3efcc0ad
bed61017
bfc967e4
3f0f79b6
3f521df4
3ecfa23f
3e9c626b
3f9fdcf6
3f81ceb7
3f846bc5
bf1f945a
3de9ae8b
be97d6ad
3f1ff8d2
bf6be061
3f4cc148
3de86d29
bed544a9
c0322308
3f6c173b
bd80b450
bd83436c
3c88cc0e
bec2c771
bf62064a
bf266396
3f17f5dd
bfd49ada
bf4a7e40
3f63678e
bf0a3795
bd99f67e
bf20d9dd
3e8d249c
3f74c4c3
bf980446
3fd88586
3df4a6ed
bfb0c45b
bf27839a
3e7c6f4b
3d2ab733
bf57650e
3fa577a5
bf2bee0c
3f53a053
3efa3f6e
bf9b729e
3f955430
bf0ce2a4
bea08e09
3f032a87
bf717a37
3f95b1f6
be8f4a80
3ee5f25c
bf67fa63
3e263d50
3f3b04e2
3fdb84f2
3f8db504
bd5031cc
bf724568
bb98b89a
bf4fd214
3edc1804
3e90e2be
3ec46c77
bf91d42d
3db4ca53
c00e4942
3f907145
bf4cb028
3daa9dde
bd4894eb
3cfdcfcb
bf958eba
4001c4be
3e217576
3f3e3050
bfaf5fa8
bf102131
3f4c5e27
3f82eae4
be11a483
bed540af
3e2f922b
bfabdfe0
3e2bc8c7
3fbe5675
bef7b534
3f52d688
400bb258
bf15fc41
bf6e5858
3eadb8cf
3eb3f47b
bcca46e6
3f8c189e
bf95cfff
befde731
bf952858
be6ec3fd
bea0fc16
bf96fdb8
3fb7fc4b
bf05c864
be0a9ea1
3dfe5ab0
beb5defb
3ec55029
bf81d114
bf3918f4
3f20ca27
bf41943a
beb9f8e4
be56e6bb
3f9ac89b
3fbc622c
bf30af6f
3e1af5ad
3fd706b5
bc077a1a
bf57d359
beb3e288
3ea0274a
bfb653ac
3f3a7ad8
bf810dee
bede68ce
3fb7570f
3e9a1c4b
bf633d14
bf53fb1a
3fbc3959
be489418
bf363e65
bfdba10d
be69bf5a
bebbb917
bf561e56
c03cf302
3f7b1561
bf47cd84
3fe521f8
3f3ebcc4
3ea1d0cf
bf80d314
3f7d48e0
bf9a0986
3e584e0c
c016bf00
bfce4258
bff04d0d
bfde7c1b
3f8f39d6
bfc28762
bf6b2fc7
3e91cc9c
3f2bd8be
bfab1e21
bfa35b7f
bfa92acb
3f193128
3ce0b521
3f58c3ce
bfd9a45b
bf9fedab
3d393bfa
beff1353
bfa4c5f8
3e0d37b1
bf9d5e40
3f8ed111
3fb29aed
be6f9b4d
bfc64262
3f82e056
be7e7ebd
bfd625cf
c0084e2a
3f28069d
bfb1ac1d
bea274c4
3f2476fa
3e532c0b
3f19678d
be6082f3
bfa2317a
bdd386bf
c0006093
bf2c5c14
bf0e9b16
3fd6d7fc
bf4f1ea2
bf6356c4
3f0504d0
3ff21365
bf077298
bf3e8526
3e72030d
bf06eb8a
bfc0e714
3f85dfdc
be6195e8
3d99bafa
bf28f51e
3fa04682
3e115526
bfdd576f
3fe515c3
be9c9e02
bf74ece0
3eddee7c
3f467811
3f311bb6
bf2600cc
bf55cb55
3f204dd8
bfee5b08
be28db2a
3f4a5443
bde624b3
bf8c92cf
3ec4890d
3e984248
be0fefcc
bdda5cbb
be707461
bf3854d1
bd17a10e
3fda77d8
3ebdf4e1
c00129ab
3ed3bd3c
3eea7c3a
3eb90cbc
bfb15292
beb440c1
bfefe7bb
3f0f61c1
c000c2e9
3fac3e8b
be1f356a
40010c09
3eb8c3bb
3fc29074
bf521eb3
bfb94af0
3f079fd0
3e8f9ac6
3dfe647f
bee3e61f
3ec80898
3fba1229
3fd9aaec
bf16dd40
bf3adedb
3f1e5418
bf363c37
3f61f8b8
bf457399
bda10b0c
bf90548d
bf66d0ba
bf04ef13
bfab4c79
3ff36dd3
3fcd5f44
3da6cb48
3fcb2bf9
bf9a1a55
3f1db572
bf96a6e9
3e991a86
3dc5f9bf
bfa03e72
3ded560d
bfa7d066
bd7290f7
bf8e2255
3f9d0f31
bf38fa98
3efd9ee3
bfa33f78
bf03acbb
bf385adc
be00c817
3d33bb19
3f7fc561
3f0f84ca
3f34e999
3e778916
bd925791
bf8bbbe2
bf0ddb1f
3f0e487b
3d603f40
bee0d9db
3fb67da9
bf87ff81
beee9a91
3e2de511
befab885
bf218c9e
3f4e5efd
bfa2d6e5
3f3f5dfb
bf0727db
3fbbe8c8
beaefcc0
bf7361bf
c0153087
3fc9816e
3f8df7ad
bea002c7
3e4f1e3a
c0110f31
3f03a95f
3ea4b6b1
3f92f899
3e8874cd
beccfbd0
c02b53b8
3ed9a613
4009fc6f
3f759301
be3c69d0
bf209643
bf8369af
bebf6f8b
bf354325
3f46bd02
3f4f4f85
3ff334d2
3e160005
bf8ae979
c01d7a07
3f6a8996
3ff8b894
3f365715
bf3bd48b
bff727b9
bfa09c36
c02949ef
3e8c0a08
3f5ef801
bf061fb0
be474965
3fb633d6
beeb4482
bf1c1c1d
bd677f4d
beb3ed70
c00eb850
bf1a9b36
40005487
3f3cbc21
bef28afc
be8e78e5
3f65e01b
be415296
bf2afac2
3e08c4bc
3d7fdcbe
bf20cb09
bee13e72
3fc59f84
bfa63b29
be8324cc
bcf2f6b5
3e33c47f
3e6abeea
3f984238
3f809765
c00224f3
3b72dd8a
bf28877b
3e630820
bff8154b
3f77df27
3ebbe0e4
3fc9acb3
3f85fce3
3f13f3e6
3f38331e
3fa88ce7
3ff66072
3ea24242
3eacfdfb
3f135e0c
bff853ba
3e737e56
3df23f55
bfae45d0
3c207bca
3f8a97a0
bf96b581
3e674fd6
be1ecbc2
3f4805a1
be0776e2
3e059894
beba5cf6
3e6b7e9d
3fbbec7c
bf944692
bf773cb9
3f127366
3f15e8e6
3dc91a9f
be958d7b
3f7b2383
3fc72e9c
bfc624b1
3f213a58
bed2d42c
bd141f62
be009d44
3ede5c54
bf998563
bf026045
bfd02a3b
3db80cfd
beb90767
3e014a48
3f81e95b
3f146d7c
3c88dc4f
bf8fb838
3f394c42
beb500cf
3f103f13
3d1d194c
3f1973e4
3deb7efc
c00e31c7
be246dbb
3fb186bc
bfacf907
bf95e665
3fb8509e
3fc6547b
be76d1e1
3f10d1ca
bbb86645
3f818623
bf2ce1a1
3eaab148
3cb5aa49
be70d42b
3f810692
bfaf238d
be8d3e4a
3fa74c6d
3fa2d13e
3e989207
3c98bd35
bf5644a1
3eac3503
bf06901e
bdc13af3
3f74e8d6
be0b1493
3f13ea7a
bf920e96
3f07caa7
bdf24b54
bfa8ca98
bf417c0f
be8e0c2a
bf9ade5e
3fb2f825
3fe4ad8f
3e880474
bcaec5aa
3f1fba65
bfad381c
3ee24da7
c0017482
3f788898
3f06f0f3
bfa3a5d4
3e43f23e
bf81d7e9
3f08ed15
3f845a7a
be96bbce
3fee3b9a
3e68ebfe
3f204330
3e7b18dd
3f801c7c
3f22d8f4
bf799d2a
bfcc34d1
be3ebd9b
be82f248
3e5d658e
bf98081e
bf82fa32
bef2c91b
bf0b84e3
3fbb24d0
3f72790f
3f444b00
400d3dcb
3ead67fb
3f778619
3d987dca
3d798209
bd97f500
3e91094f
3db2b0ac
3d923daf
bf8a6549
bf25a7fa
3efacc01
3e15ff27
3fa7bfc6
bf4577fe
bf6f8128
3f3e175e
bdda9664
bf143799
3fbb739a
bfa0d2bc
3e275632
bfea191c
3fd27aff
3ea20454
bf0af1be
3f7647c2
be9b7b00
bfb52574
bf3e079f
bf00d7f2
bfbeb7bc
3f943426
3f09fcbf
bf2aeaa5
3eba61ae
be6a30ce
be16a714
3f293f96
3fbc4cd0
beb0fbf3
bf8edc34
bf25f555
3f127657
3f52a1fe
3effae70
3ecf5559
beea45f4
bf995076
3f5f10b4
be106a71
beeac139
3fa8b665
bf9c146b
bf913749
3e9e2c6c
3e9f9d44
bfac32c0
c00ac9ec
3fa2b479
bfabe5e0
3f760316
bfc203e9
3f99e8e2
3f453c22
3e77f6ef
3db4c55c
bf129a9f
bd737c9f
bf1cdcf9
3e3069a2
3f49b8e7
bf55b833
3f56fc86
bf8e47c4
3ed63ad1
bf8af26c
3eae4e06
3e43d06b
beeb8e41
bf48d893
3f12d301
bd5aa972
3e25cf7f
bee495fa
3f334b5d
bf9884e1
3f1e518a
bf034211
3f424ede
3f0cc5a7
bfbb6aee
3f244149
be149654
3f2de845
3ed60f84
3fb40959
bede4cf8
bfaf543f
3f00dd18
3fc6a389
bf6141e6
3f5eb795
3fba043f
3df3fea6
bfa63885
3f7286ff
3fac694b
bed6c66e
bf893e4e
3f82ae5b
be1af4d4
3ed490f8
3e5429d5
3dc1e8ac
3fb08489
3f823f9b
bf3a05c4
405a756a
3f97f803
3faf7c33
3f27f00b
bf99ab82
bcd03233
bf1cf28c
3eec17de
bf37267b
3fb07492
bf2c3cdf
3fbcc958
bfe77273
be8f12f2
3ee34541
3f2f37a6
40178a0f
bc4d4cb3
3f126bb8
3f894ac9
be448b95
3f10914d
bf6a7aa3
3e982103
bfa59d20
400ec74f
3f6e9018
bf97b7cd
bf9a1dca
bf313061
3e82dd6b
be50d83d
3dc4d39f
3f776dda
bf05da7f
3d7a1c88
bf5ef3f2
3d84c026
bf2e7abd
be31db9b
bed488fc
3e9ce462
bf0ca844
bf0c7e7f
bfd05278
bf9be319
3f59dba5
3e8e7bf9
3e1cf7e0
bfa4135a
be0b9cb5
bf8bce45
bf75fe2d
3f3f35b9
3f399816
bea8a51d
3c6a762f
3f0741e8
bf805123
3f6d2638
be9cbcf7
3f67303e
bf8cfe84
3d284653
3f23f588
3f54289b
3fc15899
3f9dd104
3fc24ff7
4018e309
3f88e25d
bef97c81
be869ba7
3db8ebf1
3f78d12c
3e9aa0b5
3e886a0e
3eb42676
be1df41f
3f06ef6a
bf86f6f9
3fa1058b
3f784b3d
bdaccf8c
bf3a251e
c01d68f5
bfa1ba44
beb3a13f
3fa9d1fb
3f302df3
3f4f29db
be7c86c3
3f5b27b0
bf8b2440
3fc9d510
bf0b328c
bf86e4fe
bef80fa2
bf84bea7
bf2815e2
bf555ea5
bf38f811
3f9ca73a
bf8162a3
3f0709bf
bfcef4b4
3ff6091b
3f9b068f
bf6b269a
bfff3da4
bee0f299
bfdc3cf8
3f762508
3f0f983c
3fd78988
3eac9f3c
bc070619
3f31a878
3f2501c5
bf11ebd3
3f6ff6e0
be3b4c35
bf351cb8
3cf3b7dd
bfb4e6af
3f6ef326
3f17fdc5
3e3a72e1
bf2bed22
bd95285d
3e9df7d7
bf13a37b
3f589406
bfaf3a49
bfc385f2
3daffb1a
3f1be77d
3ef2a1b7
3e974941
bfbcb2ce
bda67b02
be36e362
bee3b2a5
bf7f9d1d
bf65ae7a
3dd89156
3ee09823
3e6a21d1
bf4f6034
3f313c71
bfc5b37b
bf1934e6
be1480e9
bf167924
bf830a4c
bf21281b
beb551a8
bf53f220
bfc9a967
3e78eef4
3fe49eb5
bf4bdca1
3f033fee
bf64f5b7
3efeed9e
bd390b19
bfbd3af9
bfa7472e
3f2a7066
3e20c1cc
be4612a7
bdc66cfb
bebe24c2
3ffe7f8e
3f49484b
3fc6df7a
3c5b4ac2
3f60e496
3f8c55b9
c0065849
bfa79152
3f5424da
be99a01f
bf7a5bfa
bf5f5bd8
3faee1d4
3f0bd757
3e4accaa
3f69aa77
be0d6e4a
bf01eee2
3eccc34e
bbfa1397
be978416
bf95efb2
3e62b357
bea7a8fa
3e6d4066
3f157da6
3f0051b5
3e9e876f
3f6b203e
3f86d67f
3fd59bbc
bc6f2328
3f3e9fa5
bec90999
bf905aa1
bfa8fa6e
bca7536b
3f98dfdf
be77ab62
3f538fe0
beddb1d7
bfbb8256
bf64a638
3fb0b28c
3f9f3714
bea04787
be8e846b
3f8bc565
3f8f5cff
bf33c1f4
bfa6294a
bf843fef
bedd11c9
3e107239
3f978600
3ecbafe7
3f89a7b9
c00f0cf6
be9076bd
3df189b9
bd8d34f5
3f3918d6
bdd37593
bf8c84f4
3f205fed
3eb96305
3e04eb89
3f825527
bf930bf6
beb7077b
4025dece
be5ee16f
3f820886
befd67a1
3e87bc36
3eaf4386
3e6db750
3faa7aef
bf2250e8
4011d74c
bfe8adc9
bef2da76
bf340b7e
bf89884b
3f6f5354
3f5145ee
be4b9f1d
3fb9eb3c
bf495b7f
c01a36b0
bf6c7731
bfb73a7b
3f8a8c2e
bf0f9ffd
3edf133f
3f02595a
404df239
bfa06814
bca860c3
3f8da0fc
be8c2bbc
3eef4a65
3f68dba7
bf34833c
bed608df
3f5d3f22
c0194743
3f9ce3e1
3f4cdfc6
bfa38016
bf017493
bf87dcec
bf3d73f3
3eb6d313
3e06f2a9
bf4332a5
bec2f229
c00c81a6
3f5f6d9d
3ee3f98f
3f4812e7
bd78d3f9
3ebf9c0e
3d2810f6
be21a760
3b41ce59
3e1c8c4c
3fc24f77
bf9b2739
3f6c62fc
3fa31aa1
3f6f0453
3f4c9894
3d700aea
3dc04b60
3d1d6d20
bf65ecf4
3e2e2622
bfa2b72c
bf0653c0
bf7f0a54
bde93476
c000a563
3d14bb26
be070d8d
3e76555f
bfcdf89c
3f88b561
bf6d779f
bd5d9b89
bff518f7
3f202051
bf47cc15
bfc59469
3e9cd7b4
3fb7ee00
be403bfd
400cbe47
bfb140b7
3f139212
bd0e886d
bf354a3b
c01875f1
bf1f85c9
3daa8352
bf964cf8
bf878eb4
bfabe25d
bd77b497
bfd6acaa
be839f33
bf7bdda1
bf5229d3
bf0beea2
3e9f5176
be69f7e0
becb2578
3e80a54e
bf82221e
3f346ac6
bf8f05b0
bddc2bfc
3f3b1a45
bfd05cf6
3f4a2d7a
be85df0f
3f334f0b
3f153f1b
bf8a81ed
bf4c31ce
3fc96992
3fafd616
bf47a995
bf840ebd
3f9a443a
bfdba876
3fc2a787
3f1391ed
3eb9ba0f
bfba6cfe
3d5cddc7
bf0f54df
bf3e731f
3f615101
bfa943c0
be3650a9
3edaa698
bfa63e09
bf1fe3fe
3e76ab79
bfb50bd7
3f79dcd3
3f208a0d
bf8a2586
be132890
bfa8daeb
bdd28938
bf83b28e
beac651c
bfa59e48
3e51e869
be0f2e0d
3f6df23c
bfc55579
3e9b7527
3c861ad4
3f5281f5
be8b1fcb
3f1ab4bf
3f0bd1c2
bcde864e
bf9e6201
bef7a463
3fdcb670
be0dbb91
3fac728a
3eeea52d
3f11f371
bfac1fe9
3ff401e5
bf3e2770
3f1fb4ac
be5784db
bf424c3f
3f98bdc6
3fa2ed34
bf7cce7a
3fd54f5c
bf280883
3fae6560
bf9bedfa
bf63c86c
bf727954
bf375a4e
bf041eeb
3ec25492
3f5846c7
bfcf9635
3f3ef285
bf7cdda8
3ec5910c
bf656c96
3fea2aeb
bfb1ebbb
bd5d7e16
beb346a7
bf8a308e
3f1ddb0b
bea181e9
3d1373d7
3eb25bdb
bfc890ad
bee8a734
3e74799b
be88134d
3f4b417a
bfc88cd3
bf998131
bf25c81a
bfcb8cd9
3ec83fcc
bf3a1453
3f134773
bf6e0ec7
3cf1cfec
bf1c90f7
bf09a528
3f95ddc3
be915469
bf2ca6dd
c0056c82
bf690f6b
bed24122
be2cc9a2
3ec27831
bee82675
3dcfdc79
3f6fe8a4
3e72005a
3f74abf1
bf7c2ea3
3ec1623b
3f0b13e1
bd963d1b
bf8082ff
3f63b61c
3f8fa7dc
bf9ece04
be09438b
3f26c9da
3fa558b6
bf15dc0b
bf9c54aa
3eca8110
3fadb25c
bfe140ff
3e389f95
bf62e16d
beafa862
3e3aed20
be684e0a
3faaa87f
3fbabcdf
3ddb5767
3f31d6f1
bd6c8dbb
beb5a655
bdae258e
be846ce2
be870744
beb8d5a2
3f549358
3c800c0f
bf606cca
bf577d64
3e1a867a
3c7e8b21
bea86807
3eedf0e3
3f64e8e6
3fa27626
3f70ae3e
be86ed21
bfc1e537
3f1ba30c
bf6aaa95
bf6bfc13
3ec41f91
bfc9192c
beec816d
3f71a095
bf34f69d
3ee36a3a
bedc50c5
bf7c7399
bf858d9a
3df9b247
bde0ba37
be7e8671
bf85e320
bfefb6e0
bf660981
3f8bf601
be646b7a
3e6de3b8
3ee7dfee
3fbcc07d
3d57d6fc
bf10f85f
c0031d28
bfc73bc2
3efb13a9
3f2294ee
3f2cb20b
bf46bc34
3ef06841
3e003324
3e22da9c
be458c8c
3f6fe622
bff8274c
3e7ca9f1
bf1ecfc0
4018da4a
bf371cb0
be88a7f2
3f9a35e9
beedbee3
3f1aa89e
bfac87f2
bf8548ae
bcd6cff1
bf72fbf8
bea83781
bfedb8ab
be7cd0dd
3e506823
be0c97b6
beadfc24
3ee73eac
be92d476
bf1472d5
3f3c86a3
bec6fc71
3f15cf34
beffda0c
3f5fd495
bf1c0c3f
3ef90a85
bfab2cae
bd8f5de1
bda6b224
3f3afe3b
3f802562
3ef843ee
bf38d996
bfa43bf9
3fb029cf
3e723ddf
3fa1a4b9
3f5f2c79
3fb5d1c4
bf53900d
be5c7905
befab81d
3fb0daa4
3e527e8e
3fcb252f
bf6efddb
bf0c13eb
be1184c9
bf7283eb
3e95fad3
bcc2f41d
bee6ab22
3e87b0c7
3dfb713a
be178c9b
3f0e99e1
3deb8369
bfcc2256
bf8ca2b9
bdab027a
3c99541d
bf932dee
bfa38ebd
bfe6b52d
bec2eab1
3e72c49e
be20edb9
bce76a82
bf8a2181
40022ec7
bfda6c6e
be9ae7fe
bf5e4b5a
bf3fd4a2
bf702b1f
3fafdac8
bed70bc7
3e249446
3f1eb392
3dc20f1f
bf680b5d
bece476f
3fd43d20
bfd610ed
be513916
bf5c357b
c01beefa
bf3e3401
3e19a3ad
bf257ef1
3fb6fdb4
bf588ee0
3f69aec8
3fdd3da4
3f82de3c
beb50dd5
be44d967
3edbcbea
bc905c46
be9a9afc
3fd776b3
bf037e4f
bf21b2d0
3f840e20
bf6657f4
bed9b546
3ee545d7
be323f2b
3e18cdb6
bf5c33c2
bd1b16ba
be1488c7
be345d5c
3cd9448d
bf3d8e33
bf8018e5
3f567bbb
3f209af1
3fcc9a07
bd9f0429
3fb1b89c
be1fe6af
3e479068
3f921590
3f5b4886
3d954e84
3d9adabc
bebf8185
bf23043d
bf85b42b
bfa93321
3ee51ab9
3f6481a3
3f94b19f
3f9909c8
bf6e1495
bf2dc520
bf755840
be5d5fe4
3f89872b
3ea0fd32
be98b18a
beff07bc
3f4a31af
bedc23df
3f02504e
3f505985
be93f9e0
be8f0d19
3ed9f1e9
3ed98ecf
3f5cba1c
3fa42f87
bf62e23b
bf94e845
c0063b17
3f99d90f
400567bd
3f617a61
3ede647f
bf18ea85
c019f06d
3f91282e
be5de561
befd3d9d
bfd8c60b
bf0227bb
3f4a0a58
bfcf2b4a
bf90863c
be8ce192
3eaf821d
3f7379f7
3f0ce0ce
3f36603a
3fe231b5
bfdc970e
bf75db6e
bf516548
3f880de0
3f080326
3e3cc0fe
3fa3befc
3ec6d9eb
bd935de7
3f19d3f0
beb97d3b
bfbd360b
3f80df89
401ebb7c
bfa410cd
befad031
bfa76070
3dcc3c5e
400060a9
bf890595
c0152b7b
bfd24f60
3f855f04
bf86b1d9
3fb108d4
be88f382
3e89c677
3fe9d0ca
3f32e452
bf5ef292
bf398d4c
be28e852
becb90fe
3efbbe01
3f35dea4
bf0f618c
3fa5089b
3f666963
bf41755c
3e9b9728
bf52ef87
3f513591
bf62e058
3fb8a8a8
3fc442d6
3e982d0e
3f1c9b14
3f73cb3e
bf61fc14
bedac452
bfc960e6
3fadda61
3f102736
bf555636
3f327fce
3f562c07
bff38284
be483986
3f367d87
3efc1435
bf9618fa
3c1eb54c
bf0a1f08
bfbcc1cf
bf26b16d
bf1e517e
bfb41abf
3f887730
3f5ee0b5
be896dd7
bfcad6ec
bebaf89d
bea84b21
401b8f2d
bf516952
3ef091ff
bfa7b79e
bf67a1df
bee0a352
3f09b676
3eb4788d
3e896068
be931160
c018e95d
3fd6bb56
3e27531f
bfbafc97
3fe71168
3fa50a2d
bfb4b108
bf7c2c97
bf75d032
bebfdb7d
bf794d01
bfd90164
3f5e3589
3e208fbe
be250561
bf1f558d
3da3dc8f
bd203da2
bf1f9beb
3da45d1f
bf31b3d9
bf8768fa
3efc67ab
bf1393ff
3fafdf6f
3f2e8f56
bfc02590
3eb944d5
3e16064c
3eaf1968
bf0ef365
bda174f8
3f43f863
bee5782e
be992fe5
bf8fe437
3f6207e6
bfc100ed
3f0401c9
3eb8df1c
3fb8977e
bf3b0f1b
bf4af64e
3f22a96c
3f48b89d
3e4b1fa9
be71a7c8
bf8fce5a
bfae555c
3fb770d0
bf91d4a1
3f1ca994
3cdd9ea0
3e25f588
3f1dbc74
beb2883f
bebbdcdf
bfb304aa
3f5db969
3f3396c1
3f76c0ba
bf0218cb
3f82bdee
3e8fa612
3df1db8d
bfc6fc20
bdf25db3
3f37269a
3feb9ef4
bf0491f8
bfc943cd
3f1a339c
bfac9720
bf661785
bef1bfe4
3e88ec18
bf8cfb03
3f439379
3fcddc66
bf5c2e90
3f54e411
3db8c2fe
bd609581
bea78dee
bf82a688
3d8ce3c5
bf6736d6
bf64f17a
3d20d68d
3ec6570e
3e465758
3f161b20
3d8c291e
3eef18a7
3e9d5ba3
3f22e87a
bfaa1a4b
3e2a4ed9
3f6d4355
3f42767b
bfc4b866
bf195391
3e3bec23
be12f567
3ed56857
be979f35
3ea667a0
bd40e83f
bf37646c
3e8ec79f
bfb1db60
bed540bd
3fcd7ba5
3f3311b9
3eec5a7a
3fa82517
bde43fe9
bf95e963
bf6ac8fc
3ca31671
3fed56b8
3f15e01d
3ee304a1
3d858f97
bf56f9fa
be797968
bdd3f2f0
3f1d850c
3e940aa0
3ef13442
3e5a31ed
bf90fe97
bf031963
40315c9e
bfccece7
beac2998
bac1f697
bf01954b
bfe12143
3f467765
3e93a8e4
3fc059f5
bf0053c0
3f25eb5d
bfffaa30
3eb5a55d
3ee2b046
3f50a563
bf066586
3f031250
3d668732
be1ae2e0
bf872429
3d0bc4b6
4008e8e4
3fc51fa0
bfd4584b
be0885a2
bf7ddc06
bd2e7cdf
3f16f3a6
be863b93
3dd8d3b1
be47e6bf
bf90a5ef
3f30e341
bee0dca6
becb9d23
3e860b6f
bda5f938
3f4fb184
3ff50a32
bf71f240
bdadd690
3f61aba4
bf72d913
be6e44cb
3dd353f8
3f2c6206
bf3b5979
bfab386c
3fcdc496
bf8a56b4
3e4b69b3
be98a697
beea36b1
bf2a4c2e
be8c4830
3d87e6a9
bf8d1563
bf97a2ad
be736961
3db03c5b
3f0a2d60
bf14a1c8
be94c186
be6cf01f
40063bcd
3ed17465
3d6fb2d7
bf893ced
bf0a0d86
3e6dd8b5
3f25cb6e
3f46b65f
3fc5e1c8
bf3133fb
3f4073b2
bf16caa1
40081083
3f29a11f
be53b968
bef7b1d1
3fb2f1c4
bd2ddfec
c01ab2ef
c012923a
3e48f240
3fdee5f1
bd8a0d2f
be65d2d8
3ea4b0b0
be46a590
3f257bd0
bea42317
3e3a362d
3f16776a
befedf40
bfe10fd1
3e93d754
bf28d065
bf27c250
bf77a468
bfc7b32a
3eec2ddc
3ea11526
3ebe5dd0
3fcdab1c
bfb9b31c
3f089e99
bcf2b3f3
bfe33ca8
bf518091
3f634c2e
3d80d1dc
be769114
c001021a
bf856e70
bfa602ed
3fa2dca7
bf036656
3db5a7a2
bf9cab4f
be70e964
bfa239bc
bde175ad
bc72cc63
bf120843
bf1bc04c
bfe8381c
bf85b335
bf52b4bb
3d8d046c
bf578092
c02db643
3f8d1314
3f808593
bf26260f
3d64d727
3fcfb6c0
3ecbb670
bf73c42f
3ea41b4f
bf27409a
3f1aebe2
bfd9fd3a
bec00847
bf8c131f
bf3f41bc
3eb5f0c6
3fe43a4d
be2fbb0b
bd095110
3c26f88f
bf7eb206
3f743682
bf97f3c9
bf6d5bc7
bee3e303
3fdd4398
be568099
3fc0b818
bf4a5589
3e47a1ef
bf7893e3
4005522c
bff3ef9a
3ea99e4d
3f4c1d41
be95d7ca
be8703a3
3f816a8c
3f9c6eaa
bece815f
3f45ad97
bfbda1a6
be76b8bc
bf1bd529
bfd55497
3f1e6b1f
bf1398bb
c013e42f
be5afae2
3e84add9
bf17b16c
bfe82c98
3e7a8e41
bf2fada8
3f6062fd
3f52f924
3d941588
3e62a94d
3ff36f58
bfa4993e
3f288302
3fe2aa39
3f85065f
40099735
3e47c806
3f6c1a8f
3fe0b1f7
3f467888
bf1b173e
3e91861f
bf6fa3de
bf7e4bb0
bf78c70f
bff951e5
3ed1ddfa
c00cb5b6
bf514681
3f9f3d82
bf0a24cd
bfb542e1
bc791250
bfe79180
bf426126
3f42547a
3d0ba500
3f030068
bf537116
3fb891f0
bf8135b6
bebfa1e8
3ff399a3
bebe5082
3feb8170
3f9272a3
bf1b7f5c
be642eaa
bebf225f
3e4d9925
3e74e831
beb95334
bf1d7032
3e51a4cf
beef3a8b
3ec885f4
bfadfbb3
3fa5538a
3f00a17a
bf4bd4a4
3f109361
3ee3f80c
3f9cfdf6
bf450906
beed2778
bf1b5e07
be2fadfd
3f2ff748
bfc4f8aa
bf45bf86
3f54fb6f
bf1a62c9
3ec23f54
bfb667a2
beff2a51
bf82596f
be06e77c
3f5208a1
bea7bca1
3fa4afc5
be63f05b
bf5ac404
bf0b06ed
3f0f5ac1
bdae8127
bfa9e93e
3eb7cfd5
3f344bb0
bf83ed97
3edd0cf6
3f66e929
3f185996
3eabf42a
be556130
bf204517
bfb460c5
bd46b4cf
3f817b96
bf47533c
be1a9191
bf36dc79
bf034338
3efe3909
bfc2fab0
bf592d33
be741612
402807b6
3f83c8c4
bfcb660a
3d8a72a2
bd21aba4
bf3bb597
3e4a212a
bfb5bec8
3e0f9334
bdc82873
be1a96b3
3feae81c
bf44005c
3e57ea75
3fb3b53e
3e75db9d
c0042223
bf017c9a
3f3d91e1
40094aa0
bd0e8601
3fabf001
3f813f0a
bf2348d0
3ee7fcce
3f8610bc
3f371119
be9daada
3f915472
3f713c95
bfbb6e15
bec9743f
3ea18bca
3f853656
bff8956c
bf681520
becd0085
3f24119b
3efa916c
3faae7c7
3f31fa98
bf111421
bdeee73f
3f9b0a5d
3ee3f72f
3cd4a26f
bee1e310
becffde8
3eeba590
bfc6a8b1
bfada576
bead19df
bf6d9b75
be838220
3fb3b615
bf22e175
3fae34b9
3f166b8c
3f6d2b43
bfda0ccc
3f0ec581
be50e05c
bf80c568
bfceb26b
bed3f9d2
be3046c8
3f09b54c
3ee3c06b
bf7a6237
bef8e24e
3f91f678
3e932cd2
bf281909
bdd2a047
3f86ddbc
be40c0cf
bf43d244
3f718641
3fcc9262
bf745500
bed3c289
bf6c972b
3fbfde47
beadf504
3e24f8fe
bec34883
bfda52ce
3e5fc3c9
3f47f566
bf92816e
3fd1342f
4030344d
3e5d2c02
3f8cdd91
bf78b07c
3f2114d5
bea50de7
3dd9085d
bea0e6aa
bf32b359
be01959e
3f0bf51f
bf7c6942
bee15785
be3bc9ff
bfa2b557
3f990d1d
bf72bc49
be90205b
3f131ef4
bfbe8855
bf201ec5
bf45c0a4
bf7967cc
3f66ce45
3f24b204
3f08802f
3fb64f9d
bf2630b0
be704ca5
bfa66053
bf32736d
3ec53277
baaab5b8
3e1669c7
bf78ac84
bf2e32c7
3fc45407
bf26024a
3f1b7f05
bf0651f3
3f458d2b
3e1301f7
3f8a6323
3f9a2dd7
be3815a2
be77ca5e
3e6d4242
3fb34267
bf4edf6b
bf63b0b5
3e17cad8
3f4efb29
bf3e19f7
3e9806f3
bea6e10f
3f3570dd
bfab1d0b
be7c9aa8
3fc47688
3f76cbe7
bf8f2184
c0546061
3ead4ff7
3dd59877
bf6fd625
bf11535f
3f91aafb
3ffdf510
3e0b03e6
3fa78d9e
3e16ffa7
3f17c088
bee129d8
c01418fe
be92c311
be209868
3faeded4
3edd3e9e
3c11060f
bf2a1237
bf101628
3eeb7cf1
bf1a5411
3e9ec7d0
bfb94c1d
bf651c37
3fc1f393
bf68a0c2
3f55c6bd
bfb3e9cc
bc98ab15
c00317d7
bf5f99b1
3f34b0fc
3fc34392
3fb1f085
3fb4b3a0
bf95e2dc
bfeb1ea4
bf550036
3d4d140c
3fa8fbf9
bef5758d
bfc9ea98
bfbab02a
bf81debf
3e3d886d
bffd7fdd
bea4a0d5
3fa4782c
3eef4564
bf9e812a
be80f874
3d97a71e
bddc2291
3f43b5c9
3e2c2990
be257811
3ecb0d9c
3d93a8a6
bfbc3ecf
bf425f40
bfc19450
3d63e043
bd2e3003
bf4493e8
bf6e2b85
bf8650a9
bfa61aef
bf9d455e
bfbd8dea
bef575bb
c04d5e3f
bf94c654
bfac2f76
3fe619d0
bf421e5e
bdb51e09
3f4b6877
3f6ea9de
3e265933
3ecbade8
3f90b37f
bf21b4fb
bee93860
bfd85bf0
3e6d5736
bf23fa2c
4005e5ec
3fb6ae36
3c1ad17a
bdef05ee
bf06e3e9
3f606faf
bf1e687b
3f4aad16
bc0539a0
c0084594
bff8d457
3da5b318
bf9d9888
be14812e
bf7a4785
3c53239e
bd1b6445
bf90bca8
bf99e962
bec4b969
3f2ae3fc
bef6cbd0
3f3be444
3f13b1a2
3fa0370f
3dee5e4b
3ee2a440
bf509ad9
bf41a020
3e2dbd4f
3e912ae7
be344acc
bf2b3627
bebeedb2
befdfbbf
be524a7f
3e718611
bf0b8a0b
3d84cd34
c00ee44c
3f06c64f
be3a1f2d
3fc6248c
3f5a74ad
3ffdca7b
3efb728a
bfad0339
bf409b6b
3fef9115
c0299d1a
bff39679
3eec5c31
bed3e074
3edbc493
3fad00d8
3e0557a3
bfb86881
bd5ff0dd
bfb03450
3fdc7097
3e4a3057
3f0804d3
3e82c742
3fa635e3
be9e0378
c0049560
be89013b
3f961831
bf587d7f
beb2b4e9
bf642025
bf2868b0
3f77db53
3fa55f7b
bd605f3d
3f68f79b
3f87d1ff
3f9346ef
be3bdaa5
3e712aeb
bf3eb69a
3f931f6f
3d7c1cba
bf0de58f
3de863da
be30d9cb
3f3ceb85
3e192e15
3fc77072
be1e68f9
be5a5813
3dc45dbf
3f50fdb9
bde65a2b
bd7587c6
beab5d8f
bea26045
3eb25faf
bf0dfab0
be78b9f7
bf3dc601
beddea17
bf6f55b0
c0143b8c
3f552acc
3d867287
3f2a88ce
bfa40199
3f8385d1
c019ce58
bfa72f4d
3f88966a
3fec500a
3ee15a52
bfc99c66
3e593331
be89e9d6
bf22518c
3fce632f
3e8951f2
3fab6a44
be65127c
beb2eed0
3ea91896
bf0e23a7
bf82fe89
3ed6a870
bf8e0f52
bf5d1364
bf8f1ed3
3fae556f
3f56c03a
3ecc097e
3d96ee6a
be8604a6
3f61de04
3e38d730
bf343984
3f0953f0
bc1dec02
bf99d7f3
3fcb220d
3e90cc7b
3e95440b
3f1cd0f5
beaf38cc
bfec3a17
be2ad579
bf271b7a
bea0a696
3ec6d909
3e5ea6bd
3f27fbec
bf57306b
be27ee0c
bf229773
beca34ac
bf9ad5bc
4007af5e
c01646f5
bf31a133
3d125632
be56b2ef
3e208002
beb0ca88
bd681395
c02a2898
bf95714f
3fce1148
bf155c33
be6f6b59
3d1ad8c9
3e7a88af
3f6a4cc5
3fb1f674
bf90ba1c
bedb3987
3f05b322
3eef15ba
bfdbbe81
3f3c7d99
3f6cd397
be926ef5
3fa312c6
3c53fa14
3f9cc553
3d923200
bd4600f1
bfd4029c
3e9620ab
3c3ee6b9
3f7fc62f
bfc92e72
bfd1f21b
bf4d3f08
bf22c546
bfa1900b
c00e990a
bf649add
3ef715aa
beba7b6f
bf61e47f
3fa59b8e
bf96f2cf
3f59d4df
3ef60c4a
3da821fb
bfb2a2a7
bfad1871
bf363ac5
3f228dff
3f980ae0
bffe6471
bdccd94c
3e9c34a2
3e49457e
bfb7bd0a
bf7a260e
bf7148f8
3f3b9ad9
3f115788
bf0745ea
bf71a978
bedcbd81
3ea054b8
bf17f988
3ecbd983
3e99ab8e
3f334cad
bf1034f7
be1b0b6f
c01d112a
bec0f8f4
3f9f04d4
400f3214
3edd3444
3e645451
bd253ad7
be282438
3e8cd46a
3c907dd0
bea2cec2
bf65779f
bf88d3ef
bf05983f
bd70b8ba
3f100229
be19e81f
3eaeda22
bf49948d
3f6d5288
bd8a1ba1
be0c3712
3e1f4624
3e81c3fe
bd874f0a
3fdb8fbc
bef9cc81
beac3e80
bca830f4
bfe3ce01
3e18aab5
3e9b6998
3ff01b7b
be36a62f
3f6cc6ff
3efe41a6
3f29a7b5
3f2eac08
3f2e489b
3fbe821b
bed311d2
4004ce84
3ecdd672
bf229c50
bf770e2b
3f84b3ca
3e8eaec1
bd73be1c
bf28a8ff
bf3ceb3c
be776d73
3f854ad6
be7782ed
3f93ad0b
bf7e02ae
bf08b56a
3f355831
3f7d43b7
3ff72e6d
3fa9f30e
3e9b096e
3f12d6f5
3e4d9846
bfaa31b2
3fdadb64
bee1f1ab
3fe53d63
be40b705
3f9ca01c
3eae10ec
bfcecdb5
bf0fc6de
bf75f152
bf23b838
3f486124
3e8781f6
bdd0a174
400cbc9a
3fa5a37a
3c777b88
be9b7d3e
3f488cca
be550987
3f864bac
3ee4807f
beb24a35
bdc72392
3f1317eb
3f40dcf4
bf0a9985
bf25747a
bf659d90
3e248817
3f9bc5f2
bf7f0d8d
bfea4563
3f9e448f
3eb9b5d6
3ff10443
3dc13f75
bf2ff7e8
3fb334aa
3f937e44
bf3b0741
3ea3f503
3ecab3d9
bfa27636
3f77e251
3e29abd8
be330731
bf6d3dbb
3e5b6547
bed93944
3f4f73de
3fc33fa1
bf97f371
bff99b0a
bf49ca10
bf802300
3fb241b1
3dbe3b2c
bfb4d226
be86a578
bf60fa17
bf430139
3f96f63a
bf16e6f7
bf86575e
bf138576
3fa33b34
bfbe800f
bf97341c
3eb99e5e
be78036e
3efac0c8
bea749c7
3fc7a7fa
bf142e21
be0da2fb
bfadf2cb
3dab2069
3f20e8b2
be985bd0
bf449981
3f148c23
3d6c1245
be0d0056
bf69a607
bfe53cd7
bd06d4db
3e962b5d
be86592a
be4e5473
3c80c091
3e72a4c0
3d9e5fb6
3e3d3667
3f0167a8
be9619ba
beba504e
3f0f9a70
3eb11c81
bf3a1099
bf896241
3e4d6e09
bfbd4761
3f822aa9
bfaa83fd
3e1fe0eb
3f5b7d9a
3f3b902c
3e517b12
bfc85e70
3fae5d25
be874d86
befad0c7
bdee66e9
3ea326e0
3ef3e2bb
401d6015
3fcf44fc
bf5492aa
bf4211cf
3fef63a6
bfacf0da
3f11bd41
bcea35b2
bda95a67
bfee1382
3ea72e65
3f344a08
3eda1382
bd8f0ce0
bffd03e1
3fea5a98
3f4e38bb
3f5866b1
3f281614
bee0ab86
3fc5b750
3ef16026
be97c5e1
bf825eed
3f40bd5f
bf841d59
3f1f2191
be69a443
bf51865b
3f80f86b
3f10ef1f
bfe67707
beb71de6
3f3c3c91
3f6876f0
3f5a9f9f
beed3c65
bf42840b
3f37949a
3f6fb1ba
3f0de8db
3c584b78
bfb18c0e
3d8826c2
bfa24c6d
3d3ba3ad
bfa7a9fc
3f85c57a
bea153aa
bf3b0eca
3e925e00
bd7ae7c5
3f9257f3
3f968959
bf8afeef
bf99239a
bf9f8711
3f96b515
3e786c1c
3f061eb2
3f2d45dd
bf29172a
becc0619
be45a098
beaded41
3f11651b
bf1ef917
401b0e8f
be2d5e27
3e080ba9
be9c156d
3f8d75e9
3f239c1b
3f224991
3ea52225
bf9f4d63
bfba0229
bf28ebe3
be1cd132
bf1ad8e5
bf04c9ce
3e32968a
3f92918c
bf248801
bf39e16c
becbbd8a
3e411a24
3f231b64
3f01fc08
bec0414b
bf830bd9
bce02514
bfd75d3f
bf8ab3df
be0eca32
3e91ed5c
bf21a631
bc578506
3fe2fa71
be929d5c
3f0cea0d
3f22cfcf
3e48893f
bf5e0d95
beab46d3
3d8162c5
3f24fa8a
3f56c2f0
be92b617
3f7c6497
bf0117cb
bfc37091
3f809b2e
3ea69223
bec4f3a6
3e5b7a12
bf078eff
3d8b594f
bf9d32ec
bcfd289e
bf9d2bc6
bed8da3f
bdf98e4f
3fc09b4f
3e930e13
3f2691bd
bedf6600
bf48e828
402bffdc
bf755fc0
bf1ed1c1
bf8085e3
bfcbe566
3f7bf37c
bf3dd5a0
3f6c9f5d
bfe336e8
3dd75f30
bf342b28
bf7c0db7
be838544
3f75b9fa
3f407e9c
c02521c1
bf904091
bf9b0e57
c03b768c
bc2551f1
3fd18af7
3e9f6391
bef4e33c
3fb5c58a
bf67a96b
3f306b4d
3f2445c3
3ecea9ab
3f0d1957
3ea14185
bf602ad6
bf7f4e83
bf5bd791
be46daa3
3f874778
bd499238
3f013a4d
3f816fb2
3f16e950
3eca7f88
3fa85334
3fcfe35e
bfcadb08
3f51c8de
3fdb9606
bfa42715
3f8911e6
3ea9448e
3f4994ff
3fa66d13
3e5c8e0a
bef8990e
be9e454f
3f063e37
3e7beebf
bf7f4c5e
bf790640
3f37bfda
3e70f6f8
3fa90332
bfd97adf
be098092
bf8ddc21
4026061b
bf9432e8
bfb5f77e
3fafb2e1
3e9cfe34
c00cfcf1
bf86c953
bedd2fce
3f273ad2
3eefce2c
bdb865f8
3f889565
bf4da202
bffa3479
3f4ed205
bf4ef276
3dfabf01
bf927a95
3fa9c85e
bf7ca581
3f798f83
3e5ebc28
c027daee
bfde150c
bf90f7fe
bf687d8f
bf816fa2
3f832ba5
bf6d1eb8
bfec12bc
3f03586c
3e1265d9
3fdb8c2d
bec74027
c0063137
3f562377
3f293c08
bd8a55ed
3deb3e9f
bf5f4079
3daa14c3
3eb28f46
3f18fb08
3f27c6e5
be362581
be673ba4
3e795cb9
bfec4087
3ecbe4ba
bce5ee28
3ff05978
be26cbcd
3f1d13be
3f4bfd1c
bda6d340
bef18227
3ffaecdc
bfabac7c
4010acd7
bff6cac6
bf7e697e
3eea4a5b
3e8ef2fa
be3638d4
3fba8ee3
3fb424f5
bf0a08eb
bf18114e
bedff35b
3e357a5f
bf4115bd
3e4e4ad9
3f200253
3e5508f8
becfadb2
becbc0f5
bf9db204
bfefefff
3ea3c33a
befa817a
3e6c84fc
bda19817
bfe9eae3
3f0b3252
3ebc736a
3e6ce73e
bed97c82
bffeb977
3ff7a850
c054967b
be33255c
3e5f1554
be4ff548
3f8afec0
bf1ac011
3ef80ef5
3e6f246d
3f12d699
3e872146
3fedac30
bf811f73
3f035c7d
3f869f9a
3f884b2e
40209dde
bf87c6b8
3fed0f39
3fb739f3
3dff693c
be8160ac
bf7e3307
3f10e7f3
3eb6c89b
3edf369f
3fc3869d
bf7f951c
3f84d490
bef61b6c
3dc31b50
bf14e0a4
3f6e7a3e
bd68b443
3ce8aa37
3de24bd1
be4362a4
bf17149d
3f821279
bf83c1a6
3f40ace5
3f0096ed
3fbba12c
3e727cc8
3ef6b0f2
3de1938c
be212280
3e65ed61
c005faf0
be9da2ef
3f99a8c3
bf1474b8
3e2efe50
bf8d7faa
3e944d14
3f65e5b6
bf6bf1e3
bf00b784
bf4e6c65
bf4eb4a8
bf551a1c
3f90236a
bf671abf
bf44bd30
be78416c
3f069ae1
3f448ef6
3fc36dee
3f0a7df3
be46ab72
3e178310
bee34c9e
3f48d1cb
bf0f9e24
bf85a5f4
bb8f2e04
3ec74fb9
bd9e54a3
bf56a97e
3cb79fc7
bf20379b
3efaa976
3fbf6747
3f5043ce
3e998e5b
3e9d0657
bf9431bb
3e123d22
3f8e0940
3f089095
bec67d83
bdfde4f7
3d861d71
bfbf1895
bf8e9f3f
bf4a428e
bfa4a144
3f135bc6
bfdb1a6c
beee5d28
bfb0be59
bf822f7c
3f07bd10
bdd804ab
bec1bf5c
3fbf0d62
3f12498d
3f0af611
c0005270
bf2746c0
bf4683d1
3c237b73
3e4be2a1
bec0f0f2
3ee9e3ae
bf9ae463
bf6462bb
3f9a00fe
3eb30711
3f4c0b8c
bf9c0444
3e6765e9
be63177d
3edaf35d
c0093ae8
40055f8b
bf2ba0a2
be28ffee
3f649d99
bf5ae20b
bf057712
bfb783c8
bf0b1dcf
bf023f0c
3f0d330b
3f2a31f8
bdc0532f
be4c17a0
bf41fcb0
beb3b18e
3f2f981b
3f167f85
be9a7db6
bfa6874d
be4036a2
3e2abf93
3e633c92
bf50d9d6
3fb0119c
403e5d41
3f0ca2f4
3f5e2c06
be951dee
bf19f2fb
3ed046de
bfa45d08
3e45f737
bfbc2275
3f0cf44e
bf567426
3f938353
3fb90e4e
3f95188f
3db59184
bed1775d
3f8196c7
be963876
be890c81
beb6658b
bf4cb9a8
bf4f27f0
3f8ee9e4
bf913ee5
bde65c09
3f3850a9
3f1a7722
3dd823d5
3ffbb7e6
befc880e
3f398fb5
3f1ced43
3e77f574
bf45a440
c019811a
3e2e4ef5
3f7d672b
bdf165ec
3e96c1ed
3d587b3f
bf97055c
3f1a930f
bf1e799d
3e52e742
3fbda0af
40367fec
3f3d7d48
be436e17
bcff3c53
3f87d014
beaa91ad
bf908eb3
3f24d126
3ff35da2
bf85b6cf
3f6f7df6
3f74cb00
3f3b0d62
3f1cb0ab
bfc43466
3f8743b8
3f029a9c
3f84bca7
c01047a9
bf45418e
3f18f2d6
3e9fba1c
be2a9fab
3ed16f8b
400f1dde
be86c55f
bb869df2
bf7bd563
bf9ce8e8
bf1fd826
3e1c1d61
bfa3db05
3f13156d
3cc81b49
3db42d11
3feb630b
3d7dea91
bf98a9eb
3f440e55
3ed865fa
3fd39f22
3f2620c6
bd991b4d
bf34965d
bf4bbda1
be4e1443
bf3ed835
bfa9bc97
c00a3ea1
bcfc65a0
bf0aab83
bfb4768f
be0369ad
be16c657
bf8297c8
3d6d1ea0
be33f197
3efc22b2
3f1a0409
3f679725
3f2be444
3eb4db6f
bff753e2
bf0539e0
3eabf225
3e877f68
3f5d964b
3f4d4827
be302fe8
bf4a52de
bf3af3ef
3f94a33c
3e69b756
3fe97a01
bf965689
3fcdc778
bebddaba
bed6e70e
bf6463a3
beb30610
bf40d2e9
3f2f21a0
befb0ad9
3fa60bb9
bf0059cb
3f6c9b8f
bf3f4a49
bf61398e
3fc2f4dc
3f15d993
3f9137c0
3eccd38b
3e2338fd
c00c8726
be16aad8
bf1bce28
bd244289
3f550132
3f594756
3e6f0e60
bfa8c5bc
3fb2761f
3fab9e34
bf1b75da
3f1b5a0d
3fd897ae
3f995492
be558c2a
3fae5608
3db6c4b5
bf0c9ca8
c015fa94
40048219
3ef26cff
3eea3c53
3fa18563
bec6566a
3d3a9d26
3e19b974
3f258b20
be41ad13
bf1fbb5c
3ffbb505
bf59afda
3df369bd
40147069
beedb8c3
3e0d8955
bf0ebaa6
3e8e83ed
3f77f847
bf43a869
3fe82bf5
3f031ca9
3f98c513
be9f9609
bef86526
3f15d48c
bf3ee609
3a96cf15
bd891fe5
3f36d0bd
3f84521c
3e968a82
3f3d8d42
bf9bba2b
401facef
bfbb3f80
3e8762dd
bea467c6
3eed5803
3f7b7402
bf44b931
bf933d12
3f9801ae
bd32719a
be5b8e98
bea8a185
bf399239
bf36f373
c0021020
3f395620
bf26734d
3f73651c
3f94b031
bee24e48
3f762516
c00bd362
be8d2aaf
beb3f08a
3d3f19ee
3e48c3fc
beb83885
3f78b95a
c006fa40
3ef16fe4
3ee0d35d
be1c58e4
3fc3073e
3c478fcd
3f871519
3f348782
3e9d8323
bf63fb29
be723ae1
c00d0cf6
3e946133
bdf9f793
bfd221c3
3e780313
bdc43fff
3ef8b599
3e41943a
bbb0030b
3f0d4817
3ebd77b4
3f2abb14
be2c403a
bf4a59f0
bf121ef2
bee6c16f
3ef950f9
bda7e3f5
3d1780d1
3f3c29c2
bf2241ef
3ddf824d
bf42109b
3f22e6d8
c0192e60
bf0084cd
beab3180
3f7581d7
3f7dca06
3ecc8d87
3f44a267
3de5c200
bfc9f8a1
bf258099
3ed90ffa
3f454952
3ed140b0
be143632
3f1f82aa
bf813329
3ebd0dbd
3e53d612
bf1472ff
bff458f8
3f9109ae
3eaff6e2
3ee6a8be
bfe867b7
3d69a987
bfc91e07
bff4f512
3f6c3ae0
3f897dd6
be0c4270
bffc61ce
bd590bf4
3eea9368
3e2b1eab
3e1f074a
bf218775
3ee2125e
3f86fd7e
be94ef54
c027081c
c01eb203
bf90813c
bf2d80da
3ee1490c
c0091af4
3e939eee
3f07e09f
3e53e449
bf33ec33
bf6c21f7
3e9b6821
befaa69c
c020b6b9
bd92235f
3f77c67e
bf828487
3d27a352
3f21e823
bf733af9
bf699161
3f169bd0
bea9cfbf
3f70f2a4
befbe76f
bda19969
bf0ce733
3f98d483
3eff69db
bebc7522
3fb9a3a5
bfe350bc
bf50ae95
3ff65959
400a4636
be7049f2
3f16b31f
3fd54c2f
bf9d3026
bfb53660
bf8404f3
bfd07e59
3f406f25
3f85cd81
bf8ca070
3c09a876
3edc7807
3efee91c
bf6a5596
bdd9504b
bf9f695a
bfa71823
be516b12
3f6e4a2d
bfb29885
beb14921
be033d32
bef50e47
bf9def53
bed20a75
3f85a032
bc739f02
bfb5c8fa
bf986ef0
3e4688dd
bf7b8cc9
3fb97ed7
3f8b46a8
be52ba1e
3f0bac14
be867dc8
bf3da50d
bf25b7d7
bee98b7e
bfb48e5e
3ecd94aa
3f7d6549
bfd3f617
bf34167c
3ff678db
3f466f2d
bd7cc177
3f158ef8
3f49958d
bf21bba5
befe520c
3c384f52
befc3877
3f5d13e1
beb10958
400c8088
be9dd20a
bfc6f58d
3ea1bf57
bfb2d1a4
c02756d4
3e37c125
bed6a381
bf6fd729
bda58820
bfc9a28e
3fb07709
bf55c6b2
3f430d07
bf5f3e24
3f5023a9
3f74bfb8
bf890524
3f0998f9
bdf0a5cd
3f5cda74
3f20b599
3e96f2f1
be016bdb
3fb2987d
3f9f574f
bc65410d
bf5e8159
3f1630d0
bf8f023b
bf16f7f9
3fcb9d90
bf39ea26
3fd92b4e
3e642c4a
beffcfc8
bf975e64
3f08580f
3f80ccf3
3fecfac3
bee31049
3d32ca65
beeedf13
bfa90e77
3d10a0ab
beaf63fd
bf5cd7d2
bf8a326b
bec7fd26
3f9a6457
3fc72f30
3f4ffa30
bf9e03fd
40087a99
3f130e67
bd2e4567
3f125c16
3f7d8834
be504d75
bfde3c81
bfbe50f2
3e9915fc
3f74a2be
beeb8b1d
3ea1165b
3e10dd3f
3d85147b
3eea8a9a
bed98d60
3fb46206
bf89e41b
3f04e2a1
3cbfbd89
3f822588
bf0f06ba
bdc5dc17
3f64023d
3f30f369
bfb1b48b
400cb6eb
bf3b608f
4000e028
3f4b025b
3efdf594
3e814b76
402d6800
bec526f5
3fcf0a4b
3d80a4b6
3ca97748
3c289b9c
3ff5fed4
bf210d86
be61e91a
bf710fdb
bf3c76e7
3f5bed92
3dc1d272
bf7f26fa
3e7be4e7
3e26267c
3f513f3c
be5a45d6
bf9118ca
3f53d069
bf772f65
3f1a74c8
be9c6761
bf3c1e44
3d0de762
bfe8337a
3f904562
3fcd964b
bf22dde7
bea689f2
3f12b0f1
bf3a2ea9
3f4a7e6b
3f3de8c7
bf13cac4
3e117a5c
3eb35c91
3f0e0146
3dfaad0e
3c6fae47
be1651ac
be6efcce
3ef9d85d
bfc0c982
bc5c1f9e
bf042594
3f41c304
3f9ae154
bf800c27
3ec92996
3f9f68cf
3f096159
be4dd5a9
3ed22860
c0012c7e
bf436d55
be2b0b99
bf0a0a96
3fb8ff00
bf0f9329
be30795a
3ffdd52e
bf5ac055
bf1e5ccb
3fc9148e
3fa79975
c01d4d8b
3f4c4edf
bfb689ce
3e9ec3fe
3e18b3a2
3fee951f
3f5c36fc
3f18de7e
bf20950d
3dafd7da
bfd67376
3bcfb380
be423786
bf30cdd8
bd954b9a
be38fd3a
3f9171ac
3f38624c
3ede7ebc
bfd2b9fd
bf42e59c
3d74958c
bf057ce6
c043b4c2
bfea54d7
3f11aa46
3e77efc8
3f466242
3fee09a0
bde17749
bef8fd01
bf63ca73
bf9318d4
3fa13901
be4461ac
be9b7e3c
bf804b9f
bf563f48
3f46ffe0
bf99e248
bf1b3f45
bfb1abc1
3f764a1d
bde06573
3f643b82
be82d425
bfeccbdc
3decb2f5
3fe55585
bf45788f
3f5b92b3
bfceb97c
3e0faf62
be65f443
bcada34d
bdc64633
bf4492da
bf0cf3b0
3ead459e
400e51d2
bf81dc07
bf96bcec
bfaa5f67
3ed03898
be949ab7
be4e7020
3f7fa5be
3e288f38
bf46adcc
3f75cf52
bf18734a
be01ded0
3f859696
3f009801
bf02aeea
be8cc2ef
3e1684eb
3f0ef5bf
be501e9a
bf54b1f8
3f097655
bfe9c00c
3ffe7d9b
bea69d45
3e0a8c4f
c02b5269
3f423ba2
3f0ea0f5
bf946f2e
bc8ba906
bd951005
bf0e1bfa
3f4c9142
400ec9b0
3ec16540
bdbd0f0b
3ee675d2
be8576a0
bfc7438b
3f229504
bef1c306
3e5dc12f
bf39560f
3d9e8f4a
bfec59fa
bfa4bb90
3f22166b
bf2da3ea
bfc32edd
3e7a6bf1
3fb031b9
3fba4c33
bf04057c
be8a34fa
bf90bd03
3f03562f
be75ac1f
3ed39ddb
3f892440
3e8c40c7
bf73b3e4
ba6291b0
3c43b222
bf1cb50f
bf6802a5
400cebe1
bf6df316
bfec4c82
bf252a4e
bf9d84df
3dfaf65d
bd7b109e
bec439e5
3fa40ff6
bf14481e
3f2ea471
c003f3ad
3fe60180
3f316b35
3f940d95
3dabda4e
4012c4a6
3f7ad4d3
3c28eb1f
3fb09da1
bf7c8f97
3fed0f0d
c00fd116
3eb70081
3f018e61
3f17df54
3fb70afd
3b82ba45
be95d759
beaa524d
bb227760
bf38a533
bfaf8cb8
bee0eecf
bfbe0712
3f9c244c
bf57367c
3f86b639
c015b0f1
bfe65e13
bfef790b
3fd851d8
3f0a663f
3f6ed9d6
bed00913
3fa4a237
bf9fdd1d
bf014587
bf2ed458
3e0c950d
3e8262a0
beb59679
3e0aba93
bf203bcb
be8819bf
3e7dfc63
3fd3b326
bf25535f
be0ca4a1
3f7e92ea
bdfc255b
bf9873fe
bfad2ab1
3d97d9f9
3d59e5d9
3ef07f93
3e43ff7a
3f162cbe
3f62871c
bf02e72e
be0f4d74
bdd419f5
3f8607e3
3f24e4de
3fb8ed8f
3f3da602
bc9fbb35
be94312c
be6a523e
bddd79b3
3e7b5492
3e89bc55
bea09779
bf79ed19
3ceb7f9f
bf9ae94f
bfb4c358
3f9e945a
40120d44
3f3f3332
3f2313ce
beeb9f42
3e85ff58
3f13f751
3f1c571b
3f0115bd
3f774243
bf793ff2
bfdb5208
3f731b02
bed2896f
3e942127
beb96a6c
beedd16b
bf47329e
beb39a1d
3fc3ad39
3f0635b7
bf60bd5f
bedc3e98
400def37
be37f16d
3f3a7d41
3e0bf915
3f3cb3ed
bf87e834
3eed55a6
bf58b2e4
bec42e7b
3c5be41a
bee7bb8d
bed85950
3f878b9f
bf2cc2e4
be791ee6
be577c6a
3f850eb7
3f0a2266
3f0d1fbf
bea60ded
bef84c67
bf26c8da
becc4f45
bfe17d2f
3e42fe08
c0181d23
3ec7d358
bf177c10
bc89469b
3f5b2ff4
bf824c33
bf283be2
3f68a0f7
3ef4e794
bed2d766
bef39ef1
bfc24a47
3fe5f424
3dd7fd40
3ed068f9
bfcf844c
3db89891
3e361f07
bf97f5f1
3e7a4955
bf4fb549
3f841f20
3f8352bd
beac8d61
3f8ad07b
bf2b36c0
c0176dd3
3eba896c
bd9cdef5
be30ffc7
3f1605f3
be928590
3fe04ab8
bf912f55
3ef86fcd
3f4252e7
3f4c4388
be6d564c
bf8f123e
3e016570
bde43c02
3e79c69b
3e5af685
bf5b5b82
400e1270
bf52f0b3
bf5ba5b2
be982709
bef61556
3e69f5a4
ba5c958e
bed31727
bf98bf4c
bfed139d
3f5720b1
3f370c65
bf462053
3cdeaaea
3f1032e0
bf51301c
be20b8d3
bfb35e7c
bf34e1e8
3f616608
3bc007f5
3fafbe36
bfc72765
bc7e4480
bf0cd451
3f49ef74
3fa507f8
3e8d69fc
3f0b3a9d
bddb4e22
bde12398
bdd1f3be
bfc469cb
bfa8c8d1
3e457c7f
bf09266d
bc8d24d9
bf0893b8
3eba2693
3feca1da
3f694ae0
badd990a
bf0e000e
be8c52d3
beb45e16
bf084460
3f056ac8
bec45d11
bf8698e8
be93911a
3ba7cd34
bf5d655c
bf96452f
3f853d5d
3e8df5ae
3f0140f5
bfca1de1
3c3057f1
3fb86a1b
bece67ca
bf562967
3c9ea2aa
3ded86f6
bf47848c
3f42a1e8
bfaae38b
3fa2460c
bf7a96d1
3f4689b1
bfa61b54
3d85d0e5
3f77d33e
3de4e82c
3f917573
3faf7791
3f18cff9
3f897ddb
3e36d0ce
bfc7fdb5
3f2eb776
bf14f1f5
bfcae526
3f6fd1e2
3fc06945
3d84c13d
bf165c6b
be85a19f
be1d30bb
3e0bd758
bea08386
3e45c4c5
3f799f5d
3f63e1b3
3dc85061
bec2a8af
3d370cd2
bf72e365
3fbcbebf
3fef1b1b
3ec6171a
be2bde36
3f7b574f
3fd6fa9c
be73e41c
3fba6374
3ec10dd9
bf1ed043
3f72c300
bf41af79
3f1f6079
beb8c4c2
be75f6d5
bfd8166c
3e9b1cf3
3e6ea871
bf81b760
bf77a24d
3edb76e4
3f921b28
bee0be1c
bf86ed57
3f26f358
befa682c
be7edafc
be9089da
3f17e1ed
bf2238b2
bfba1387
bf993a75
bfb42555
bf25dd00
c00fd6b0
bf208e4d
bf9f35d0
bf0f1c6e
bfa2aa6c
bffd83ab
3f66f005
3f8440c1
be35fdbe
c01244ea
bd82a613
3fcd2e37
3f086777
bf6ed5c5
3f551ad8
3fd355e3
3fe7fbbf
bef0c1a7
bf0c4d2b
3ed5cd2c
3f9b5755
be7c9787
bf153476
3e80820b
bd89daa1
3edfcf60
be74ed3d
3f8f74e3
3ee572dc
beb10695
3d797616
3f98a138
3fb23c14
3fc6cbe3
3f2cc9d4
3d2c211a
bf46d4e6
befb0225
3d063385
bfc7dc9d
bcda01ef
be86e620
402da09c
3de244bf
3eeeb452
bf1eaa74
bf5de594
bed9027e
be3b5789
3fee76cf
c06580e1
3f451652
3f4c6b5d
bebeaa67
bf49570e
3fc552dc
3f0edf19
3e6f4a68
bcdef89a
bf506804
3f0f61e3
3ca01b02
bef9a3eb
bbcd61e5
3f197c59
3e4f432e
3fbfa4e8
3f86f661
3dc20f23
3f2fca53
bee14104
be66e4fb
3ec6b95f
3f227d52
3ea8c265
bf94df20
3ede3dc8
3e184bc3
be61061c
3f7b50ee
bf84a6f1
3f15b4c6
3f4d3406
bfc365cb
c00254a1
3f9443a8
bfc82e95
be0d4d6f
3dd67e95
3f35231c
bf719447
becd04e3
bea75882
c03e9e6e
3f2cb8a2
bfd4ea23
bf58275a
bec8f54b
3ef298a6
bf72ba2a
3e9aae34
3f78656f
bea377cd
3fb06d2a
3eab2ee4
bfc84dc0
3f3ba395
bf47e981
bf8561e0
3fc4b3ed
3f1eae81
be36063c
3f411cb1
3eb0bb30
bea02fe5
c0073124
bf0995a1
bf348377
3e87cb55
bf0982b8
3fae556c
3f9e1a08
be616c3e
4002e5cf
3f2dad38
bf0c9532
bedad6b0
3fb7283b
3dda8501
3fb0432e
3f04f0a9
402c2d5b
bf4daf00
bf9b8d0e
3f81684b
3c166e56
bf488329
bfb284e2
3d799894
3fb78e68
4003de10
3f5f8093
bf916632
bfda5c33
bffdae8c
3f83dd39
3dba0c8d
3f138a80
bf93487d
3faaba45
bfac9cbb
bf998f29
3eb7f1cf
3e76bc9c
3ff78e3f
c01c203a
bf06cc19
3f33a8ec
3ef15833
bf8d9311
bf0025e0
bf7f2f4c
be45718d
3ed1e270
be3b0cdb
bf4aa9a9
bfa2fef0
3ef2f0c1
bedd807c
3f8ffcac
c00ef410
3fbdb006
bf2ae5f9
bef56165
bf288000
bfbcc18d
3fa293ae
bef3376c
be5cfd12
bfc12a2f
be3dcd0c
3fa49931
bff76b6d
bf2a3954
3e3ff6d7
bfe4f687
be3cb16e
40272473
3ec22ef9
3ef1a1eb
bf8e4c86
bfa35b66
3fdd4d9f
3f277b9a
bf08e1d2
3f955430
3daac093
3eae7637
3e754fc3
3c41b858
bf87d67f
bf6a2047
bf40448c
bfb8f934
bc21e128
bd4d91d6
bfaf2158
bfbeb939
bf53c175
3d7fe60c
bf50d561
3e44f172
bf27b3c9
bf7d58be
3e68811a
bdc6b736
3fa5e254
beac9a18
3ead2cc6
bffedbc9
3dd800e4
3f90efb6
bf881caa
bdba93d4
bfb886b5
3f424791
bfa9c310
bd364363
3ebea66a
bf348a9d
bf869573
3ed472bf
3ff007b4
bf1c1052
3fb1495e
bf9c7589
3e7d9e9b
bf3268cf
bf8012de
3ecb5e5a
bffc274c
beeb050e
bf906117
3e8a3390
3eb1742c
bf8cf22d
bf240cbd
3e3f5a3d
3e2faeac
bf605ed5
bf0c8686
bf6769d1
be04d5f2
3ea46f0f
bfaf25a6
befba07b
3f55c17d
bf61db53
bf2c7c39
be828523
3f583b8f
3fa9120d
bfe518c3
3f050d1b
bfb7cb79
bf5f8e26
3e520392
3fa299c2
3f2b298f
3f003ea6
be8d1c1f
bdc547aa
bec14ee4
3f11a2af
bec914a2
bf54a42f
3f09a5c2
bee8e5b8
3e739708
bf8e4ba0
bebe6e26
3f3254a4
3fa4465a
3c6385f9
3dc7ea9f
bea160b1
3edcc620
bff5131b
bf93ff0f
c023862f
3f0549db
3f76ac45
3efd0410
3f9cefde
3f8022a7
3e075e3f
bd78f747
bd62ee51
bf172f48
bedab230
3f3eff61
bf33374c
3f6f3979
beace5d8
bf9fd6f7
bef1dcba
bfb6c3a2
bfacf777
bfbc744f
3e544c3f
be3143c4
3f7e091d
3ef4df43
c04d836a
3f9a7037
3fe881a1
3d338ad6
c00e3acb
3f43cc10
bf70eff1
bf3dc677
bdf61a76
bf691875
bfb158d1
3f97de63
bf26d43f
bf7e9dca
3fab7914
3ee96347
3f0bf5ae
3fafa928
c024b8cd
bc8619a9
be90df01
3eb73724
bf4782b0
4008c326
bdc9c3d5
3f486c84
bf0943a5
bf003729
3fc1f076
3e55f006
3f0abe83
3fa855c3
bd943fa7
bf52b192
400436ed
becacb9a
be89d330
3ec0222c
3e418dd3
3eccba59
be8115c6
be967b40
3f5018ab
be7a6c83
3f95b4cd
3f565343
3dd2f274
3f0ffe2c
bfba66a1
3f2111b8
3f6eed18
bfb07622
3cc5f0ce
3f4936fd
be3d0413
be937d4c
3fabdd01
3f56b27f
3f9b6a9e
3e9fab49
bf1c7089
3e8979f5
bf05214a
bfb59625
3db8ab95
be79644b
3f4b2d2a
3fa6b0b6
be620103
bf562e69
3f0db194
bf421734
bf4cc4ee
3ea0321c
bf245077
bf70c100
bfd894b4
3f6d55d7
3df4b18e
3f642cac
bf0207e3
c00c56ce
c0060771
bcd555de
3fe6f071
bfaf7599
3ee558aa
3eb9c356
be1af5ba
bfd32fda
bfd92604
bf80b991
c0277b3a
3faa718d
3ff61b43
bf775842
3f31072a
3cb3ca78
3e860232
bf457ac5
3f8fcc3c
bf0f78ff
3ea14e56
3d80880c
bf2fc063
3f1780d6
3f2bd11c
3e490a91
3ee19a9d
3e3e61a3
3e899a87
bd45ff1e
3fa7d403
3f0cfc8e
3fdfb60f
3de0f0db
bead98d4
3f9cc8d9
3f3d8862
3fd92c42
bf93468d
3fa501bc
c009eafc
3e95a5cb
be917f14
3b96df6c
3f44ec86
3f56fdc1
bf3419e2
3fa944eb
3fccfbc4
bf13468c
bfe8343d
bfac68fb
3f1d2d29
be870bc1
be823073
bf0af6f6
4030d807
3d90575a
3f2584ec
bf93a136
3dec11e7
3f2431b6
bea52c1b
bf128d8a
3ea2d468
3db72d7e
3f6eedd0
bc106772
3fe3652a
bf954f7c
bd34c617
3eb227e9
bf2bf978
bf9e2900
3e8e4b58
bf0f8fcd
bec63de1
3fb49ce1
3fb0696c
bff2c51f
3ea14d60
bf3acd05
3c3e0e83
bf3c17ab
bfd1aa73
bfc1bd31
bf882b09
bc0bc6e2
3d9dba42
bf91f2b9
bd01deee
3e66e5ad
3f8e37fc
bf9c5561
3ff55970
3f280a5c
3fa9a97a
3e7bc3e3
be5c5f42
bf596bba
bf9f0b81
3fffaee9
bf207d6a
3f25ff61
3f52a5f5
bf4c0a7f
bf501778
bfa96e27
3f48c8a8
3f82d209
3fa692a9
bfb44c0d
be44f9c3
bee84608
bc2a457a
3fe4781f
3e81a524
3f110a80
3dbd35d1
be72f0ca
3c227be6
bde4901f
be90bc00
be461a0f
bf578688
4005a07e
3e462a4b
bf55c664
bf928604
3de03203
bdd8cd0c
bfb74058
bebc0f27
3dce79e6
bfaa9ee4
bf4ee584
3fa112d2
bf4f23d4
3b936ef6
3e3d0eec
bfc688bd
bead6587
bf0531dc
3f81d1fa
bf41e37b
3f9024f5
3d9f6613
3ec4c9ae
bf948a7d
be80770e
bec52baf
3e6bc8a3
bf73194e
bd75531f
3e75daee
bca76e0b
be6a0ea7
bfbaaa15
baa02873
3fbfd649
be838fd9
3f517ead
bf7f2861
3d4208f7
4014a9ed
c01b5b42
bf4e670c
bf8e1dfd
bf4c4123
bf60fc2f
bf6fd625
3f69ad48
bf466b07
bed9e113
bddc3069
bf1e979b
3f7eae47
bf7297d5
3e85a731
3f617250
3de51d27
bfd9014b
be9012f4
3fc69224
3eba7bf5
bf85f03f
3f4c2603
bf687b62
3f17b64b
bf21a52c
bf0c0c81
bf1643dd
40091d99
3f47d018
3ee8eb96
bf8e4df2
bf3264af
bfb11e67
bf6de672
3f7bd2ec
bd22b492
c01ede52
3f345efc
bf363080
bec9b3a1
3f8614d6
3e952ec1
beebdf78
3f325f43
3c759af8
3f095e59
bf5ac1af
bf55f292
bdea8bd4
3c6a4b0b
3f043322
3f5838c3
401496c0
bf868296
bfd9d1ee
bf535355
3f4ef8cc
3f97805e
bfc43b38
be613ca0
3da2cd90
3ebdd728
3ebcad69
bf38ba99
3eb6de8a
bffbd6c9
c03a1652
bfc54f53
be9e82a5
3ea905fc
befd625a
3ed0131a
3f85d609
bfdb06f2
3faa1ab0
bf51b29c
3db6d022
bf8856f7
3d597737
be43d1bd
be6a12ed
bf5c9f8a
3f42206a
bec72deb
3f7c27d3
3e7c610a
3f4df06a
3e8a28d5
3f83e40d
3dc38c11
bed4a632
bf0857fe
bf80d19c
3e825911
bec8d9d1
3f5de915
bf83205a
bed82560
3e986243
3f5120b8
3e25fe01
3f7b55bd
3f0617c4
bef4703e
3f8bc91d
3ed27972
be4fcd57
3dc4e603
3fd3a35c
bee377f2
be8811fb
bface108
bed7e93c
3f2149de
3fa78142
bea5d72f
3f9ba5ee
3f15b165
3f5bbdbb
bebc395b
3ea0afcb
be0af64a
befaee06
bf535bbc
3e8ab9fe
3f639d70
bf2db8c1
3f5c51b3
3ef99181
bde29796
3f2ccfca
bdb744e1
bfaefc29
bf2d1d39
3faf4fe0
3f25d45d
3f696e69
bf142a34
bf083f67
bfa34832
beaa0df8
bfa04e1d
3f381b74
bf8487f6
3f842682
bebef04c
be888848
bf5cc67c
bf03d63a
3df3b1b3
bfe99b60
3dd445ba
3ff3a42c
bee13de7
3fb1828e
be140d9e
c02d22d9
3f200236
3e1fd603
bf292f0c
beeaa243
bfabb5e9
bfb218ba
bf1254ee
bf3772d3
3caa3a98
be3635f3
3e941f56
bf488dd5
bd66cc1c
3ebf6195
be4c77d9
bf8c1650
bea0e139
bf789d0e
be0afe8c
bf526a77
bf06bed9
bf25f49b
be139ce6
3e76192b
beb7464c
bf21c4f0
3fb8fb6c
bffb51a0
bf5bf607
bd3694ae
bd9d3e03
3e2054c6
3cfba669
bfa10e47
bf14d870
bf800e0c
4015faea
bfeeb331
3fc12806
bff83bb6
3faf337a
3fb50e7e
bf2719d2
3e22f61f
bf1d7d0e
3e9d510e
3e82fb16
bef14c63
3f1bcca1
bef3dbc5
3e82e941
3f38662a
bf43efbf
bf75c66b
bec835c7
bf3b778e
bfcd17ba
3ea1ec5e
3f53eb0c
3fc40fdb
bf2dead2
3efbbd95
3d0eb543
be46ef23
3e07b2d8
bf061c9a
beb02678
3ee387fc
3f6d8980
3d884a23
befd2bd8
bfaaad05
be25e17b
bfe92e1e
3e9efe31
bd927d62
3f6c15bc
3e7683cc
c04cb9b4
bf4dbb77
3f640c8b
bd5c661f
3f0d3e1d
3f683aa6
3f81ee5b
bc1da7d5
c0093fa4
be0935e2
bf280d00
402bb178
3f900164
3f981420
3d8bf8ec
bddb41cb
3f415e7f
bf27e4af
3ea8c8cb
bda39dd2
3eec524e
3f87d56a
3ed186b5
3eefd615
bf6b2c73
bfc7cfd8
bcceb01d
3fce61bf
3f510af1
bed78071
3e310007
3e8fcedc
bc94d1fb
3d07cdc7
becc75e9
3cfbba98
3fc888b4
bf0dd60a
bfeeb5e9
bf4bc71c
bd5ba076
3f9d8b73
bfa00535
bf2767bd
bd1d2b55
bd896e15
3f94eb01
beae5cd5
bec0767a
3e85a6ab
bede2b71
3da291e6
400f73ff
b9f8e821
3ec02810
bf3c0228
3fadcfb0
be4d8c7a
be076b87
bfe1123f
3f052169
3ea9dd08
3f28f307
3f516581
4003277b
3ee92c9b
bf9475d3
3ef02397
bbf79c5d
bb0e6575
3edf2bf6
bf63b0bf
3df97166
3eea57f3
3eb7bba1
3ee1201b
bee56630
3edbc2f3
bf37a840
3fd7cb7c
3eab4cb1
3fc65141
bfad5ee3
bf043ea9
becd1576
bfa8227a
3f08abaa
3fc17837
bdef6471
3f7fdcd4
3fd5658f
bf3d83e1
bec6ad46
3f14da0a
bec8e45b
bf068b26
becfec15
3f1aebfb
be3eee9f
bfbd2b7a
bfe8dadd
beb94089
bef9063a
3df433d1
3eec8947
bf98039c
3f42d46f
3db7e283
bf316f43
3eec2455
3ec1fa3f
bf992d70
bfde8d4a
3f3d7092
3c6ac32d
be721f90
3f2de9d3
3fa5eac3
3fa024fe
3d30c31e
bec887ac
bf86c964
3f4b55f7
be75d455
bf9369a0
bf05cb60
3e05dd9f
3f0831d3
3fc243ac
3fb8ae3b
3f686246
4002c0e1
be8c9762
3f4831dc
3e34a231
bf4a0562
bd0f8977
3dc6cfea
3f8307af
bcfeb725
3f849a72
bea5d253
bfbf1567
bf4bae21
bf914cfc
3f9a1bc1
be4fd42f
bfb18b2c
be9d9b1d
bfa799a4
bf3b90f9
3fba1e3b
bf129bd4
bfbc953c
3f6c139f
3fc90421
bf243726
be1a57a6
3fe957f4
bd44bfe7
bfa5925a
bf90a349
3ff57f0a
bf81a408
3f826b61
bff049d3
3f104ce2
3ec82757
3dfd6549
bf9a85dd
bf9c7c10
3e1c6058
bf215330
bf13ca3f
bf80f32e
bd5440bf
3f217444
bdb74704
3fa32dcc
beb357dd
3fa2eff7
3f33ace6
bd8c4343
3fd20256
3f8cc489
3e227140
bece1150
bf9f22ea
3fa091bf
3ece4f5c
3f2c7c19
3f0c2e62
bfce9c5c
bff66243
3f165f1e
bf009315
3f9f7379
bf26e59c
3e552c92
bedf1373
3fa7f2a3
3d51a34f
bd2b4e79
bfb8b4ec
3fcc455c
bf635778
be84f4a2
3eddabcc
bc2831d5
3eba41ff
3f39ff30
bfd72a11
c00879b5
3db8aa3c
3f0dece0
bf3774e8
bf505a13
3db53636
bfc480af
3f01a9f7
bf937b9e
be559010
bef080cb
3fe17ea7
bf9a9f68
bf88a32f
3f8a76ea
3e8392d0
bfd58e03
3eb20df0
be951d86
bee88a7b
bf6b7c38
3fc2bebc
bec78ebc
3eb5d725
3f1c21d0
3f8026f7
3f182de3
3ee95f97
be792f2d
bfd2245e
3f51faef
3db3ac0e
bf11beb0
3eab8802
bfaf9578
3f7eaef0
befaeced
bee5a980
bf905475
3f4d615c
be034835
3f2dfbf0
bfc605ff
3fd9821f
3f6b7c4b
bf6d2fc9
bf29adea
bdb64293
bdae9869
3ecb3463
bf47f537
3ddf7cab
3d3793e0
3e729f60
beadeae6
be49ea64
be748a5f
bfa631df
3ec0190e
3e54eca8
bf15a426
3f326d24
3f8fa79b
be206a0e
bea7cec0
3fa33069
4021cdd3
3f6e9b6c
bfb4df36
3f4ddf1e
bfb9f12b
beb5cc96
bdadd887
be7ac820
3ec50c5d
3f99397d
3f73263a
3fd9e6dd
3fa0a68a
3f429f65
c0144321
be8b4934
3f14992d
3f0f275a
c00ce26c
3fa6bba4
3f35d8b4
bf1b36ac
3e217036
3d99514f
40186581
bf15af2a
3f0894d7
3f11861b
be8085e6
bf2fce05
bddd0163
3f01b9a7
bf23619c
bf826239
bfe142e8
3fb08d81
3f22c9d8
3f75f7ae
be8b98d9
bfe1fe5b
3ef7ba04
4017d2df
3f043099
3e09b44b
3f8a8567
bf0f7e51
bef02aef
3eacca4e
3f187040
3f0e4f78
3f705234
3ec8bc18
3fbfdb3d
bf1e8145
3fe973ed
bf50329f
bef8a08e
be05cce5
3fafbcd1
bf6276f1
3d52b145
3f517266
bcfeca58
be8cc2f2
40008514
3dd3c925
3f9d30fe
bf987562
be946900
be4a6077
bf074740
3f9a876d
beb7998a
bf0392f8
3c3dfe0f
3debacc8
c0123888
bbf99eed
beab877a
bf08ec61
3f479c39
bf186b32
bedbc0ea
bf1941ac
3dd35d30
3c0d276e
4000bb7d
bea3820f
bfdaeec3
3f047854
bebefa84
3f91757b
3f58899a
3f1a5053
be13791a
beeab949
bcdb8ce8
bed4e62f
be4c8dbd
3e05d026
be0a7308
3d313d66
bdd6cd9d
bf479396
bfa843f9
be3b8af0
bf9086ee
bf7acad0
3ffc77a3
3e7a9a86
bf911ebd
3f65f3c8
3f15fd4c
3f684018
be9906bc
beb22150
bf94dd4c
3eea2e6f
bf89956b
c00cf313
3f319ea0
3d6a193a
3e9249f8
bf7ea2df
3f5a7ca8
bfafe38d
3e801e41
3eb5ce94
3ea7e26b
bda1f167
bf2e9762
be53ad32
3f019765
becd98db
3f0b02fd
bf8c7f13
bf437b6a
bf6821e3
3f1d41af
3e16fde4
bf88ab44
3dbcaf6a
3d344bcc
bfd7860f
3f009dd6
3f9e40ad
3fb25ca5
bfa52bf3
3fb469c7
3ebed7bf
c0333fe3
3e8f1869
bf007b03
bf20a671
be4339ec
c0219aee
3f1eb5d4
3f1703cf
bd669a70
3ee932c4
3e8e3cde
3eda599e
3f7104ff
bf4b1481
3efdc3ec
bfab8e5c
bf052333
bf79c1ec
bf75d294
3dd738a5
be1e9ee9
bf813b12
3f9d4305
be15c302
3f7d2fc8
3f73f204
3ffaba34
beac42eb
3f4874ae
bfca31ce
3fabcd4d
3ed85db2
bf9f6dcf
3f65c7b3
be8fdcbe
3e5b29a9
bfbdf0c6
3fc3de5b
3cb7154f
bfaf2f18
3f4b3ad0
3f700938
bfa0765d
3f06a709
3e91a48c
3e1bbaf7
3da445e9
be409d31
3e6f4cf6
3f1e5f19
3b54cfee
3c66e67d
3f22d442
3daa3f4d
bea20b73
be8d1ee1
3e698e29
3fabfd82
bf206601
beb85313
bf41833a
3f02017b
bfb74eda
3f0e2e93
3ea4fca6
becd08cf
3f788376
bf3a2356
be95160b
3f3f588e
3fc3a339
3fb8dced
beb665cb
bfd11469
c01bacf3
bf7436b4
3ef9a09f
bed3656c
be53b384
bf2eb5ee
be5c0338
3fc181c0
bc886949
3f0797e1
3e10b9a0
3f0e5e97
3e9de789
c013cb9c
3e3e0ae0
4034e048
bf9829c1
3f6762f4
3f573c8e
3ec0e17e
3f95719f
3f9bc1b7
be3671ba
be6432d6
bf6ff217
3f551e6b
bf2b1912
3e069212
bf02dc8c
3ea94b47
bfe057f6
be479ecd
bf942215
3f7be6fa
bfb2907d
be8cd582
3f8b2dfc
3de17bb6
3fbd7abc
3fbefd0b
bfca4d49
bdd856cf
bd32b32c
bf17630c
bfdb0e8a
bee994ae
bf1c303a
3fbe8134
bea6c46e
3e10299a
3f68fcaf
bf5831e1
3f04d943
3f9dfa66
40115e7b
bf7e055f
3f9d4c4d
3eea90aa
bda1574f
bded1325
bee22c0f
bf71410a
3e92c22f
bf1a3588
3e8382ca
4051392b
3fbb9315
3f14f0f7
3e80131f
beb0dbae
3f290e25
bf971add
3f0cf8f9
beb5fe1d
3e36bc0a
bf576f85
3d975416
3ef5f0ea
3f4729e8
3f8d9989
3e01b04f
3ee5431e
3f09b742
3eb45666
bf2ca3ce
be8505b5
3f618c1b
3f7d958c
3ef276f9
4015c9b3
bf9cf01b
3fdbefc1
3f25c055
3fc5e8ea
bfae7633
3e2b167d
3f8aeb14
bf50e595
3f8103d8
3ef15f28
bf8eeecd
3fab80f4
3f2a4b4a
bf94afd8
3de1f1cd
3eed2369
3e75d925
be9d793c
be8f8538
bff87c81
3fb83742
bf116f7c
be1e5c47
bf2279fb
3f901667
bd01eb57
3eb3bb68
3ff76b21
3f09a49b
3e0e5b18
3dbb653c
3f8e7b68
3ecfdafb
bf8e3374
bf743fe4
be97f949
bf4f798d
be9227aa
be6f8d46
3eec3fe8
3f1fe3ca
3f049655
3d5bc8fc
bebf5b15
c0205f42
bfe9a451
3e7b4d51
3f816356
3e49fb29
3f05c365
3fd5c595
402072dc
bfbf8f8e
4001dbf5
3f030de6
bf9aa939
3e5122c2
bec94271
3f3f06cd
3d1bc06d
bfa90924
c01abe60
bfb23986
bfc3d24d
3fe9f647
c01c5da8
3f8bd63f
4062716f
3df688fb
4004f192
3dcd7ab7
3fa35912
3f48c127
bf122d0b
3fd3be15
40264248
beab68d7
bfa0093c
be62fb9a
bf10b379
bf8b4d6a
400a37ef
3f3431c4
bf0c3181
3f2271e0
be3eacb6
3f18c7c1
be32dd76
3ece306b
bf2db34f
bf8fe14f
3e88ae42
bc155ece
be0c7405
3f5ab3bc
3f6f9e2b
3e88bb19
3f99675e
bde6bca3
bf891615
be4fe60a
bf5c577f
bf016c30
bf0125fd
3e485560
3e89d792
3fa716f8
3e577b15
3fea9f35
3e0400d5
bf655961
bf5ff7ac
bed23704
3f7c59b9
bf05df4c
bf40f034
3d4aa691
bfd976db
3e4e036f
bf43ca95
bf3f804a
bf56a977
be1bc2f1
3e0de9e0
bfee7de5
bf9373fd
bf0d8726
3f61ba1f
bf18a0d3
bf9f9ef6
bf544435
bfa7ce1d
3f77dea7
be31e764
3eff8c68
bf862a1c
3f0a355f
3e32257e
bfe5b971
3fb87e0a
3ee15b37
bd715df2
3d2f3f78
3f1597d9
3e1217fd
bf89043a
bf86eed3
bfb9acad
3f34e37a
bf544371
3f1153ca
bd5f10e2
3f049605
be1e1c62
be8ebeb6
bf9c9b0c
3c0996eb
be5528eb
3ef84418
bf644242
3ecb4a6b
bf3d2595
bf4f58c4
3f14b44a
3fa0809d
bf8a4be3
bfb1d107
3f7ac1ba
3f22fdca
bfd30fef
4001e90d
bea2ac6b
bf3f1fe3
bfd3a63f
bfc2b922
bf28bc50
3fea854c
3cbbd4a1
bf1e7ac5
bf80f75f
bed97304
3fb6cd0b
3f166b1c
3da18904
3df7f06e
3fe09e85
3cd4490d
bf19eb3a
bece7964
3f7997a3
3f9f3a21
bf523d0a
bf4ec49b
bf7868e6
bf408a36
3f3431ac
3e3dff6b
401e89d2
400d0500
3f1ff82a
bf0c56c0
3f2d0a6b
bf2aae8f
bf024b3c
bf944208
3e984c8e
bf331e1e
bd4a212a
3eff1094
3f5691fc
bf8cdfe1
3f7f9e21
be50848a
bf3a528a
beaa9fbd
3df3bd6a
3e8fccd2
be2e21f0
bf8053a1
3f1b847d
3eed2c05
3d80ccf9
c0318ca3
be11225b
bf42e437
3d739496
bf975e54
3d10f038
bf535aaa
3eddef79
3dc2a356
bfb3624d
bf8d95db
3f816dfd
3f9656f4
bda82326
bd515c35
3fa90bbf
bfab43af
bf04a090
3efff65e
bf9105f5
bf3702cf
3e303629
3fbdc934
bf50561f
bf29bb45
3fd7e061
bc9cf00f
be299fc0
bff6bcc2
bee1b962
3fc05ba1
bfa453a3
be177355
bf273942
3f95f58e
3f460782
be371d21
3ecc48d1
bf11c63c
bf442483
3fa5be04
3f7f52f5
3f896f0f
3ebdeb16
bf1ba4b5
3fa95dc0
bf1e1d29
bf3a4969
bda7acb1
be662667
3e248409
3f342c09
3ff88629
3f02d2a0
bec84a06
bee89ab6
bed69601
bed47692
bfd599fb
3f88c711
bdc60015
3f080552
bf0ffa70
3f1e4626
bea532f6
3fe7a0f2
bf99f21b
be830166
4006e9e3
3fe0fb7a
3f12860d
3eee9bae
c002a57a
3b50000b
bf94c9d9
3f1fc274
be2d0660
bf52ee1f
bf6de65f
bf46af0d
3ed94f2c
3e5f9187
3fbfed2d
bf8e4a07
bef03c70
3efcf7ab
3efc355d
be523f90
bf47ae83
3e8fedd7
3ecb9402
3fc09d9d
bf571eb7
3f8caaf5
3f33e9e6
be56cad2
3efb168e
3e72d662
3e4f2530
3fd0693a
3ee313cb
3fb31987
bf34a12b
c007dc1c
bf160b6f
bf3fa16a
3ee61156
3f547567
bee0a819
401e4345
bfb45eed
3fa10aac
be548564
3eb57cdf
400c29f8
bf32f010
3f0c1a50
3fa0fe4e
3de7ceab
3f09c167
bf809969
bf58c412
3fb90c81
bf1eaf18
bfba4bf6
3f9cf070
bf876725
be86b84d
bf82363e
bf565052
3fcc93aa
3db1bcab
3f591d32
bf8b584b
bea12e6b
3e36aadf
3fb8ff58
c055b0d7
be94beed
3f8278d4
bec0861c
3fa72390
bf12f7c5
3cf2d2c2
bec6b075
3acb0458
3f093d48
3dc9bbba
bf8e1944
beb5ed86
3e502a4c
3e3fdfe4
3f93e0f7
c017537e
bebb0a62
bf7c48eb
bf14d7dc
404aefc1
be9c0c92
bf6c0ee2
bfe2fc19
be9a1b59
be4f1e27
3fded276
bfa7005c
bf6e8dd2
3e212d4a
bf9389c7
bed6cfd0
3efddee9
bf2964d0
3f6e80fa
bd581f79
3ed517df
bf3f7751
bf7c157b
bf4c7776
bfdb4952
3da38802
3ee12bc2
bd7df1fe
bfa09391
400a6ef9
3f69c9e0
3e74c2c0
bf35e777
bfb0de28
bca3f8d1
3e881a6d
3e751dda
3e6fdd32
be526619
3fe8db39
3dd0fff3
3ee68929
3f496c30
befacdc3
3d19bdbf
406368bf
3eafe429
bf4a531c
3f9ccd1d
bfba374a
3f83a1bc
bf2fbe59
bf3c8d1d
3f6323ce
bf244fc7
bed5237b
3f5c1631
3d9b9dc1
bf275db3
bf6672f7
bfe00361
3f3c336c
bfd3924a
bf911c8e
c01f5e1d
3c93a1fd
be5d6d7c
c005be86
3febde83
3fd95de2
be7fd416
3ef711cd
bfb3603c
3ed00723
bf66b525
bf9ab82d
befa16de
3ddd1c38
3f38529d
3f9a0294
3ec6eca7
bf516d60
bf88853e
3ebb1850
3eb45d11
be538387
c00c48c4
3f566cb3
bf98c488
3eef6a36
3db390ed
3f989d3d
3fd69fb1
400181f9
3ee7102d
be8294ee
3e293a44
3ea866f1
3ec9cf2e
3f10a99d
bee3f40d
3e8514d7
400dc5d5
bcb7b9ea
bee2d344
3f824f15
3e6f550d
3f27acba
be862f41
bf6928b8
3fcd5d82
3eb37ae3
bd953ebc
bd978e52
3ffc9b10
3ef25353
3eb11b02
3df5f4e0
bf387ab6
3f55da66
3fd0519a
3e0d405e
3dd6c42c
3e347f38
bfb22f98
bf941917
bf9622db
bfcd4a41
be81cf52
3f8a3be2
bffdd827
bf52b4ed
bf504f2a
be6098de
be95f7a4
bf0be00f
bda2a6c5
3f2b2c8b
3e325a4b
bf8ad5b6
3fbe8b61
bf8f7d9e
be62d6d5
bf1b58be
3e9386fb
bfeaf947
be0ed0ab
3fc4b433
3f56cb6e
3ed78d67
bfccd673
bf2c964f
be019aa6
be9f2c9e
bf956ef6
be5bdb40
3ef1651e
3f1c4c2e
3f3033d4
3e0e5188
c02197c9
3f608eab
beb9534b
bf65fb04
be384a28
3e353b45
3f5209d8
3f884438
bd24ce10
bef97062
3f4b0e62
3f298de4
bf823d35
3e0fafc7
bf892cee
3f6db902
bf1d40ae
bd51097d
bf1aea2e
3f789e36
3f38901e
3fa068e6
3f10ff57
400b0e0e
3f500d29
3e12ec14
3f4c98a1
bebc9c68
3ea844b1
bf8d4d54
bf96a222
bf2d8a2c
3e02f1d1
bde5d879
3f022a97
becd5d1c
3f719c60
3ee19095
bfa02ef2
bf3c56a6
3f1e3dd2
3d7c6dfc
bf0efcef
bf874f4f
3f3b0182
3fdea52d
3f1bf550
3f45fc02
beb04c82
4005fea5
be617fb1
3eae3c6a
bedac87b
3f17e23e
bf31c1b7
3c60f3ec
3f2cafd8
3e22702c
bf8dc9f0
3e508825
bf0aa189
bf8487a2
401ec209
3f817eb1
3f182523
bf81ea22
beb84624
3f15cbcb
3f6d79bf
bf2b168c
bdd0ea56
3f708019
bf56c643
3f787951
be5457d3
bd7e6d4e
3e30ed3d
bad214b8
bf033434
3e2cf0b2
bf029b93
402ca384
3da1dee7
3fb9bf95
3ed2861b
bee8f3b9
c0021321
bdf31b00
bf8fca0c
3f8e9e94
be9c1f14
3fcbda51
3f3d5f13
bf1cda51
be90cd65
3ea132c2
400b748f
3e075ca4
beca0e23
3ee4f724
3ef0e9cd
bf0c44a7
3fb28793
bee5b362
bf08d5cc
bee7cf0e
bfd2767c
bf350381
bf8c6262
bf961dea
bfc90874
bdcccc44
3f0ca935
bfd13d6a
3e06e8a8
3ee4064b
3f243b63
bec3e224
3fa47ee6
3eb45ab4
3ea6adb5
bf8feafb
bf00e1cb
3f8b8ceb
3fc844a7
bfd1e99f
be4f8171
3f826800
3f6aa8fb
bff9581a
be848bb4
c01d4715
bf9c68d9
3f8762ee
bdb1df15
3e969c4f
3f9d40da
bf0a1a01
3f7313bc
3d304876
3f7d2076
bf8da2be
3f22f2f2
3f3be227
bf63321a
beea88ba
3f15fda6
3faf3dc2
bf634d94
bf1652db
3e68814b
bdf7559c
3eeb6ce3
bea66074
3feffec5
3ff57aab
3fe7656b
3fa48ad5
be4a92bc
be83263a
3f86ff98
be914517
be38450b
bd9a919b
bf8c2b4d
3eed2926
3fc5fbe4
bfcb18ad
bea75c82
becffe5a
be47ebaa
bfa8c244
3fa9dceb
be275cea
3fd48c4b
bf17714f
3f076703
3eb264d8
3eb1791d
bf54d761
bf86f852
3f1f0a34
bf16313c
3fbf1027
bfeac183
bf35f9f5
3f6b7259
beda2f67
3f2b4e71
3fa874ff
bf6fb02e
bfb92af7
be7ff83e
bcb9757d
3f15a5c4
3f9f71cb
3e0a161e
bfa8747d
3f5d7078
bfd9bc1f
3f920175
bfb4b8cd
3fc32aad
be803e73
3ff28e81
bed71717
3f4fd739
bd79ea8c
3f9b0e6b
bf54041f
3ece4886
3ea9c68e
bfba5e87
3e0b8d36
bd4a50f7
befe6fec
bf452dc6
3e08c198
bd7a9b62
bd9caaa7
3e8df9a9
3f877f98
3fa38c98
3fd4f9ed
bf8a3586
bf88b020
bee8b71b
3f5bbe5f
3f2832ff
3f01c068
be04fe73
bf093bd9
be084a7a
3f7b6032
3fcce533
bfc7410c
3f838fde
bfb5f24b
bf6f6331
3e199d24
bfafcad3
bf9af657
3eabbba3
3f932b17
bfa81399
3f8f746a
3f15ea76
3ec3994b
bfbe0cbb
bf00d3e9
3ef52724
3ecc1ff7
bf2014be
bdeb14a4
bdaf748a
bcda2156
bf2039f0
3fc406d2
3f804abe
3fb3ccd9
3ec94d46
3e1a6f2a
3f1ce97f
bf958678
bfee5c4a
bf82d542
3f0ec76f
be93df22
3fcc6440
bfb6a7de
3d674030
bfa325db
3ec01c9f
3ec7b76b
3fd25f51
bf8933a2
3eff1db3
3f8c54c5
3f96b241
bda5f1e6
be9d022c
400f3cf5
bdb43ead
3f0a88bd
bf2b920d
bf8eed90
bf0c4c5e
bf5696cb
beebd611
bf9693c7
3ee82749
bef60f79
be89f1a3
bfb808dc
3f4fb9da
bfd4ad35
bf78e66c
be0668e1
3dbf0461
3f073bc7
3ee8048d
3e9dfad2
bf45ece8
bf267613
be4d4147
bfcd3145
bde5bc7b
3f42787f
bea7c3f0
3dbc919a
bf86f6a6
3fa635b3
bf499481
bf57f119
3f82aed9
3f6e1694
3f47c098
3e0a9d71
bee0f1d3
bf34238d
bfe4f04a
3e8b4304
3f7a3897
bedb2c80
3da3d82a
3febb69f
3ed7da9b
3dc8da98
bf437be9
3f1c2718
3f9d6884
bdea7d67
3f212323
bf15c135
bf11f9ae
3f1dc372
3fe46fb1
be3902f4
bfdd1c99
be90cf85
40047cdc
3e7f3f12
3faea007
3eb81b42
c028683c
beffc216
3e956543
3f21ca91
3f887b80
bff3b760
3f38ef70
bf2a6595
3ea6132f
bf0de636
bf0f01fe
3ea589ec
3ea4665f
3f6f5ba3
bfdbd69d
bfa360c6
bfd32330
bcfba6d1
bf22741d
bf8f51ea
bee439e3
3fb635c5
3dd183ea
3debe957
bc236ad0
3f882860
3f198f85
bf0d7fa6
3f244b2c
be84c6bb
3ea7bda1
bedf90af
bf50c76c
3fc0dec2
c0150323
bf0b009f
3ffbbfa4
be9499d6
bf19aa2f
bf877607
bfc1a71a
bfa92188
becc9f04
bf5ecb21
3eed1f6d
3f0717d0
3f3d9f37
3f099f8a
3f868321
bf443961
be830787
3e5fa805
3f906dfc
bf5651df
402e52b6
bdef9519
bf9e7339
be13540f
3fd6c8ab
3e78051f
bf705036
3edf82b4
3de49610
3f79c70c
40094f50
bfba17cd
bd266bf1
3e0bf348
bdf99fec
3ebf5d53
bc369432
3fc9a1aa
3e7a0874
3f1fb947
3e34f2b7
3ee4781e
400c8028
3ef0f242
bf36d99e
3fd92004
3fac47bd
3e8486bf
bfbded85
be1ab32f
3ed76c21
bf3058df
bee87b50
bf7a4842
bfdb368d
3cd1621f
c002d32a
bfd58c90
bef8d7da
be49e6b6
3d93c108
bf1dcb37
bdca9606
3f2ec6e6
bfb9ba7e
bf9702ce
3f3f4263
bdc88b6b
be482114
bd07a9a8
3f3deca6
3f19176d
bdf82831
3ecbe022
3f878bcf
bdc0909d
3f8e712d
3f44f4d3
bf547f6d
bd80f0fd
3e106fc6
3e2a446b
3e2e9761
3ff10664
3f857ff4
bfbe341d
bf69d835
3e988f70
3f59f0b0
40003ee9
3ef722db
be93e742
3f4480ea
bf3a7400
3e883d7e
3d1d5630
be81ae16
3f8001bd
3f3a66a9
3f84c3ed
3efd14aa
3eed8645
3ec71172
bfa5d0c3
bdd08093
3eb8f2b6
becd38b4
bd6b12a9
3f2ae8cd
bf5f3a15
3f191011
bea703ef
bfcaa1be
bff64ee8
be530991
c00fea08
bfbc6d60
3f0b0e1c
bfa54420
3d956a21
3f35fe48
bf558d35
c04116a2
bf39a490
bd89fc2b
bf88a05e
3e6502c6
3e9b69ce
bfcd5aed
3f1d355f
3e91628c
bf650662
3eb89b94
3f3bb671
400630bd
bfaaed22
3fb5f2a4
3e363902
3fe2f9c5
3f033cd5
3e5b65f7
3ddc3403
3f14e993
bdb428ee
bf81543b
3fe3c06d
3f91ae47
3e5ef17d
3eabb486
3eddc7b3
bfb74113
bfd05c1e
bf782515
bf1ab631
3fd25d26
3e9ab223
3febcddb
3cbf24e5
bf6053cd
3f2b08e2
bc6a73cf
c0028e45
bf4401bc
bee69052
3f01296f
bfb85d3a
c005023d
bfdfb256
bf8c8369
3f4f3e68
be2aa789
bf4fdb99
3e46f5c7
be7c6b08
c01b9cae
3eea40d4
3f70e68b
be2afeb5
befc2c74
bf237475
bf5b7236
3f5fa554
3fc5c148
3fed0e41
be92a76a
bf252caf
3e4dcc68
bf6215cd
bf672217
3e93ca61
3eef8ae8
3f413fb5
3f588e94
bd9cb05f
c0089cee
3d93bb45
bf56fe31
3f8814af
3f1c8e56
3f70e2b9
3e474c25
bf8285ed
bdca90f7
3e10273d
3e89f8fd
3f893ddb
3ec6ba80
3ed4e2d3
bfb86234
3fa548c2
bf1726e4
bf3ffeb2
3e6df69d
3d130865
bd218d41
3f8b0ed5
be065927
3e33458a
3ece2da3
3f28b19d
c00104e5
bf8b2d2b
3f6d90dc
bf85d919
3ef68d03
3fbc3c92
3f24eebf
3e05b90a
3eb3fe27
bfbc9609
3f97c42e
3cc69ffe
bf176ede
3fba0b20
3f9f353e
3dc4ee8c
3f79077d
3fd71a54
3f83dc84
3e3bfb44
3e0e07b4
bf13133f
bfae123a
bf8838eb
bf69d6f8
4011db51
bf799e6d
3ee840be
3e262548
3f804560
c006d655
bef01040
3e32059b
bf45ac70
3decad84
bf56a31b
bf619864
3e94aee3
bedae642
bf746c79
bee18a9d
3eacb279
becbd773
3f33fe0a
bfcd2140
bf469f83
bf1043b1
3f77b097
be484913
c022159d
bf04b105
bed7c4e4
3feaf442
bf978045
bf3b6c64
be447a03
3f8d44a6
be9acfb7
3f688154
3ec297db
3e3ec091
be9bba17
3d4c8da6
bf30c87d
bf387ace
3f7abc0e
3f1878bb
3fe9106b
bf0ab8ae
3f4694cf
3f8814c7
3e5ad38e
bfc02e9c
bf06fe5b
3ec9a916
3ec86f69
3f490bcd
3f03dd0b
3f0f9683
3ec8b8ce
3e102271
bf1197c5
bf14b5f1
3f241608
3ede4d30
bd14fc8a
be67a07c
bf6f2091
3ebfd9e6
3e91afec
3f859add
3f4f9ad3
bdda1c76
3f2152a1
3ee11d99
bf0d01f1
3e99e4d3
3e057b34
bfcaa8ec
3fe78aff
3e2accff
bf420ad6
3fb2810f
bf20bbc6
3ea6c1b9
bf6fa734
bf0365e4
bfc70258
bcbe2f91
bc9922cc
3e8b4eb9
3f462d33
bfccf318
3ef2feb4
be01790c
bd9a1bae
bf11d572
beef7f84
3f910742
3fd2bccc
bed009e7
bed0bb7a
bfbb6f4f
3f11e34b
bfe0bf94
bf9796d9
3f4ea517
c019378a
3fe0ceac
bf97c359
3e9ed094
3e773c83
bf202a6a
be641bbe
3f7fb7ec
bd94412d
c000b8b9
bf9ab243
3f2c3580
bfc65eb3
bf3af7a3
3d2d4eef
beedb80b
3faf101f
3f13020d
3fa0dd86
3f92abe0
3fbe0809
bed34a7b
3fa72ca0
3fe54f41
be8150f4
c0272cab
bf18437d
3f11b841
be1902ed
bf945916
3eec9381
3e2dd0e7
3f78ec20
bff2ff7f
be35aae2
bf9d5750
be02a76a
bed2e4b5
bedae35b
beb755a6
bde9e237
bf94ea52
3e0c4787
c02d5106
3d962be4
3e3aaa1a
bf8b6f8a
3e515c06
be91555c
be2eb222
bfb1d870
bf21d013
be8a0ad6
3fcb450c
3f92f5a5
bec10f9f
bf215b60
bf7c54a5
3fe46f3d
3fd60ca6
bf6a065d
bfb44c51
3fae854b
3fd85507
3f6435f9
402f781c
40092e18
bf3e1d57
3ca58a67
3daeb4da
3f93f0b3
3f205083
be3c6da6
3f0e664a
3f04f2f5
c01806e0
be138624
3fc1d03e
bfb8760c
bfd32261
3feeaa2b
3e15b58b
3f80cb48
3ef4e0c6
bf67350c
bed98cc3
bfac1ed9
3dd20c0e
3e2b9380
3e3b54ee
3f659efe
bf96d2de
bea6a653
3ef39bb4
3e725412
be919dcc
3f39c159
3f469de6
3f2d25a8
bea319db
4002dbff
bf04d7f9
bd960a62
be524d2f
3f8d2c36
3fdaf286
bea091de
3f6bcf24
3f78dde4
bf71fd08
3f8a43f8
bebbd68d
3ea39386
c0100faa
3f9442e6
bf80a025
bfa1eaa6
3f0d025f
bf7b807b
bf212121
bf38211d
bd7770d2
3f8ca689
bfae7645
3f6a2e15
3f31d621
4016050d
bf077238
3f2f8419
3f2180f2
bfec656e
be0710d6
bed9979c
bf2591b7
bf43b05b
bf4aa1d7
bebb54ea
3e0b5baf
3d8cec27
be5c74a4
c0202193
3fc3fb3c
bcf0135a
be9dd8ec
bcaed7bc
bda06fc4
3fb3dfee
beb3cee4
3fead6d1
bd7d891c
3f20df48
bf674e24
3e285f79
bfe79d25
bee63d09
3df868eb
3ee861aa
bf91ca38
bf0411e7
3eba0338
3fec340e
bfb2bf48
bf9a067b
bf493885
3f0fef77
3e807a2c
3f05fadf
3ef13102
3f0c6274
bf070463
3f33b083
c001a81e
3dc8017e
3e518afe
bf8a05a4
bf5eadfb
3e8e1a5a
3f9cd89e
bfb21063
3f375d49
3ea5d02f
3fc0b3e1
bfe3fdfd
3fa97b68
3f055df1
3fbdfa3c
3ec17dad
bf38eec4
3fb6785a
3f1a220b
beee1799
bfbf1ad6
3f39d61f
c012c6d0
3dd45adf
40031892
bfc6f90d
4018e7bf
be3eb78b
c01588c8
3fad39c0
3f1ba65a
3df0b218
3e5d9475
3f0d331c
bf82bfb6
3dc50a78
3f04bf1b
be720506
3fa4c76a
bffcaabc
bf706141
3ed18e30
3e77d42a
3f0b35ad
bf40b6e5
3e67d7c5
bfec708f
c00e3ee4
3fd69fea
3f0a45f9
bd405746
be1b8683
3f82d4fc
bf017227
3ec41722
bf35ff06
3f34a0c2
3ec4c836
3f9181aa
be9d1f60
bfc49d44
3f7b31f9
3f910698
3faec5fe
3ed66864
3f7349ef
401d1456
3faf0c57
3fd79148
befa883a
bf6d7fb1
bf0c0a9a
3dcaf220
3ecdd64a
3e9e3974
bef13897
3f747146
bce1eaf6
be55fc1a
401387b9
bf9355b0
bf0c2333
3ec7d2c2
3b83d3da
3ebd3327
bfb9346c
3f70637a
3ea5840f
bf112af5
3f2b3a58
c02a8a25
3e9e7fca
3f01e39f
3f42a28d
3f92a3ba
bf9c9e85
3f158838
40044bf5
bf882a97
3eaba4fc
3ff20872
3e27afca
be973c30
3ed91d70
bf6a62c0
bf1728d4
bf1c00a1
3f46790e
bea3dac4
bc93bf38
bf012c16
be89895e
3ecf7ff3
beae08f7
bec3cf91
3f560727
3fb24449
3fb60a75
3f004c34
bfb7f777
bf960cb8
3d704691
bfd5140d
3f9921aa
bfa04f7a
bea5bed7
bf460b25
c005c4ab
3e14e484
bd6d89a5
402b817c
3ef8bc5b
3fa997a1
3e03c12b
3f77b575
3fcd8b9d
3ef02ea1
3f8875b9
3f4e2b9c
bccd299b
3ebfa234
3f1856b7
3ec6f398
bf2313b4
be7cd3c5
bee06fe4
3fcf94a0
3fde7eb1
bf897c30
3ef89379
3fba1f46
3f33a4fe
3e25c5b4
bf3d74a8
3f8b6c4e
bf344170
3d80b84b
3f9542db
be1d2a68
bdce84fd
befa23fa
bf7e13c4
bef923fd
4009f828
3f68d25d
3e301fa3
bf02e00f
3ed89f08
3f696e85
bfa7f280
3f360f11
3e3697eb
bdbbdb3a
bf83f3f8
3e238bff
3d493ee3
3faf17d3
3e84fd8e
3fde2bb5
3f1e445d
bf737acf
3ea353c1
bf89e1e4
3f93d746
bf724e02
3f95fc51
3e4ffe27
3fbbd8cb
bedf4778
bf261741
bfb9b4d3
bf8d0d0a
3f96082f
3e895b49
bf086596
3e831309
bf25fc9d
bff06681
3eed5f7b
3ff94a1f
bca7d805
3d831620
3f579ca5
c0028026
bfc452d5
bf80f31c
3ea07f65
3fb4847b
bfb32e3d
bf177864
3fe3815c
3f422f9d
bf98c321
3f071f09
c01681e8
3ed2004f
bf86f108
bef10735
3c12ed31
bf980bd0
3f14dff8
bf709041
c01696f8
3f283a1a
3f20af0a
3d1c5612
bea36c5c
bfc9bb69
bf6640a7
3f21a120
bf3418a8
bd541db8
3ee531a8
3e0c28af
bf749d05
3e2d7cbe
bfb61238
bf4e1b21
be471c2d
c0006122
bf676060
3e92c768
3fdeb729
bf5afb03
3f9b8d79
be8f2b6b
3f5525dd
bfb87528
beb57c3f
3c789761
3fc5be01
bf6faabc
3f5d6f80
bdc9511f
3e91d01e
3e54c731
bfce4d81
bf5025d3
bef1d96b
bfdadbc1
3de3bbb0
bee0e6bf
3f1c615c
3fc7278a
bf98842c
3ff94171
3dbfb95c
bf1cc88b
3f6002e4
3ed673bb
c02932e5
3f466d36
bebf741e
bf25387a
bf430cc9
3f44fbbd
bf852403
bf2bfe72
be4c4089
bf225f12
bd5c6bc8
be7bc2bd
3f00ad37
bf97105f
beb36f2b
3ec29620
3e0a6dd6
3ee3c678
bf2da03c
bfd355f3
40215516
3e6b45c9
3f6c9359
3fa2ad8d
beae2f06
3d717d17
3f5a4224
bed77c30
bf83aa60
bf2beb3d
3f612236
3f8675d2
bd3e6c39
3e464731
bf920f47
bebe1dde
3e826d9d
bf4561ae
3f6de66e
bf35f83b
bf4b3299
bcdc98a6
3bd96887
3fd62c99
bf58dfab
401d16f8
3f0f7a58
3e4c5bf0
3fbe68ec
bf81f1aa
bf6d1f6d
becd13e1
c00bbf69
bf8eab1c
3f999bb0
3e774eb3
bf2b3d7d
bf1b783b
3e10ca3c
bed61cb5
beff1d64
bdec682b
3ff37dd6
3ff76291
3f273977
3fd59c8f
bc7ff44c
bf047525
3fcf2020
bf89b52f
bea35463
3f0fa3e9
4027acb1
3fea4ee7
bd83c221
3fab0fad
3f8d585c
bde40592
3ec0239f
3ef6769a
bef7d133
3fc23f52
c02fa486
3f95c852
bebf8c0c
bffa0c87
3fc80af7
be34f773
bdc46746
bfb24331
bedf9186
be1a4fcb
3f21add7
bea9ce3f
3f9ba7ee
bdb86f53
3f5618fb
3ff7590a
3f3b971d
3f78ec1a
befed325
bf5d9574
bdac5526
3f759fa8
3fd38aeb
3c6f8d44
400c230b
bea54bcc
3f6995cd
bf20e9a9
3eee9509
bd399e63
3f99037d
3ea99ca6
3f84c833
bebe24f1
3f138d15
3f380b2a
bfce23a1
bfeb1fff
c00f43ef
3e9c6e52
bff7f551
bf89b25d
3e07242d
c022461f
3efad124
3f6334aa
bfb28f7c
3f28f8d6
403465b2
3f4625a3
3f0ced7e
3efcd9ef
3ff4ae80
3f172179
bf77f494
3ed7ead9
3b99ac37
bf530f81
3d8919ef
bf81c091
bf910a4e
bf03c92e
bf7b1f0f
3e5b811a
3ec4767b
3f2ff1a3
be8e0069
bec29143
3f0cf93e
3e600b16
bf96c9be
3f9f9d7d
bf00f235
c01f2f2d
bfd7a5b1
40069664
3e93f207
bfa2efcd
bf1c16ff
404edde8
3fd869d6
bf33b4df
3f3fb35b
3ecc33a3
bf4b8e17
bfc0561e
3e0f58cf
be6c8649
3f276b0d
be577e77
be4ad613
bed217bd
3ec61491
3fa607ad
bcb5409c
bf86df32
bf105c03
3fa798fd
3f326988
bf3b8de7
3f549c3b
bf1879a4
bf1cb524
bf9f5fcb
bf01f5b9
3ff90c01
3e785a93
bf31f95d
3ec2a018
3f931ba5
bf4ea750
be9a7bf9
bf60d641
be84bc53
beaf7dee
be7a984a
bd73671e
bfc6477d
beac293c
3f8233b2
bf406773
bf9c467a
3e26754d
bfc86502
bf89e584
3fbf298b
3f9b60d2
bfbf0702
3f57e2d7
3e94b7c1
bfb73d6d
bdee9816
beae4de4
bf40cc02
bea324f6
3f352a28
bfa51e61
3e0c61b1
3e720082
bfdd52a9
3fa43a50
3fc0e33e
3f2bd602
3f9ece41
3da043bc
3ecc3987
be87bbc1
bf03716e
3e925d75
bf7bf7d0
bf16f6d8
3e40ef99
3fa0be26
3f2fdaf4
be70a3ba
bf97fe54
bea82b7e
3f866177
bcb2d839
4012c359
c0061ba7
bf80e45a
3f43b2ca
bd8e76f4
be23a8e6
bea43af8
3f93d914
3e354b3f
bed7e777
3e8efee7
bf631dce
3f492c29
3e97992c
3fe79086
3e8ae14b
be2a00e3
bf6f3e16
beb9a8ae
be8e9da7
3fa4df83
bf9490c8
be6876b7
be53931f
3f84c401
bfc5266d
3d4fd5bb
beddbf75
3faf4644
3e77739d
4039d68d
400efd5d
bec9f186
bf004b38
3f81641d
bf5885f0
3e4c94d0
3ea4f8a4
bfde651f
be5ba44c
3cac70f1
3fa50d58
bf5b30be
3ecc38db
be3c4ae3
3c8f60e5
3f88ca07
bf13e598
bfd4fc10
3fdbffe4
bfaf43f3
3db8de85
bdf28809
bf78b37b
3e6873a4
3fb60b6a
3f40f719
3c3249cf
bf6b32f2
bf606492
bf84d806
bfae5ddb
bff259a0
be84ab2a
bf6345f2
bf86a3bf
3f78e41d
be0518ba
3f5c3f57
bdefe4b7
befb3c74
bedd0ef1
bf39e640
3d232ef2
3faefe69
bfba000d
bfb6b421
3fc69f70
3e6a054f
3e23e9e4
be5718ad
be907cfc
bf22ca99
3f6269e6
3d8ffd99
3d8c07b6
bfd86c55
3e22d00c
3ecb59d2
3f18591a
3f89674b
3f46b677
3f09841a
be87d673
3e327f5d
3f9321a8
bffcd104
3e35940f
bfda0c35
4012a963
3e063f66
bf5cca72
400a2bdb
bf8f576c
3e8ef8d5
3ed3dddd
bf0c3c67
3faa2448
3e9a30c2
bf10149a
3edf74c0
3e094530
be25e240
3d78481a
3fc32a58
be97f393
3e8c999a
bf539e83
3f2b570f
3f670287
bf4aafba
bf5bd77f
3f48247b
bf958099
bf0f2d0c
c03aa656
3f82cbf5
3d801b11
3fbc9ea0
3f624b46
400a5e6b
bf7e2e90
3f0bf31f
3fde371f
bdfb6ccb
bf1cc50f
c001f3c8
bf92218f
bfa2fe91
3f97e5d6
bcb6844e
bf2f3a46
3d61febb
bf9c98e2
3eb71d73
bf12cd5f
3fa0b8ae
befa7d47
3fc853cc
3e290e0f
3f77b2f6
bf55c323
3fc081ab
bf681182
3ecba7c5
beaace9a
3fdd0638
be604392
bf210315
3ec45ae6
3fa46d03
bd10f70d
3f25e812
3f3dbcef
3c8ee243
be4079d1
3f0214c7
bf9eb57a
3eafb162
3f744f13
bff1452a
bf2233ed
3fb987a9
3e9885d2
3f00e792
3f9a4949
3e271a3a
3f6f0b0b
be02fc12
3e6ef8f8
3f21b802
3f9125c6
bf8ab527
3e9498d6
3f85770c
3fb06e34
3f8933be
3fc325ec
3fdc1e3a
bfa50c32
bfa73fb0
bf77d0a5
bf25fbc4
bd465b16
3ed7c035
bf486af3
3ff4671a
401a0351
3e962006
bf9269eb
bef25986
bd6db2a6
3ef7d27c
3e61d562
3feac05b
befdc1d2
bfc04515
be5ee8fb
bfc51382
bdc5fab4
3eb1c0b4
bd9f45d8
bf694d21
be405da1
3fe2c72e
bfaf1fd6
beb2845f
3dd43d06
bfd3cd9b
3f00d0c2
c0019eb1
3e53eb78
be8a0196
bcef25b1
bf065ace
bfabc600
bf92250a
c00465ac
bc81f3e2
3e931ac1
3fdbf193
3f9c6b93
be2bb35b
beb940c1
3f88e4e3
bf80f62b
befedc09
3d9c231c
3f85e4f4
3f6cb294
3f19a510
bd91ba24
3ee53944
3c24a6e8
bdc52c0c
3c26f015
3fdc1d83
bf2bb352
bed9f464
bf6db52a
3f6f291b
bf857e01
3e8dd2a4
3dd9bac8
3ea26dd8
3fa61c77
bf14d765
40095aa3
bf6e91be
bf1de4c7
3f1e1286
3ea71a97
bf5280f7
3eb98595
3ba95676
bf15041e
3f90849d
bf82a338
3f356b5a
3e8b330a
3fc34963
be06e56b
3ef1f92d
bf94b952
3e77f2b3
bf0b74ee
bf9644e3
be7085ab
beb4b442
3f131080
3d2fe840
bd78270e
bf6c44fe
3dfd43fc
bd9e8078
4011a722
bec688ca
3ee9aeaa
befcf808
bfbde178
bef0059b
3f8be2bc
3fc3826d
3efb1f91
bef97d4a
bf433689
bf3267d2
be6af7c2
be937345
bf715ebc
3f24a7d3
3fc68770
3f876752
3f2ac251
400e0b5e
3facff2a
bee32868
3f471e8f
3e3dcdfa
3f61bd97
3e593451
3f1ec2e4
bf1d4e77
be1a24dd
bfc17f22
bed0e116
3f6dfc64
bf4820a5
3f281bb0
bf29c055
bfd8ba8c
bf9a9917
3f2c2b6c
3e081641
3f292b51
3e2332ed
bf94c86f
3ebf77a5
3f2e8cc8
3e98d904
3e5f63d2
bfb0ad7b
bed0136e
bedead34
bfc70d76
becaaf1e
bf86279c
bfed7f36
bf1e015b
bfd775fa
bf0f6892
3f774496
3f26aa28
3f9e08ac
bf8aa8ab
bf189833
bfc2b720
3e92e484
be483a19
bef30df0
bf4f239b
3cc4e4d2
bfc07742
bf6d043d
3f21d174
3ebb44b4
3e854386
bef31a8b
3ec89ff8
bf6bda1b
bdaf5c24
bfec0253
bf40ed24
3edfaaa7
bf96dbff
bf3e1e1f
3d3755d3
bf0bacd8
3ef07cbf
bfffe90b
be44fa6d
bf2d6579
bc9df4c8
be6af468
3ea1b717
3d4d46b1
3df82886
3f65d162
bfd8ae75
be2b21b8
bf550aea
3ea6c50b
3f956551
bf5c5113
be1c86ed
bf3e77de
3f9db8ed
bf316436
bf2aecaa
3e153e20
3ec6c954
be2ddbcd
bed2037e
c003890c
3e160024
3f8433f1
3db91c0e
3eb5c5b8
401c5b22
3e5623c9
3f840708
3f9a95b2
3db4f56e
3fef5563
bfec8662
3f3d0d95
be83777f
3e5e77f9
3e2385da
3e052b77
3f5ec334
3ecb30fe
bf01f02c
bf8d6ffa
3d41d44f
3efc501b
3f8ec360
bc777b7e
be4218ea
bf940f66
401e972c
bf1931c1
3f582cba
bfaf3924
bf82c5ff
bf5318d9
3faed19a
3f20961e
c000d98f
bea0dd16
bfa8cc3f
3e434ba3
3f8efe8f
be69aa63
bc9d24fa
bff57d27
3e829682
3f075493
3f188088
3eae4472
bf25d949
bec209f5
3f0f740c
beb22d7b
be2ffd31
3db37bdc
3df3e753
bf02e722
bfaa2215
4005d6dc
bfc17785
3f4792d4
bd983725
3f6b1371
3f27a0d1
bcdc3cdc
bfdad142
3dc1409c
3f41d932
3e452c50
be89f4a9
bf941aac
3d245026
3f779894
bf55f21f
3f290c8d
3f8c049d
c00bbae0
be8499e5
bee277ce
be7c13c1
3f936027
bf47d281
bf3abc07
bf93c78b
3faa7b28
3e207c1f
bd3aede7
3fb83381
3e90e2c3
3e9ea097
bee97007
3f543797
be49f6de
3e42c803
bf47c558
3f86c31b
bf1c2178
3ff5764c
be96e495
3f93f153
bf8e5430
bf5623d1
bf1c2787
3fbe28ce
3fb1b8b6
3e1465e7
3ef672bc
3d6e4783
3e91d8fc
3f9af7f4
3e3e8951
be80e23b
3e87f838
3f201b98
bf5b8ae8
bf758402
3fbe61c9
be7ca1f5
3f9a55db
bebdd95f
3eb127b3
3da4edc0
bf303927
beffbaf5
be6289e4
bd89acd1
bef8c5ca
3f151461
3fe835bf
be628358
3fab3446
bf62f12e
bf1f1ba9
bf37f8ef
3f83a3ea
bdc08494
bea0533c
3ffdfc5b
bfef0ac7
3fc4760d
be974a34
be4bf6b8
bf30b055
bf8d3a02
bf86fd83
bf8c460d
40080b27
be456968
bf52197c
3e856b0e
bf221076
bf861754
bec742b7
bf1d3dd1
c00e5949
3e3b290f
be9b7e2e
bf92e688
3f8e5407
3f1fdb75
3d8198b9
bf34a919
bf29345d
3f3f8c7c
40299837
bbbbf6a7
be203269
3f960b2c
bf77f909
3ef34619
3eff09da
be176644
beb42b02
bf857fcd
bf5f9615
be2f3741
3e8b503c
3fbf052e
be90e41e
3d80ffce
3f5a4e76
bf5d250a
be60726c
3e82f64c
3e9218c6
bfe6c7fc
3e60e8db
beaaec58
3e9f5e54
bf6e07f3
40130286
3dbae6e3
3f341e77
3e90e93e
3ebc81b7
bed66c98
bf7ec939
beac4d6c
bfc05f5f
bef30391
bf4d3700
3f3f2301
bf2a0149
bef0012a
be8105fe
be342745
beda8ce2
3f03c0d2
3f49e6af
be8823bf
c0091957
3f89a134
3e8bcd16
3f97b574
bf9fc023
bfb1f980
be6fda26
bd8b58ed
bed1b5d6
bf59e032
be3e9358
bd70d8e5
bee07ee9
bf7e086a
be342222
3f998876
bf409ac4
bff03630
be8e3677
bfa1c1be
3f0ca16a
bfe3c5cf
3fb04144
3f8ab78f
bfffb03c
bff734b7
bfaad6eb
bf90194a
3dc66d9d
bf6acc7c
bf137f95
bfbdc219
3ef8569d
3e0d9aaa
beff5acf
3fb3bde4
3f614613
bef659b9
3ea814a5
bf225a18
40085be6
3bc8e63f
bef75085
be35fede
3f7498b1
bf86302e
3f037835
3f3afec3
bd6e3e93
bead1d54
3f56f4b0
3f9df359
bea653dc
bf9e19ec
3e809cee
3eb1d66e
3ec2b725
3f8529f1
40254990
3ed6829d
c00ba682
bec0b040
3f977181
3f57848b
be454c92
bf86cb6f
3f8af599
3f3da855
bec869c9
bf91b27a
be06d875
3dc0e1ce
be22fc9a
be8c135c
bfa8df90
3effaf09
3fabbf60
bf6972cb
bf296561
3fb03baf
3fb2d375
bf885991
be83529e
3f743457
3f3ed1d1
bf6a56ca
be6414e7
3efb5077
bf072fde
bf9aafe3
3fbc5f28
bf4f073d
3e37e9cb
bf7abba0
3f8e17a8
3ef4db0b
3f233ea6
3e90ad4f
3d09f14e
be4f6e2e
be061253
3f0d5b06
beb1e6ac
bf9d6af0
bef5a0f6
3e820810
bfbf143c
3f33bb27
3e32ad42
bf6f4b5d
3eda5a5d
3f7a309d
3f2e2b49
3fa2d00b
bfe2c602
3f0a01a8
3e928c1d
bee02f9d
3f155741
3e5f673b
3e8e4c51
bf85455b
3f9724ab
3f36f750
3f8e49dd
bf226cc9
bf6f2e19
bfb458e9
be88c795
3fcc384d
bdde5d26
4006e5d5
bf9d4287
3ecd2431
3db8ceb7
bfd95fea
bf73a332
bdb3dae1
bf4a9b8d
bf844665
bfa6f79d
3e35e78c
bf21ce99
3fbcbee3
bfa33420
3ece525a
bedd0b5f
3e8762a5
3fc848c8
bf29f727
3f11513b
400a0a7c
3feaed85
bf34eb78
3f252a57
3c5fca4d
c00b502c
3ebbce68
bf7df00e
bf9b9bab
bf869158
bf005136
3f27bed0
3d2eb4c3
3f28b8e5
3f0de622
3ee0c799
3f7ca5a6
3df3efa7
bd0b5e72
bf33d36c
4006ab1a
bf40b062
bf908516
3f186b60
bfcf4ef5
bca7da02
40447ab0
4000cf1d
bf2e9dcf
bf2352a3
bf172920
bf234fa4
3ed9a2c2
befac93e
bf6dc484
3d89b832
3f974e09
bf68c1ba
3d6609d2
3fb6fedf
bf031fbe
3f49a5b2
bf8a07d3
bfdcb646
3ef5cbc1
bdeb2bce
bf590bd7
3e08d1c7
3e07ae4f
bf0a8f91
bfd65775
3f65311e
3f4d57cc
bf27745e
3f0d7ac9
3fc7f87a
be8fdd51
bf2ad6b3
bf855029
3f9795e2
bf22fb8c
be0b4912
3eac981b
beadfe8f
bf9057fb
be9b4dac
3f1962a3
bfea4ee4
3f6b7edd
3d80b4f4
3eef29d0
bf74cdd0
3fb3d91e
bf8b4696
bf51f28a
bfce82ef
bf2471dd
400f1423
bdb84d69
bee796ba
bd9a6dfe
3e8560e0
bf801dfd
3f9d2340
3d2ac99e
3f1f868f
3f656ddc
3f531c9e
40152d27
bf34e748
3ddf7b48
3c4fa86d
bef51495
3f306aee
bf0f401e
bf564e3b
3ed50bb6
bfadfa30
c00dac07
bfc5eaf7
bfad9bff
bc0be1aa
bbd38739
bec6cc5b
3fabf35d
be8d5d9e
3faf7d2a
bf148626
bf97be66
bff8c099
bf17e5d9
3f4c8a5e
beb64b50
3e9fc313
bf4b3819
be306999
bead0209
3faa862e
bfb63f2f
3f040f3e
bf593fa3
be4cddd0
3f38e830
bfe934cb
3dec5f5e
bf0660a7
3e3e16af
be0816b4
3f1bd03f
3c9895e7
3fa374b5
4010396a
3f49f53f
bf6b658a
401216e4
3ec72be7
4008cc91
3e10f018
be2bcd5c
3e78ccda
bf08c470
3f6514e4
beb0c651
bf32051a
bf4ea5aa
3f21a91f
bf7f168a
4039d44e
bf3973a2
3e36894f
bffdaf44
3f183fca
bff1510d
bfa9e0eb
3fa40d69
bd91caa0
bfb52065
3df74cac
bf150b82
4003880b
3db7d219
bf91b4d4
4021fc46
3e76a3d0
3ee1a8cd
bf81a461
bef2d969
bf6243bf
bf492d8f
be253e6e
3f0c2c69
3e52f593
bfaf1371
3ecfbc56
3f6e29c2
401aa4f6
3d08dbb9
3eb4c895
bee43b7b
3f022265
40178540
bf0619c6
3f3ac8ce
bfbe0cdf
be9e9382
3f5b6217
3f5afb1e
bf680772
3e012d5b
3e54015c
be775e8f
3f6f0cc4
3e62a2bf
3efae6ab
3e65e960
bf0986d8
bf2f145b
bed72f91
bf7adf60
3e80f88d
3e217cdb
bf08af30
bf19cfe6
3f4c1923
3f702108
bf3d3fad
3d05e358
3fa58500
3fb4b47e
bef99df0
bf6b863a
c0205447
3f94ebe8
3e37c3f5
bf80eebb
3f3ae351
bf1b3835
bf6605fe
bf574048
bf95b715
c026aeb5
3ffbc4fa
3f161760
bfa6d8ab
bd98a00d
3ec00322
bfd7f13a
bff46b9b
be61b886
bef6f4d0
bf97aa1f
beeec1c3
3e8628d5
3f8122e8
4005ee9d
3ffe79f7
401101a4
bf45a8c9
3f27cb6e
bc803223
3f51b30d
3f601b67
3fe3dffc
3feea0cb
bf36b851
bf3459c5
bf23a703
bd694663
bfbe4542
bf74e91e
c02f1cb6
3f285b61
bf15bd17
3fac1d37
bfaf1485
3fb404e3
bee8f42e
3f2882f3
3e235849
3c4537d0
bf0e41a1
3f97d6f7
3dbb34a9
3fa03f9a
3f3a9a6c
3f5856de
bfb41dc2
3fc855c1
3ef067d4
3f162b39
be406dc5
bfbe655b
3fa72b72
3fc03100
bef45160
3fe9ec8a
bf7803ec
bf9aea07
3feb1539
3e6f1027
bd6bc55a
be50c857
3e90fd7a
3fb9e334
3c8fa7ce
3e49f0aa
c01b8b61
bfc5e726
3fcf4fbe
3eacf273
3d85aefe
3fe3e600
befc63d8
bda4b41f
bf27562e
3dea680f
3fb321d4
3fe2ef7e
3f06816d
3d45995c
bf92987d
3dbdb743
bf929109
bf161f4c
3f4f37f2
3f951f2e
3f34368d
3eb86ce0
bfa66e68
400129cc
bf80d184
be884ec1
3ed45246
bf47c685
3ecb41cf
3fb5d09b
bf2ecbf4
bfd17351
bec36108
3d334aaa
3d8c821d
bc33988d
3e1837e5
3f4531fb
3fb30ae1
bfc7ed68
3f819dd4
bf8daf17
3d1a3e00
3e4c5723
bfe84807
3d3812ae
bfa1fc32
3fc7b5e0
be8bdd6a
bfa60091
3f478183
be7898ac
3dc7683a
c0108bd5
3f5ebd5a
3d831e0a
3e8a29d9
3f4f669e
bf0b51ad
bf32fb75
4019f2b0
3faecd81
bfb7d538
4006ad07
be787092
bea66d3a
3f46eb52
bf91f3d3
3fd13f5c
3ec28ea8
be71dac6
3e2c5149
3faa24f4
be43ba02
3f6e9c95
be4ed6d8
bf147beb
3fa29037
bec57150
3d1d32e4
3f840676
bf68a781
bf76ba07
bef9b0e6
3fd43f47
3ea191b0
3f72dc6b
bf613a69
bed73cff
3e0042c5
bdd1f6b9
bf7bdf8d
bf8316b2
be1012e9
bf5f199e
3e6da574
3ed0d8df
bfeafccf
3fe6b0d2
c0335e7e
3e480bc5
3f7064ba
3f0be2ed
bba9d078
bf79758b
3fc5b279
bf26bf2e
3f94760c
3f5b5aa6
3f0c0256
3f8e3ce3
3fc0a524
beb06875
3f8682f1
bfa9e23c
3f655fa5
3f9819d9
3db37f6c
3e07d60b
bfceaa88
3e395a8e
3fd89613
3f1695be
be91db6c
3e03566e
3e55701a
bdd6b6a3
3fc8fe23
3eac43a1
3d2c228d
bfb574fa
bec1992b
3eb13430
3fa8e5eb
c0245534
bc7015da
3f10e558
bdc1350d
bfb42a65
be92bd16
3f4a36a3
bf46c9f3
bf4b9239
bf97f5ae
bf9efeb9
3f4e6ee3
3f2a50fa
be62e872
3f3df750
3f4c813c
3eab11d4
400304ca
bebcf94b
3ea97672
bf55fe8b
3df9abda
3f6a00d4
bf8e753f
bfffeeb8
bea4bb44
bf1b21fb
bf3562ee
bf6f9749
3f335325
bfadf33a
bf2d3dd3
bec82363
bf90cb58
3f2cd67b
3f784247
3fc39ff4
3dc8e042
3f9f0f3c
bf51b186
bd2dc17b
3f38df6c
be77fe63
3f6867de
bfae5d27
3eccc0ce
3f4d8d12
bea71d58
bfe14c82
402b816a
bfabd5b9
3fca4fdb
bff9cbe5
bf85c90c
40058abd
3f06e584
bec0ecaf
3dbd185a
bfbd4e10
3ffa99f7
bf77b6eb
bfa27011
3fdd6b38
3f5dec7a
3f3a8502
beaf4a29
3ec72a29
bf1833e4
bebc15e1
bf049cca
bf2a1df9
bfe900df
bf1ecfbb
3f780469
3f31cbf8
3f8d4798
3faf4074
bf6c26c3
4017779e
bfa8f5db
bf045bdf
3fd8813a
bed9939d
bfe00c7a
3e8356c1
bf95a4c5
4018be11
bd11b26f
beeb5a29
3facc14c
bf795466
bfe5ceb4
3e4745b9
bf64b783
3e7386b3
bf419545
bcea878e
3f17d826
bf1af37d
bfb9d6a3
bfb4674f
be95860a
3fa368cd
3ee92d5d
3f95e85a
3da3b97e
3d37ab8a
bed71a01
bf4b145b
3fb80b5b
3f92cbd8
c027acc6
bfe9d6d6
bfc0524d
3f99c227
bf7e46b3
3fce7d8b
be4ae1c6
bda156df
c0118e35
beb9669e
3fa7b4c2
c00bf4ee
3f3e952e
3fa0b0b1
bea43cf3
3dade6d1
3c1a6e4c
3fb741a3
3f3e1b63
bff0d402
be9e3d7c
3f23c703
bfdc5ded
3fa38738
be5c1b86
bdefc778
bfa54564
bdee0057
3f40677e
3e28029d
bea942ed
c001494d
3f52cb5b
3f68f9f1
bf0fde20
3e8d44fc
bf3e6b4b
3f61dce5
3f81ab4f
3ee8770d
3da73e75
3ed84345
bfb52305
3f8f8c8a
3f57e2c4
3da85920
bfedbab1
3f3295b1
bf862d8f
3fe1be7f
bf85299f
bf0aabd2
bf07c19d
bf81d2ad
3fa22e4d
3f94f23d
3f8cdb51
3fe5d9ef
bf02e78c
bf5aa360
be8b749c
bf9dbcb9
3faa3b7f
3d805648
be45ee00
bebbf30f
bf868fdd
3fc3a687
bced593b
bf49785e
3f3ae793
bf48fa64
3f6a805c
3f9f2fd8
bfc8d3fd
be83deae
3db1d36e
3fe482f1
be92dfe4
bb473a3a
ba2f633f
3e3c0050
3e16ed45
3f0a0e82
bf27619c
40046439
3f53a7a0
be08a76c
bf918ddc
3ef343d0
c02c7dd7
be957165
bf612251
bd9bf395
bde48a19
3fd5c7a9
be5f1d6f
3e71840d
be91f4c5
bf188b8d
be9ef812
bdc102ec
3f1ef3cd
3ee0d9f5
3e826a8d
4002b423
bf170d35
bf4ce9e1
3fc46aac
401e0a5d
bf9846ee
bea5c431
3e06175b
3f82d8e9
3ecd4f90
be12c0f5
3f5181c0
3fbade58
3f63cda9
3f0bf248
3f40c3b1
bf1f2e58
3f01f652
3f22eb02
402b08b6
3f3746c9
bf42b5c0
3f188d9a
3fe10d99
bfb6c34b
bfb00548
be368b90
3ea9c8be
3fe6ab3b
bf98608b
bdcc012f
3ec3456b
3f0141a5
3e0b4f57
bfb6bd39
bfbf6a03
3f9cdf97
bcb83ff1
bef5b822
bf71e514
3ede9a60
3db2cd11
3eeeac8c
bea7379e
3fd0c326
be91a516
bed98273
bf231841
bfa0805a
bdb9a782
bd9bfd30
3ff659ee
3eb83f8f
bda42751
be57a02a
3f0ae5e7
403dffbe
3f61cb40
3f1b562e
3f60fab4
3e4ecbce
bfaa7aa1
bf00d803
3eabc9d1
bfc1b000
3f30e018
beacb3e2
3f33cbe9
3caf5f3a
3f24c9e1
3e90ae62
3f371e7a
3fd10a19
bf100b13
bf12e71c
be956c97
3eded534
3f99bf43
bfb9d8ea
3f8d8a0f
bee073e1
3ce4ca30
be0ca17f
3fbef398
bde61be9
3dc269fd
bf895b20
3f9133f1
bf0c2594
be9be2f0
bfca1652
bf7a9739
3e080e82
bf836903
beb6ec22
3eb94e2c
c005020b
c015177e
3e057219
bf8083fb
3f2261b3
bf1228dc
3e62e472
401fa5a1
3f9365e3
bf278341
3f893870
bcb00db1
bf237c95
3bca62c9
bea9264e
3ec5f8bc
3fc0487e
3e7c4009
bf94d81d
bcf0ac44
bf9fb51c
bf241c38
be62df3a
3f3c715e
ba95df63
be49de9e
3eb5302b
3ee8c782
3c4f2619
3e8f929e
3f834c90
bf101178
3f6ce570
3e8b28da
3f6d6db2
bfaf6d55
be540928
3fa1bfff
3fb13b08
bf066d4c
3f5afc5d
bf24fdb6
be117e09
bfa573b5
3ed6f4e8
3e3e5f39
3f245c54
3fe1ba81
3f9ce0ef
be3ec211
c0309457
bf4583c1
3d61ace4
bf648a17
3ed66d75
bdb39ff1
bf242be1
be3896e6
3d1a9f93
beceb6f9
3ed104c9
bfb32fab
3ea8feeb
3de5614d
beaa6d00
3f8e92f8
4001de23
bed9d220
c00eac2b
bfbd71c4
be65f211
3ec53ee9
3f7c0b69
3f8d8039
bf3483e1
3ebb2b29
be911020
3f0ba43d
3f2dd80f
bda795d9
bfb71cd8
be8c9cf5
3f1d4c95
3f75404a
bdae9147
3e4b8811
3ebe980e
bf4da7fe
3f955290
3fab377c
bf8cffd5
3f82d0fb
bfda8b8c
400506ed
3e884c95
bfabb539
be70ef9e
3b665944
bf3150df
bf9ff6d1
3e9665cf
3fe97c65
3f221d1b
bf6de622
3ec9ed87
3f7f7d81
3e539204
befdcb31
beceed20
3f8680fc
3f3d78c2
bf906d5b
3fe89de5
bfe198d4
bf1f2a54
3f209a24
3f788530
bf78c3b6
bedbfc65
3e3bf788
bf088747
be802213
bfcac61a
3cc0a2bd
3e8edbc7
3eddaf24
3f3ac05c
bf947cde
bf8715da
bf2d27c3
3fc19db1
3fae1df6
3ea1af24
3fcbe6f8
3f5039c1
bee6164c
bfab66fb
bf436edf
bfbb410a
bff6241b
bf8cabd6
3ee41b20
bf02fa8b
be9da082
3fea5967
bf6fa355
3f35032a
bfa06b8a
3efe25d3
be00d537
bec63bff
bec87b45
beb92ac9
bfbda1e7
bf0047d1
be910aad
bf264ab9
be1d7da5
be9c8d5b
3fab175e
3fb469e4
bf09263a
bf3b20db
3f864dc4
bdaa88c9
3ef1ba5f
bf943fd6
3ee1b3b3
be0df1ec
3ef9432b
bf4c63d2
bf0eaa49
bf87c268
bea9e460
3ea3a1e9
3ee0fc89
bf1250f0
be62c1f2
bfabd43a
bea32839
3f536064
401bc910
3f1ecdc7
3e52ca4c
3fcecc8a
3e97da2d
3ebdf0c0
3fc298f1
becde2f6
bf294f62
3fbca81a
3d0c27d1
3f50bdb4
bf2bc854
3e3464b3
3f2e4a81
bc7dbbe6
bfb58a76
bff15ad1
bfef9388
bff8f91d
3ce8266b
3f481b70
3faf8463
bf832f11
3f4ee41c
3ebf41f4
be76bfe1
40116281
3f56dab9
3fc8f647
bf8d76a9
3ee54611
bbeac956
bed54ec6
3f44ecc1
3b8f351b
bfacf70b
3fc03c42
bee52475
bf94165f
c0332001
bf7b6a67
3e0053b8
3c063080
bd155adb
3e9f5b79
beff438c
c031e644
bf448ffe
3ec46b84
c00296db
3fc99623
bf0330aa
3f13e64e
3ea94584
3f134a36
c0185f27
3fb15d98
3ecc58fb
3e127645
bf15c0be
3c859a6e
3eb24be8
bed0f01d
40048aae
bf089ba7
3fb0fa23
bfb104c7
bf3bd343
bca059ae
3c604cff
bf9cf47a
3fae140e
bf655bd1
3dc15753
3e29a8bb
bd38438c
3f6f7ec9
3fa7162c
bf935501
3f33d430
3f84aa9d
3dc1c1e8
3e39fb41
bf8b1f3c
3ec75a73
bc693a90
3eb67efd
3f1d94d4
bf3bc9b0
bf6028d7
bd6eba07
c00af106
3ef60fb6
bf166507
bf096fab
bfdb0f17
bf784a4f
3f0a9683
3f333c46
3e18220b
bf3f230a
3f65182c
3da76e0b
3f86b625
bf6bc4aa
3ee38fa5
3ecb9c10
bfa0105b
beb5249c
3f933af3
3ee979d3
bf32dc5e
3e4d3412
3f1025a7
3ea76314
bf54827e
bebd11a7
3f7b7c24
be583279
bf9ae38f
3f89b220
befd8d27
3ce59ac2
bd8e63f4
bfa97853
bf7e7d16
3fb444d9
3fad8041
bf1134f6
3f3cda4a
3fdc8639
3eb01c41
3e9f0141
bfc71137
3f5e1d04
beeefd92
bcebd66b
3fb59494
bee270a0
3e049aee
bfb2224c
3e4fcc6c
40166a3e
bcc47b3c
bfc05c88
bfbd9b91
3fe3f29c
bfa894c9
c0082a98
bfe168a4
bf2acb16
3e406088
bf27bc50
be6faed6
3f42735b
bf03e5b6
404322dd
3faa7c47
be804681
3fbcd615
3f3a0d8d
bfb98ae6
3f7980d4
bfab5e38
bf37852c
3f8408fc
3e57a278
3fa320c9
3e61a3c1
bf2bb719
c009a0de
bf3689f5
3f85feb3
bfa48ef4
bf99acd1
bf175aad
bf023450
bf969c7e
3fc59ae1
3ea4b2c5
3eee11d6
3e5cf2d4
bfad2d7e
3e99419f
3e84644b
3e869ba1
3ef3159f
bec67c04
3e1002fb
bf4f5125
bd211bff
3f2549fa
3ec85961
bef1bc17
3fb3218b
bb4e1de6
3e8ed549
3feb3d17
3f98ef4a
3ea5cff9
3f245d24
bf4a95e3
3fa00f78
400fa7ef
bf326cd0
400c4df4
3f0393b0
bdb43cb1
3cfb1ca0
c00c7cae
be796c42
3e8d4aa2
3f9ff322
3fa7aae3
bfe55e07
3fe5a2f5
bffdd1bb
3fa66ab9
3e65cdb7
bf80a4a0
bfd30af6
bfe1c8bf
bebe4bb6
bf59e23a
be7248ca
3f746994
bfd9e797
3d679db1
3f0135a3
3f3b899e
3f0cd9cd
bf9d2654
bf749991
3fb2a7e2
be463368
3faad26a
bfa4d1c8
3f901e07
4020cf73
be2f71ea
bdd85ddb
bf085212
3eef36fa
3f079b58
beecd292
3f125941
3f69f76a
3f301fff
3dddd646
beb7438a
3fcbb88c
bfa3b74f
bd06ad4b
bdf0f1d8
3f7f333e
3f08bb0f
bf8bee5d
bf27298a
bf87baef
3f27093d
bd54ab80
3ec2507c
bf336568
3dcaff1d
4013c192
bf098c18
bf1e8077
bf0445f6
3ea73265
3e00d94b
bf1f4b62
bfe00d32
3ffd3c13
3f46406d
bfb86de5
3f86d36b
3f01bbac
bf38f41a
bf5f9c29
bd89e01e
be4bc058
3fa787d0
3f8db07b
3f245d2f
3f235ce8
402413cf
bdf6c700
3d97875e
3df50dcd
bfa97b18
3f5c71f1
3f9e3a76
4002afc6
3d5e9432
3ee70465
3e3c0002
3f9b2e2d
bea6b32a
3dc566eb
bfb82a6d
bf25bfee
3f69d472
be010257
be89cac0
3f9b2984
3dad06bb
3fc24c86
bf1af9da
beac123a
bf7577c8
3e41a6cf
bf348aeb
bf0f390a
bf03b3ca
bef503de
3f8a8438
bf081d1a
3fa6375f
3fc5fa84
bfc879cf
3f3936c5
3de50a89
bf5775b8
bf9ba4b0
3ea17836
3e316634
bcf5ad9e
3fd6642f
3e8587c2
3fe71174
3fa83543
bf53f5e6
bf05e5fa
3f8438a4
bf192b2f
bef31cfd
bff8dfe3
3fc80be6
bdf68fc2
bee4f8d9
3f1ec530
bf7b8996
bdb4a62b
3ede33d9
bf4037bd
3ebc1732
3f6ba7ef
bec83d69
be863a79
3fb30c8d
3faf323f
3f69f135
be291a9f
bf7f2658
beba6060
bfb55471
bfa5e5b8
bfc3951a
3eef3b34
3f1fa602
3f8f60b5
bfd1867c
be951878
3f9e3989
3e61fa46
be86746a
bf2e7c5a
bf5e2fb8
3e851235
beca2708
3f2094e3
3f1de1d3
3fae615d
bb7c3208
3fcefa2b
bef33b2f
bfbb80fe
3e1f4d83
3f3d7a07
be2e8450
3f189170
3f23082b
bedd35ef
beb0b0ba
bdcec990
3f02ecb6
3e092800
3ea482b8
3f45f619
3f7785d7
c00d773b
bd7d5d5d
bea4a229
bfdd159f
3f8b54a2
bf20d58d
3f9dd324
bf20204a
be6eae96
3eb228cd
bfd86685
3ff312c4
bf2c5049
3f14ca09
3f87355c
40088d4e
3fde5377
3fe17310
3f25715a
beffd7f5
3ec37413
3f06dcab
bf9b217b
bf3902fb
bf07c023
bfa2de0c
c00daed1
3e6c8174
3f5cbd5f
4045aa4f
3ee1cc20
be1fd9d7
bf530eb6
3da90f1f
3fefdb8d
bedf2db8
401180d1
3ecdfeca
bfbcb7e8
be89972c
3f6f179f
3e570899
3ec2b253
c006785b
bfe54c62
3e2dc231
beb69e34
be33bb72
bec9093c
3eb97e74
bfd85d7d
3e9e2c46
3f167440
3f933a87
3f5a49bd
3fa6811b
3eb47cbf
beebc881
bf264d1e
bf3d97c7
3f4d6cd6
bf25a6ba
3f50d0ed
3f97d434
bf06f690
3f92a461
bef8c7e3
be42b820
3f8c7ca9
bebd43d8
3fd14f66
bf7d9e0c
be81712d
bea19a9a
3fa8e023
3f5b5b8f
3f9f74bf
be98b541
bee22082
bfa11d1b
3ed47a7f
be188b94
3f416d1d
3e1cfdaf
bf0afff1
3e929eda
3d8a9b14
beb3aa7c
3ef9b4b2
bf1ee957
bf22c79b
3eaf3bd0
bf1fb955
bf4e5fd4
3ea88828
bf1ecb67
bf3b6502
3f60337b
3f132e5b
bf56cfa1
3efc2fe0
bd173b6c
be0b551d
be8b88eb
3fc94424
bf9cd4db
3f23f60a
3e724fb4
bf916501
bd90a278
be978978
be83f9d0
bebd17f4
bf24084d
3d8e5921
3f02fea8
3fcb4348
3ea5c199
3f9145d5
3fbdcec3
bf10dc66
3fbce616
3f84d1b6
3e11d1b4
bfdeca6f
3ffd5af0
bf0488de
bf20b8bb
3e93c087
bf46fecf
bf85181c
3e95f736
bc7cb168
3f618c04
3edd2a55
c0026629
3fc41e9d
bf39be4c
3eef3ac7
3e2d7777
bf475a71
3e982599
bf431c60
bf99a4de
3f9f2362
3ffe9048
bf91cc7e
bef01bab
3f2eecb5
3f02b1cd
3f4243f3
bf174808
3fbc15fb
bf9092c9
bf92eccf
3f82adac
bce76078
3f1faa9c
bf3bbb5a
3f5c4814
bf2d245f
3e5103d5
3f50325b
3caba818
3ec4f68e
bff51cd9
3fb68903
3f3681f2
bd682705
bf8364f0
3f202557
be807f10
bec0aee3
bd562924
bf7e968b
3ec0992c
bf6e0656
3dab7bd1
be9debcc
bf3d6602
3efdc481
3f8b5656
bfc80401
3eaa4862
bf91ff11
4005d201
3f98d168
3e2413cb
bfc55aae
3dde7899
bf961990
bf92cbbe
3f06c762
bdb0698e
bf3e216d
3ec377c9
bf7fdcf3
3f2c9974
3fddb58d
3fdb45e5
bf83dcdb
bf77a16e
3f2e82b6
3fcfed40
bf502661
3f9b82b4
3d18e806
3e9df218
be40eda5
bf905731
3f0a6db4
bf858039
3f7de6ad
bef6ec7e
bfbacfbb
3e06149e
3cbbe070
3f55ccfb
40248a7e
3e7def7e
3e1de992
3e1d971f
3e3b6968
bd8e1d58
3fca0ac3
bf31a963
bf4eddf1
3d60e920
3f050d9b
bf8c4e66
bfd302d8
3f7d0333
3e426e84
3eeb11df
3e7a4f85
bf2c7d3c
3fcc23b0
bf86cb23
bf62ee00
bdcf30cd
bfbd3225
3fdc0328
3f243eff
3f4de149
3e80d2b1
bead26e8
3e03dba1
3f2eac6e
bd8013ff
3fc8984d
bf34d9ef
be47b744
be26e92d
3d13a5b7
bfad6c80
bf1f26bc
3eae9652
be3f5e56
3ebab7de
3f7769f0
bf7c5767
3f8d435e
bfbe3e27
3f8e4843
bf567188
3f896682
3fed7b69
3e9dbf05
be3ad007
be253d08
bf5bf8d8
be76516a
bfb42e33
3f5867c4
3fe691e4
bf7bd81e
3ff9e99d
befc1b9e
bfb7ed83
3e72f9a6
bf1c946e
bfe9a8aa
bfb76d71
3f00e45d
3e18b01a
3fd274d5
bd3d2580
bf449d86
bf97e766
3f0a1dbc
bfbca73d
bea434b5
3f53ffed
bef82aff
bf73110f
bf694727
3d90bb08
bd7c3511
bfa474d5
be992f15
3f01dfff
bfb34d2d
be86f6b9
3f55edf4
3fde90b1
3efef03c
3f0f84cf
3f9860be
be0af45a
3fabc65d
3ecfbd42
bf3251a3
3e013fd3
3f070fef
bfd5fcc0
3f929fd1
3fd51fb0
3faa29a5
bf0cc268
bf8b7e97
400003f8
3fce90bc
3f069507
be493a1c
3e5c118f
3fe1ff91
bdf82405
3f491e7c
3fca745b
3f1133ea
bf9c71ea
bec4cb26
bf6bbaaa
bf7acbdb
3ffae37b
beeed834
3ef12845
4002d3b0
3fa97845
3fd2fdd4
be8d6b85
3f15e39a
bfc6f8a9
3f0e6c25
bd48c51e
bf463041
bf3ef90a
3f96c162
be4f9f24
3f0a943d
3ef5a059
3ec6ba2b
bf889f19
bffe59c3
bf2b1c1f
be803cdf
3e6629e8
3f2e4f43
be3dd40a
3d87b7a2
3f9d4d92
bfc41bdd
be77206c
3d2c3834
be230c0d
3e0111d8
3ecb7270
3f6f3e75
be7e17b5
3eff09ce
40040d1d
bfc5fc4b
bf203b93
bf3ff2eb
bc4b68ac
bfc8c5c0
3ede88bb
3fe8162f
bfd2408b
bed3b8d0
be8e3878
3edc0782
3e98e5c8
bf133bd5
bf5c96bd
be22ec57
3f89501b
3f78afa2
be9b994b
bfe0bdfe
c00a1894
bd324230
bf4d7266
3f9a858b
3fc2b80d
bfb91eaa
3f7adc3e
bfc41a12
3d4765a3
bf062eab
3e76a989
3ea69a02
bfad522e
befa673c
bf155aa8
be80135b
bda67a62
3ef52f24
3f8132b0
3e8ed0b7
bee5fffe
bf8d9992
3f5d5ccf
3e567802
3f6ab52a
3fb80d24
bf29288f
3e8b6df3
3f91b550
bf9a6773
bf376398
be342137
bf8ff903
3f7dbf2f
bfb1efdc
3d233677
3fdb4a99
bdcbdd41
3e4b669f
c0257672
bf21b3f4
bfb90520
bf63881e
3f57c1da
3f4209b1
bfbd7fcf
be971cdd
c0082901
be7027dd
bf22e065
bfff1fa3
bfcacb36
3ea549a1
3c1c68eb
bdf594de
bf2f5fd3
3f7a3614
3ebd7aa4
3fc68153
3f80f5e3
3f85d202
bf87b520
bdec68f0
3fc4a4cd
be5b3f3e
3f56de23
be84e471
bd874ae6
bead8ef2
3e8c32d3
be5847bc
3ed9c9de
3f1ed547
3f4ff50b
3f18ae9e
3e0b54a4
3e2c4ce8
bf916649
bfdea42b
3ed66367
bf6cdadb
bf18b60b
3c41900f
3fc62a0a
3df0b927
3f6656f0
3f695dd8
3f0fd3f1
bf920334
bfaf66f6
3e6f9186
3f000f40
bf1f8138
bf0b3c97
bf80523d
bf347ab3
bea105b0
3f6fedea
bd278466
bbef4bfa
3f84f033
bfe342f8
3fc8cf77
3f6bb1b5
3f7635f1
3f235dbc
be585763
3f10182e
3f55ab5b
3eaf0ead
40130af4
3ed6abbb
3faf4ffd
3f0f2e38
3eb68163
bf8206f7
3fbd59ca
3ea75611
be684f79
3fe09d60
be1910b5
3f431685
bf1fede6
c0162e63
bf202943
3e7d0f7e
3eaaae03
4002127d
bf8aa32c
3fd10547
3f162dbe
3f8317c3
3f08ea36
bf3508c0
bf89affa
3f019ba1
3ef4a559
3dac096f
bfc373e0
becaf755
3f6fb82b
bf01adbb
3ddf8a50
bfacb9c6
bf94e140
3d30dc11
3eefee28
bf9ee790
3fd04681
404f471b
3f2048ab
be9c443a
3e8ed9ec
bc82eb8c
bf3c10e7
3f82409c
3f9feaf6
beef502f
3d19ee1d
3f06dfc3
bea922e5
bf980978
3f45e254
bf970e27
3fb7984c
bff18695
3dc34b8b
bf40378a
bf4034c9
bf82fc7f
3e951146
3f2e0de0
3ef321bd
bfb4184a
bf04787a
be93f24b
bff4643d
bf1ba2ed
bee4e46a
3f6cd418
be05824b
bf5a4118
becd32d5
c0085b85
3f165ec2
3e32d8bc
3d209db0
be9b2734
3df3c9cc
bf5d5484
3ed7a009
3fe3af44
bfc48dba
bf2bcddc
3fad17c3
bfdc86ee
bf94c976
beefaf55
3fc718e4
3f74d053
3fd7bdec
3ebc1a37
bf022ab5
400938fe
3f03187d
3f9ae74d
3e20de8d
c0247cc2
bf445562
bf6b8c4f
bf2dfdc1
bf4aca54
4000187f
3f0ebff9
3f93c256
bf224e7f
4015cbad
3da9d439
3f554a6d
3fddde54
be9fbcf8
3ec5da3b
3f632c73
bf924f07
bf5c4ad0
3f32e277
4029c0b5
bf974242
be2da9bd
bf9687a1
bf3feb88
3f8e901f
be3f1aa2
3f17bb87
bf5a7cf0
bdf5b9a6
bd986092
bf1bde24
3f94ee20
3e90f048
bf89fcf4
3f99208b
bf656455
3e346d42
bf97aaaa
bf8dbe27
3fdee7e9
3bda5451
be49b864
3d501413
3ef0aa37
bfa90fc7
bf3778d8
bedcc450
3e255c83
bf91fad7
bf6e7df2
bf148219
bd5a5f0d
3eafe5a9
bf63cd9f
bebabe3e
3e926bdc
c041fad7
3ef56c7a
3f529e47
3fefd65b
bf7c936c
bde73e28
3e5f29dc
bf4036de
3f3c39e9
bf748e6d
3f28dd2f
3f7e0c60
bf06c4d4
401fa530
3fc201d5
3e88dad3
3f8309db
3ebbaf6f
becf0020
3f5ac5d0
3e876ca3
bf02e43b
bf17f8f7
bf172ef0
ba874fe9
bbb61944
3ed636b2
be60d355
3dc0d830
bf626867
bf445c9c
bf2f175c
bf8119bf
3d776bcc
bddcc87c
bf9fdefa
be1528d7
3f80dfe8
402d165b
3e7ebba9
4014c0c1
3f5c3a43
3e71721a
beb24ba1
bfc41295
be903a57
3f108e75
3f138a03
400c3a3d
bf2406ae
beab6a89
3fe4d826
bfd475d3
bf4619f5
3e94901e
3f92ac51
3dc2948e
be18a2e7
bf42b687
3f3b5db9
400d539c
bf48ac71
c005713e
beb2b8d7
bf1827da
3f290039
bfb070d8
bf402af0
be860630
bf3f4a63
bde94b56
bf285c25
3ee2de3b
bdc6ae13
3f9ee7c1
3e9873ab
bfb64e49
bf039f6d
be528409
3fc6ada1
bf395f79
3f79d9f1
3f0e6675
400165cf
bf8d5e20
3e95a4f0
3fdf1acb
3f6ee0ae
bcfd0557
3d9d12ef
be7a2af2
3ebd6761
bf28e92a
3fbfdf4c
3f8a0872
befe34d1
3dd2f377
bf50e59b
3e6833c7
c019c7fd
3f50cc47
bf730e82
3f150b96
bf27805a
bee8a3fb
c002c17c
bf27d2cc
3feed3ac
3de233f5
bf997689
3dc080b2
3d18928f
be149be8
3db296c2
bfe0e3c8
3e958103
3f724c1a
3eb0e55b
bfa2c0cc
be6ea693
bf381330
bf50a437
bf928e4c
bf5c1a45
bea4a8b4
3f1994e8
3f39cbaa
bf325a85
3f4aa7d2
ba8c0cbf
3ed09e30
bef99eee
3fc17bf9
3fbc9a81
3dca4346
bf06b82d
3df4ec8e
3ea8a761
3eaaaa1d
becdffa8
3e9b6785
3f5ceec7
be5452b1
3f9eb89d
3ffe59ae
bf8cc768
3f9f2ed6
39592022
bebef6db
c00613b9
bfcadbf3
3f4409d0
3d92d589
bf59cdb7
3f47f00b
bf87ef84
3f033ac3
3db02a42
3ef3e285
3fe11a4f
3f92f998
bf88949f
3dbe4883
be7e701e
3e0d6937
bf9edd4c
bf899e8d
3f87952b
3dd9db3f
3db7a8c8
3ea181b5
be797ecb
bf0a858d
bf45a31a
bfd93cfc
3fbc6324
be6918e0
bf3790a5
402bdea4
4027120c
bfdf1fa4
3e886553
bf82947f
3f98e638
bfca464a
3dea309f
3faec9a0
3f015131
bf2718d0
3fb11151
3e9fb006
beff8d55
bebabbf1
3f80769e
bfef941f
3f425824
be933f34
3e9cd87b
40022c48
3fe4aa36
3f101250
bf1f64ed
3fab2aa4
c0070e66
3ee0d0ab
3fda3ada
bf851b6e
3f3faba3
bf48d82f
3efbfaa9
c005f74d
bf1fff9d
bf55f52a
bf363d0d
3f6141a0
beb0ba84
3da6816b
3fdbf12c
3f6bba25
bf872841
bf527649
bfbe0e18
3fc24112
bf009aa5
3fbf2aea
bf83151a
bfed9255
bd8df4d4
bf1514cc
bf665254
3fa7d5cc
3f30d358
bf286e0e
3ecb931b
3dc9ff36
3f03552f
3ff0a728
3e3e5361
bdac78c6
bf2fa79a
bf7352cf
3f510ca4
bd3d53f4
be5baf4d
3e933cf3
bf2ef176
3fbe2cfc
3fa18b9f
bfbecae5
3f9f92b0
bef315bf
3fd25324
c057319a
3ed4514d
3f31d193
3c8e24a2
bd5ece65
c002f5d1
3f2fd398
3e0aee57
bfd700e4
3f26c2c1
bfa96ba1
402ffa3a
bf64f672
bf525d3f
bf23be77
3f8a950e
bd310fef
3ee42487
3eafd947
3f5f8555
be886bef
bdd757ce
3f0a9fc3
3ee63cd1
be9a862c
3fedf5f6
bfbb7548
40194c9e
bf8e5f71
bd8004bb
3fcd9906
be1cf6e5
3e339687
3e63ab8f
3ea7cc5a
bfafd224
40082cd5
3f3b362d
3fe2e8cb
3f81cde9
3edb7d57
3fb70d21
bfb322f3
3f988097
bd21c299
be0fe35b
3ec66bf5
3fac8569
3d38914c
3fc5ec24
3ee2cfbe
3f8f2cb4
3bdaf876
bf3791e0
c00fbc1c
bfa7449c
bf3ef77d
3f8bf1c9
3e8f4f4d
3ca81cfd
bef870c0
bf97db22
3f85453c
bd94f23c
3fb10924
bf122e12
bf6260ce
3f1a9ef0
bf1188ba
3f92f464
bcbe7e30
bf7ab2f6
bf272ad4
3e1ee242
3f45f11b
3e61618f
bf553451
c01bbb95
3f3b0146
c0185888
bed33758
3f469a0e
3fb3da43
bfa3118d
3ff7eb5d
3d2a1d15
3f1820d6
3fc0fe41
bf35be77
be821ba6
bf9e0ae2
3eb1cdbd
bf15c186
bfc0d137
bf9a9264
bfd807ad
beaf00c2
bf2ffbbe
bf3f7734
3ee035d5
3e48a7d3
bf7c6db7
bf180ee9
bf2bd102
be56f26e
3f487172
bff14841
be3c9ee7
bef9e1b3
bfcedb26
bf852701
3fb6e408
3fbb0766
bdf46a4e
bf5b0d25
3ebeb63b
bfa29f5a
bf9dbe4d
3d14dee5
3f65f1f2
3e76d487
3dc06d71
bdccedf4
bf7fb0ce
3f8ce5c2
3f06d1c3
becefcdd
3e1126b3
3ddded14
bf21b4e7
3f6e17ab
bf0ab97c
3faadbbb
3e68ca23
3e80c327
3e6b9923
3f4dda93
3f1bd833
3f1a77ed
bf55e3ab
ba87c543
bf717a2a
bfd8f5fc
bfcc617a
3e5d757b
bf5ea1a1
bd92f46f
be123a74
bf430636
3dbdf297
bf06725a
3fbd966d
bfad3e8b
3e3d74e9
3f79817c
bf6661c8
bf606736
3fe0dcb2
bf7d0266
3fd6d03b
bf9e6513
bf4c5478
3f8ef4aa
bf04e478
be8c6e7e
3c983ee6
3facea08
3f5a74b0
3cdc68f4
3f223337
be9adc13
be055c46
c008f457
3f7e6ae8
bf7f477c
c01a4d42
3fb14b37
bd1e6863
be2618a7
bfe27f14
bed69e99
3ebcaefd
bcc942cc
3dffc930
c0057d56
bf3ea39b
3f9712a9
bda2134a
bfdf9432
3eaee850
3f919665
bf096d9d
bf3cb586
be108499
bfb45d6f
3f5d25cf
3fd9591a
3e6652d0
3e750ef7
be195d3f
bfff8b98
bf0e6493
3f20f5ce
be202809
bf8f6932
4000d47f
bf0c7012
bea0b8a0
bec73b1c
bf172142
3f9488f5
bf51d5f2
3fb265ab
3d4a2a2b
3f85ed5e
3e708649
bd875f66
bf9448a0
3e2c9e9c
3e7ebc35
3f8236aa
be1b7a02
bf017ca5
bf8ffcb5
3f97310a
be333e5f
bff6595c
3f02f5c0
bfd111de
3fcd42a1
be82ed83
bfaa30c4
bf3d980c
3f866bfd
3f355c30
bd860dd5
3eab5f02
be77ffaf
be199564
3da4d983
3fb32ae0
bf29a3cd
be67a210
bf4b3ffd
bf096b73
3e85e124
bde9df3d
bfb44bb9
bfa7c3cd
bf501576
bf0a4740
40059416
3ed934e4
be9e41a2
be5795ce
bced92c5
3ed39227
bdf511b8
3e68b22c
3fb2e4f9
3f2eefa6
3e3bbe3b
4029e7d0
3f3958e0
be061f7e
bf4e0e4f
bd15435d
3fad6b68
3e941aae
bf9eb51a
3fa94ef0
3e814212
3f822149
c0020e0d
bf8bad19
bf5f1639
bf6addec
c00d9805
bea8f6b8
bf3f3e29
3ea705fe
3f162733
bf85d899
3f22e7bb
bf4dede3
3ef46e0c
3f9aad0f
3e943082
bf755243
bffabf9b
bf9e9129
bef18e34
3f31bd32
3f690f4b
bf7858de
bf9a2a68
c0099bd7
3f2c05e0
3f975ece
3f8f3e13
be9f3e76
bf7edd51
3fee21de
be1f7c8b
bf4b5cd7
3efee248
be724f22
3ddec1cf
3fd9122d
3f8a397f
bf5d6ca7
3f841e35
3fe691d0
3f40001b
3e6f5334
3f72eedd
bf272232
bfccd2a0
be7776b1
3f95ba01
3f43dd4b
3f10f4d9
3e47000f
3e8beb9c
3f04443c
3e8b6008
3f4852e6
bec7e97e
3ef167a6
bf99c4f6
3f03d849
bf6c3fc2
3f80102f
bf550f43
bf8fb5b5
bf4085f1
be73e060
bf52d323
bf6e4654
3daef3a1
bff00ad0
be052000
3f6122db
bf7be509
bf8de216
bee303fb
3f0d325e
bf566509
bfbd6148
bf60bccc
3ea01953
3f335cd6
bf212d29
3ec1f9e3
3f9a462c
3f364247
be9b5bae
3f0d90b6
3f9f16e1
3dbf080b
be491d53
bf97956e
bf648556
bfc974d0
3f7410f0
3fb3388a
becde022
be5cb522
3f36ee50
bec92967
bf96b733
3e8433b4
3fceb26a
bf6d815a
bf9d6c6b
beaadbf8
3e2042f2
bfc7e45c
3fa86b3e
beb1055b
3f486541
bf82c857
3fb6cae6
3e8bebe7
3f783a0b
bf80869f
bee3dcde
bf8b5610
befdc75e
beafde4f
be168ddc
bf83bce6
3e24001b
be743225
4017846d
3d18aa3a
bfd87daf
be9216d9
bd8fcc83
bd638034
beacdd55
3edd4261
3efaa0af
3f503a33
beb9b751
bf255e78
3e584bc0
bf87dcb3
bff26d69
3f024006
3ef62e45
be1c5d84
3e24e3d0
beca8e4f
3e3b4075
bdbe1387
4023f76f
3ebc0a94
bf1d4fda
3f460319
3f41b8a9
bedd6e22
3ff3cead
bf762216
3fa73041
bf488252
3f866eac
bf42c446
bffd55b8
3f2699dd
bedead2c
bf9c2194
3f620375
3d7830f9
befbe6cf
becca54a
3faf178d
be07f37f
bf8802d7
3ebacc54
bf4e3855
3ee94e68
bf7c6841
bf0c90dd
bda5a9e2
bf8430d0
be63012f
bf1021c8
3fac3aeb
bf5616ca
3f9efef8
bfa93ad3
bf488e21
3f8b43e3
be8b10f2
bd77bb03
3ec664de
3efe0947
bf5b79fa
3e69566e
bfc3d9ef
3f7c3754
bf45a879
bfa3bd91
be9a86d1
3e17fca1
3d53a6a4
bf3ec1d2
bf83f4c5
bf1b5213
3debbdd9
bf2d6847
bf9fc9a9
3fb6f9ba
be777999
3ec159e9
bf02776d
3fafae97
3f785f93
be091909
3f1e731f
bfa3e21d
bf43eaa4
beb543d9
bf165f1a
401129fc
bf85d172
3f576a0d
3fecadd3
3f8ecec7
3d96a848
3e407191
be39658d
bf481e6b
be30f9d2
3f93b85f
3f81ea94
be60858f
bf57493f
bf969fb1
3e1bf72e
3ddad3f8
3ffdc238
3cfb4158
be3fc69e
3ee7b843
3ec65bef
bcfed044
4005d900
3e975a30
3f8c611b
3f4bbeb1
bf4a4d11
bf9e2b6d
3e65bf3f
bfbe269d
400fb0db
bfc6d4af
bf20da25
3df5ccf7
3f212c75
3f163dd3
bf912869
3f816151
bf728f63
bf17b1cb
be750b97
3a95bbf2
40094181
3e1d03de
bf0f8189
becf8f39
bfee329e
3e64f08b
bf25cf8f
3f25c688
3f6e5d78
bf0bcf7b
3fb5f90a
3ead6b41
3eff2f12
be644c4e
bfbce907
bf9d39d9
3d6433a1
bfcd3d31
bead18c8
3f253397
3dcf5c12
3f82ff50
bf28d4fb
3f73f436
bcc59a9c
be2ab8bb
bebb4634
bea8804c
3f42c60e
3e7ad92c
3f69ae70
400da3da
3fc7324e
c00273da
beab5bef
bf4a8a5d
bf473fba
be7b414a
bdd005bb
3d681426
3ebe3f83
